<pad>	0
<s>	0
<unk>	0
</s>	0
\sqrt	0
\frac	0
\int	0
\sum	0
\prod	0
\lim	0
\infty	0
\sin	0
\cos	0
\tan	0
\sec	0
\csc	0
\cot	0
\arcsin	0
\arccos	0
\arctan	0
\log	0
\ln	0
\exp	0
\alpha	0
\beta	0
\gamma	0
\delta	0
\epsilon	0
\varepsilon	0
\zeta	0
\eta	0
\theta	0
\vartheta	0
\iota	0
\kappa	0
\lambda	0
\mu	0
\nu	0
\xi	0
\pi	0
\rho	0
\sigma	0
\tau	0
\upsilon	0
\phi	0
\varphi	0
\chi	0
\psi	0
\omega	0
\Gamma	0
\Delta	0
\Theta	0
\Lambda	0
\Xi	0
\Pi	0
\Sigma	0
\Upsilon	0
\Phi	0
\Psi	0
\Omega	0
\mathbb	0
\mathcal	0
\mathrm	0
\mathbf	0
\mathit	0
\text	0
\textbf	0
\textit	0
\left	0
\right	0
\begin	0
\end	0
\cdot	0
\times	0
\div	0
\pm	0
\mp	0
\leq	0
\geq	0
\neq	0
\equiv	0
\approx	0
\sim	0
\propto	0
\to	0
\rightarrow	0
\leftarrow	0
\Rightarrow	0
\Leftarrow	0
\iff	0
\Leftrightarrow	0
\in	0
\notin	0
\subset	0
\subseteq	0
\supset	0
\supseteq	0
\cup	0
\cap	0
\setminus	0
\emptyset	0
\forall	0
\exists	0
\neg	0
\wedge	0
\vee	0
\partial	0
\nabla	0
\dot	0
\ddot	0
\prime	0
\boxed	0
\overline	0
\underline	0
\bar	0
\hat	0
\det	0
\dim	0
\ker	0
\gcd	0
\max	0
\min	0
\sup	0
\inf	0
<extra_0>	0
<extra_1>	0
<extra_2>	0
<extra_3>	0
<extra_4>	0
<extra_5>	0
<extra_6>	0
<extra_7>	0
<extra_8>	0
<extra_9>	0
<extra_10>	0
<extra_11>	0
<extra_12>	0
<extra_13>	0
<extra_14>	0
<extra_15>	0
<extra_16>	0
<extra_17>	0
<extra_18>	0
<extra_19>	0
<extra_20>	0
<extra_21>	0
<extra_22>	0
<extra_23>	0
<extra_24>	0
<extra_25>	0
<extra_26>	0
<extra_27>	0
<extra_28>	0
<extra_29>	0
<extra_30>	0
<extra_31>	0
<extra_32>	0
<extra_33>	0
<extra_34>	0
<extra_35>	0
<extra_36>	0
<extra_37>	0
<extra_38>	0
<extra_39>	0
<extra_40>	0
<extra_41>	0
<extra_42>	0
<extra_43>	0
<extra_44>	0
<extra_45>	0
<extra_46>	0
<extra_47>	0
<extra_48>	0
<extra_49>	0
<extra_50>	0
<extra_51>	0
<extra_52>	0
<extra_53>	0
<extra_54>	0
<extra_55>	0
<extra_56>	0
<extra_57>	0
<extra_58>	0
<extra_59>	0
<extra_60>	0
<extra_61>	0
<extra_62>	0
<extra_63>	0
<extra_64>	0
<extra_65>	0
<extra_66>	0
<extra_67>	0
<extra_68>	0
<extra_69>	0
<extra_70>	0
<extra_71>	0
<extra_72>	0
<extra_73>	0
<extra_74>	0
<extra_75>	0
<extra_76>	0
<extra_77>	0
<extra_78>	0
<extra_79>	0
<extra_80>	0
<extra_81>	0
<extra_82>	0
<extra_83>	0
<extra_84>	0
<extra_85>	0
<extra_86>	0
<extra_87>	0
<extra_88>	0
<extra_89>	0
<extra_90>	0
<extra_91>	0
<extra_92>	0
<extra_93>	0
<extra_94>	0
<extra_95>	0
<extra_96>	0
<extra_97>	0
<extra_98>	0
<extra_99>	0
<user>	0
<assistant>	0
<end>	0
<tool_call>	0
</tool_call>	0
<tool_result>	0
</tool_result>	0
,	-3.12184
.	-3.26829
▁la	-3.59712
▁the	-3.63307
▁de	-4.18759
▁of	-4.36649
▁and	-4.52416
n	-4.55121
▁kaj	-4.56248
s	-4.57905
▁to	-4.64548
▁in	-4.79285
▁a	-4.82044
▁en	-4.84592
-	-5.14649
▁estas	-5.18435
▁is	-5.29901
j	-5.36522
▁al	-5.41058
⸱	-5.48364
▁por	-5.53538
:	-5.55096
▁that	-5.59627
a	-5.61139
▁for	-5.6168
o	-5.64501
▁(	-5.69503
▁ne	-5.71775
▁it	-5.75508
'	-5.76476
▁-	-5.83047
▁"	-5.90329
▁you	-5.92987
▁with	-5.93544
▁mi	-5.94294
▁i	-5.94625
▁ke	-5.94661
▁vi	-6.00605
▁on	-6.05264
?	-6.05771
▁estis	-6.0755
▁li	-6.07699
▁was	-6.10467
)	-6.12057
▁kun	-6.15182
▁are	-6.15446
▁	-6.17221
▁as	-6.19076
▁he	-6.20642
▁from	-6.23138
▁kiel	-6.2439
▁pri	-6.25176
e	-6.25508
▁be	-6.28556
▁this	-6.30232
▁not	-6.30765
▁by	-6.31985
▁el	-6.35983
▁kiu	-6.36554
▁ni	-6.36569
t	-6.4273
▁pli	-6.4389
▁at	-6.46543
▁or	-6.46864
▁ĝi	-6.50171
▁ili	-6.50353
;	-6.53169
i	-6.54541
▁we	-6.55383
jn	-6.57125
▁but	-6.57189
▁will	-6.57374
▁povas	-6.58583
▁ĉi	-6.58842
▁which	-6.58945
▁his	-6.59081
▁aŭ	-6.60474
▁sed	-6.61724
▁have	-6.62285
▁tiu	-6.63301
▁can	-6.63567
▁per	-6.64498
▁they	-6.64903
▁“	-6.65888
▁an	-6.68559
is	-6.7153
▁|	-6.72053
▁one	-6.72913
▁=	-6.74064
▁do	-6.76219
▁da	-6.79946
"	-6.81073
▁your	-6.81426
!	-6.84397
▁plej	-6.85388
▁sur	-6.89388
▁also	-6.90669
▁ankaŭ	-6.91792
▁se	-6.92165
▁tio	-6.95277
▁kiuj	-6.9674
▁so	-6.96879
▁their	-6.97288
▁about	-6.98054
▁dum	-6.98803
an	-6.98864
▁more	-6.98989
▁–	-6.99905
▁all	-7.01118
▁has	-7.02174
▁if	-7.02341
▁esperanto	-7.03173
▁kiam	-7.05201
▁there	-7.05447
▁who	-7.06066
/	-7.06635
as	-7.08119
▁unu	-7.08808
▁post	-7.11387
d	-7.12292
ing	-7.12644
▁were	-7.15202
▁people	-7.1543
▁havas	-7.1562
▁when	-7.17689
ed	-7.18085
▁nur	-7.20136
▁my	-7.20937
▁esti	-7.21575
aj	-7.21652
▁other	-7.24658
u	-7.25153
▁what	-7.2547
▁oni	-7.2599
|	-7.26213
▁time	-7.26799
▁only	-7.28925
▁ŝi	-7.31611
▁ol	-7.32005
▁our	-7.32656
▁inter	-7.33027
▁pro	-7.33109
▁new	-7.33347
▁me	-7.33512
▁its	-7.33712
▁ĉe	-7.33949
▁her	-7.35247
▁them	-7.36366
▁she	-7.36477
▁no	-7.36569
▁had	-7.3763
).	-7.38721
]	-7.3878
▁many	-7.39015
▁some	-7.39443
▁after	-7.40289
▁du	-7.43153
▁ĉar	-7.44807
▁—	-7.45794
▁first	-7.46161
on	-7.46464
▁sia	-7.47956
||	-7.48575
oj	-7.48643
▁via	-7.50774
▁because	-7.50903
’	-7.50915
▁how	-7.51404
▁tiuj	-7.51772
▁je	-7.52918
▁than	-7.53732
▁him	-7.54386
▁laŭ	-7.54829
▁3	-7.54936
▁tre	-7.55018
▁2	-7.55131
▁/	-7.5518
▁world	-7.55448
la	-7.56746
”	-7.56796
▁most	-7.57845
ta	-7.58922
▁ĝin	-7.59107
th	-7.59464
h	-7.60148
),	-7.60429
▁antaŭ	-7.61443
▁would	-7.61822
▁ĉu	-7.62044
▁us	-7.62103
▁ĉiuj	-7.62873
▁very	-7.63211
er	-7.64364
▁two	-7.64391
▁aliaj	-7.66026
m	-7.66502
ly	-7.66949
▁ĝis	-7.67775
▁now	-7.6795
▁sen	-7.68666
▁nun	-7.68677
▁homoj	-7.69
."	-7.69704
▁like	-7.7033
▁multaj	-7.7117
▁*	-7.71662
y	-7.72109
▁5	-7.72258
▁into	-7.72288
...	-7.72487
▁during	-7.72709
▁4	-7.73295
▁devas	-7.74231
▁sian	-7.74618
▁same	-7.74801
▁tiel	-7.74962
▁said	-7.75375
▁years	-7.76144
▁such	-7.76622
▁kio	-7.77056
▁up	-7.77499
in	-7.78401
▁1	-7.79795
▁+	-7.80335
▁even	-7.80565
▁may	-7.80645
▁out	-7.81278
ado	-7.81634
▁lia	-7.82256
▁been	-7.83702
▁re	-7.84649
▁diris	-7.84935
c	-7.86226
▁mia	-7.86592
▁through	-7.87124
▁use	-7.87664
▁life	-7.88084
▁s	-7.88269
▁jaroj	-7.88372
▁work	-7.88521
[	-7.89162
▁tie	-7.89441
k	-7.89589
▁e	-7.89716
▁these	-7.89906
▁man	-7.90538
▁those	-7.90745
▁ĉiu	-7.90961
r	-7.91059
ro	-7.92147
▁eĉ	-7.92656
us	-7.94041
▁granda	-7.94199
▁jam	-7.94576
▁sub	-7.94767
▁where	-7.95021
▁[	-7.95132
▁tamen	-7.95265
▁mal	-7.9543
▁language	-7.9587
to	-7.96144
▁could	-7.96315
▁american	-7.96726
▁between	-7.96854
▁nia	-7.98043
▁good	-7.98639
▁know	-7.99148
▁day	-7.99734
▁kie	-8.00686
▁did	-8.01277
x	-8.01712
▁year	-8.01781
▁poste	-8.02187
re	-8.02422
▁kiun	-8.02483
▁'	-8.02592
▁km	-8.02761
▁tempo	-8.04327
es	-8.04411
▁each	-8.0449
▁10	-8.04595
▁kontraŭ	-8.0465
▁tra	-8.04667
▁sin	-8.04691
▁should	-8.06655
▁before	-8.07342
the	-8.07684
▁over	-8.07848
▁see	-8.08331
▁fari	-8.08883
▁6	-8.08972
▁much	-8.09119
▁according	-8.0958
en	-8.09649
▁vin	-8.09871
▁well	-8.10022
▁just	-8.10403
▁unua	-8.11189
.”	-8.1135
▁usona	-8.12219
▁alia	-8.12363
▁x	-8.12476
▁mem	-8.12485
▁does	-8.12657
ita	-8.13059
▁ilin	-8.13756
▁used	-8.13887
▁find	-8.13956
▁mondo	-8.14075
te	-8.14152
▁make	-8.14168
al	-8.1447
▁city	-8.14567
l	-8.14937
▁kion	-8.15057
▁tiun	-8.15222
do	-8.15284
▁long	-8.1548
▁tion	-8.16277
▁tri	-8.16574
▁however	-8.16759
g	-8.16906
b	-8.17807
▁go	-8.18068
▁tiam	-8.18236
▁here	-8.19505
▁don	-8.19721
▁part	-8.19829
▁any	-8.19882
▁eble	-8.20847
▁estos	-8.21059
▁want	-8.21771
▁vian	-8.21785
▁kelkaj	-8.22054
▁volas	-8.22116
▁lin	-8.22158
▁number	-8.2222
ante	-8.22804
▁place	-8.23296
▁help	-8.23806
▁7	-8.23812
▁min	-8.24115
p	-8.24435
▁p	-8.25206
▁already	-8.25219
▁b	-8.25319
▁high	-8.26642
▁without	-8.26926
▁made	-8.27218
▁vivo	-8.27305
▁bona	-8.27517
▁nova	-8.29071
▁8	-8.29078
▁####	-8.29117
de	-8.29431
▁bone	-8.29678
▁iu	-8.29745
▁take	-8.30212
▁multe	-8.30402
▁must	-8.30618
▁15	-8.30768
▁20	-8.31235
▁still	-8.31698
▁m	-8.31791
▁c	-8.31856
▁need	-8.31994
▁am	-8.32006
▁name	-8.32292
▁international	-8.3271
▁great	-8.33045
edit	-8.35029
▁three	-8.35332
▁way	-8.35615
▁ĉirkaŭ	-8.35651
▁d	-8.3613
mi	-8.36223
▁against	-8.36649
▁l	-8.37111
▁important	-8.37527
▁while	-8.37626
▁ofte	-8.37806
▁old	-8.38068
▁state	-8.38191
ne	-8.38262
▁war	-8.38307
▁lingvo	-8.38539
▁ĉiam	-8.38804
▁under	-8.38844
▁children	-8.39008
redakti	-8.39082
".	-8.39189
▁siaj	-8.39564
▁iom	-8.39776
▁havis	-8.40004
▁often	-8.4007
▁water	-8.40258
▁si	-8.40393
▁ankoraŭ	-8.4172
▁get	-8.41756
▁another	-8.41984
it	-8.42208
no	-8.42955
▁both	-8.42998
taj	-8.43059
▁best	-8.43265
▁national	-8.44133
▁12	-8.44285
▁around	-8.44405
▁since	-8.44407
▁god	-8.45014
▁kiujn	-8.45555
lo	-8.46115
▁urbo	-8.46146
2	-8.46255
▁kiom	-8.46647
▁super	-8.46922
▁30	-8.47208
▁ekzistas	-8.475
▁tute	-8.4754
▁information	-8.47653
▁every	-8.48228
▁parto	-8.4844
▁jaro	-8.49149
▁always	-8.493
▁let	-8.49321
▁system	-8.49536
▁different	-8.49805
▁among	-8.49934
,"	-8.50056
▁until	-8.50146
▁found	-8.50232
▁own	-8.50274
▁home	-8.50287
▁o	-8.50307
▁ja	-8.5071
co	-8.50745
▁free	-8.51239
▁9	-8.51396
▁school	-8.51833
▁therefore	-8.52001
f	-8.52057
▁states	-8.52446
▁un	-8.52497
▁tuta	-8.52894
▁t	-8.53139
▁due	-8.53412
▁source	-8.5364
▁several	-8.53829
z	-8.54159
▁kvankam	-8.54326
▁ek	-8.54716
▁povus	-8.55013
▁country	-8.55109
▁siajn	-8.55739
▁small	-8.56304
▁plu	-8.56366
ajn	-8.56663
▁last	-8.56694
▁large	-8.56943
▁united	-8.56952
os	-8.57407
▁dio	-8.57905
▁16	-8.57938
▁group	-8.58445
▁social	-8.5877
▁right	-8.59139
▁human	-8.59312
▁being	-8.594
▁scias	-8.59898
▁tro	-8.59955
ojn	-8.6001
▁ekzemple	-8.60109
iĝis	-8.60284
▁back	-8.60548
▁became	-8.61018
▁house	-8.61107
▁little	-8.61258
▁example	-8.61529
▁ĝia	-8.62798
man	-8.63058
▁come	-8.63207
▁k	-8.63427
v	-8.63672
▁end	-8.63704
▁100	-8.64093
▁lando	-8.6429
com	-8.65339
▁love	-8.65959
▁ajn	-8.66003
▁countries	-8.66167
ko	-8.66486
▁person	-8.66538
igi	-8.66914
w	-8.67036
▁fare	-8.67086
▁book	-8.67428
▁later	-8.67834
▁_	-8.67933
▁usono	-8.68433
ka	-8.68657
▁17	-8.68859
▁family	-8.69114
▁university	-8.69301
▁simple	-8.69375
▁never	-8.69496
▁faris	-8.69537
▁something	-8.70046
or	-8.70158
▁hours	-8.7019
▁...	-8.70206
▁young	-8.70335
▁china	-8.70877
▁called	-8.70924
▁although	-8.71344
ma	-8.71427
▁say	-8.71878
▁second	-8.72119
da	-8.72191
▁possible	-8.72693
ar	-8.72741
▁think	-8.72893
el	-8.72895
▁company	-8.73044
▁english	-8.73072
▁why	-8.74272
▁again	-8.74274
itaj	-8.74375
▁days	-8.74581
",	-8.74714
▁infanoj	-8.74893
▁become	-8.74919
▁diras	-8.74959
▁estus	-8.75141
▁40	-8.75259
▁est	-8.75313
▁g	-8.75316
▁down	-8.76367
▁ekde	-8.7658
▁ilia	-8.76666
▁various	-8.76729
se	-8.76751
▁edit	-8.76844
▁history	-8.7687
▁total	-8.76978
▁50	-8.77008
▁things	-8.77015
▁neniam	-8.77453
▁tial	-8.77505
▁60	-8.7763
▁main	-8.78434
▁give	-8.7852
▁uzi	-8.7871
▁«	-8.79019
▁redakti	-8.79131
anta	-8.79415
▁everything	-8.79428
▁landoj	-8.79645
▁iuj	-8.79862
,”	-8.8016
▁neniu	-8.80704
▁men	-8.80717
▁povis	-8.80764
▁14	-8.81056
▁akvo	-8.81095
▁today	-8.81108
▁jen	-8.8138
eco	-8.81435
▁malpli	-8.81529
▁known	-8.81656
▁times	-8.81701
▁read	-8.81936
na	-8.82019
▁11	-8.82082
▁general	-8.82243
▁came	-8.82319
▁diversaj	-8.82382
▁preskaŭ	-8.8254
igo	-8.82567
▁few	-8.82714
▁bezonas	-8.82733
▁uea	-8.83039
▁others	-8.83039
▁took	-8.83408
▁nomo	-8.8356
nte	-8.83739
ers	-8.83809
▁co	-8.83979
▁hand	-8.8431
▁government	-8.8449
ca	-8.84525
▁power	-8.84629
—	-8.84715
▁faras	-8.84916
le	-8.84917
▁niaj	-8.85246
▁together	-8.85376
▁body	-8.85823
▁:	-8.86239
1	-8.86267
▁live	-8.86333
▁away	-8.86386
▁tago	-8.86648
▁laboro	-8.86704
▁president	-8.87151
▁sama	-8.8716
▁fonton	-8.87602
nta	-8.87635
▁music	-8.87655
▁women	-8.87906
di	-8.88056
▁film	-8.8806
▁too	-8.88081
ni	-8.88133
▁13	-8.8859
://	-8.88825
▁vere	-8.88837
▁nombro	-8.88961
▁german	-8.88988
▁father	-8.89082
▁f	-8.89295
▁money	-8.89378
▁viaj	-8.89635
▁tom	-8.8977
▁next	-8.8991
st	-8.89916
▁king	-8.89939
▁form	-8.90003
▁far	-8.9002
▁off	-8.90328
▁okazis	-8.90373
▁service	-8.90428
▁n	-8.90518
▁century	-8.90681
isto	-8.90944
▁alta	-8.91113
▁dua	-8.91195
▁following	-8.91351
▁almost	-8.91389
▁car	-8.91397
3	-8.91518
▁using	-8.91736
▁son	-8.91837
▁left	-8.91895
▁better	-8.92045
▁words	-8.92086
▁kial	-8.92224
▁himself	-8.92247
iĝas	-8.92287
▁trovi	-8.92393
(	-8.92482
▁grava	-8.92561
▁u	-8.92624
▁vidi	-8.92898
▁began	-8.92997
▁loko	-8.93078
▁nin	-8.93276
▁less	-8.93499
ra	-8.93937
▁internacia	-8.94003
ad	-8.94223
▁ĉio	-8.94233
▁kune	-8.94368
▁fine	-8.94439
▁tuj	-8.94564
▁krom	-8.9461
and	-8.94693
ist	-8.94954
▁french	-8.94964
▁video	-8.95092
go	-8.95159
▁order	-8.95236
▁hodiaŭ	-8.95676
▁air	-8.95792
▁ambaŭ	-8.96123
ve	-8.96207
▁public	-8.96208
▁members	-8.96529
▁support	-8.96919
▁ĉiujn	-8.96992
▁european	-8.97022
▁beautiful	-8.97487
▁homo	-8.97515
ton	-8.97644
▁students	-8.97969
▁website	-8.98264
▁r	-8.98466
▁art	-8.99095
▁especially	-8.99246
▁put	-8.99335
▁program	-8.99342
▁jarcento	-8.99346
igas	-8.99356
▁party	-8.99394
▁look	-8.99759
▁within	-8.99843
igis	-8.99897
▁h	-9.00028
▁estu	-9.00178
▁thus	-9.00219
▁fact	-9.00241
able	-9.00299
▁havi	-9.00303
▁able	-9.00475
▁kvar	-9.00698
▁word	-9.00758
▁set	-9.00788
▁full	-9.00794
▁liaj	-9.00867
ic	-9.01205
▁ĉinio	-9.01426
ism	-9.01463
▁four	-9.01899
▁18	-9.02221
▁tia	-9.02532
▁change	-9.0258
ata	-9.02683
?"	-9.02865
▁show	-9.02916
▁john	-9.02941
▁ago	-9.03076
4	-9.03153
ia	-9.03366
▁chinese	-9.03798
▁food	-9.03866
▁iliaj	-9.03991
▁patro	-9.04153
▁uzas	-9.04161
▁komencis	-9.04292
▁v	-9.04305
▁sufiĉe	-9.04637
istoj	-9.04713
mo	-9.04876
_	-9.04936
▁historio	-9.05129
ll	-9.05264
ig	-9.05377
▁black	-9.05472
▁including	-9.05549
ulo	-9.05651
▁unue	-9.05899
▁whether	-9.05944
▁25	-9.05992
▁open	-9.0601
▁grandan	-9.06035
▁white	-9.06386
vi	-9.06485
▁san	-9.06518
▁everyone	-9.06705
▁means	-9.06747
▁horoj	-9.06847
▁head	-9.06958
▁development	-9.06983
▁multajn	-9.07054
▁rapide	-9.07125
▁mother	-9.07197
▁denove	-9.07267
▁death	-9.07343
li	-9.0738
▁itself	-9.07402
▁languages	-9.07679
▁movement	-9.07681
▁devus	-9.0804
▁ŝia	-9.08334
▁grandaj	-9.09004
uloj	-9.09084
ch	-9.09194
▁mian	-9.0925
▁friends	-9.09273
▁products	-9.09296
▁went	-9.09369
▁ricevis	-9.09532
▁congress	-9.09637
▁real	-9.09641
▁facile	-9.09651
▁political	-9.09688
▁non	-9.09764
▁thought	-9.09773
▁vidis	-9.0981
▁red	-9.09867
io	-9.09884
▁article	-9.10019
▁themselves	-9.10127
▁ho	-9.10205
▁milito	-9.10236
▁helpi	-9.1024
▁light	-9.10257
▁grupo	-9.10321
▁mr	-9.10352
▁24	-9.10415
▁ion	-9.10529
▁center	-9.10582
▁special	-9.10619
▁le	-9.10743
▁19	-9.10763
▁whole	-9.10803
▁venis	-9.10845
▁product	-9.10942
▁church	-9.11276
▁asked	-9.11346
▁case	-9.11417
▁signifas	-9.1147
iĝo	-9.116
▁„	-9.11632
▁land	-9.1169
▁once	-9.11751
”.	-9.11756
▁south	-9.11859
▁online	-9.11865
▁trans	-9.11982
▁popular	-9.1209
▁start	-9.12396
▁play	-9.12413
▁&	-9.12575
at	-9.12775
▁longer	-9.12846
▁whose	-9.13118
me	-9.13165
▁original	-9.13193
▁learn	-9.13266
▁konata	-9.13284
▁completely	-9.13706
▁kutime	-9.13768
ejo	-9.13776
▁age	-9.1387
▁kies	-9.14175
▁tiujn	-9.14249
▁malgranda	-9.1427
▁europe	-9.14382
▁works	-9.14399
ga	-9.14472
▁area	-9.14549
▁sometimes	-9.14636
ation	-9.14777
▁viajn	-9.14819
▁tiom	-9.14831
ant	-9.15452
▁local	-9.15532
igita	-9.15603
5	-9.15671
▁finally	-9.15743
▁region	-9.15822
▁understand	-9.15938
▁didn	-9.1632
▁nothing	-9.16455
▁di	-9.16465
▁saw	-9.16696
▁precipe	-9.1736
▁nek	-9.17365
▁lord	-9.17414
▁law	-9.17419
▁sistemo	-9.17562
▁union	-9.17707
▁true	-9.17754
he	-9.17767
▁side	-9.1782
▁least	-9.17998
▁tagoj	-9.18009
▁iam	-9.18188
▁common	-9.18192
▁kelkajn	-9.18244
▁future	-9.18375
▁cannot	-9.18469
▁necessary	-9.18578
▁tero	-9.1862
▁registaro	-9.18624
▁problem	-9.187
▁health	-9.18906
?”	-9.18912
▁association	-9.18953
▁quality	-9.19146
▁libro	-9.19349
▁night	-9.19616
▁prezidanto	-9.19647
ce	-9.19688
ino	-9.19706
▁nacia	-9.19734
▁experience	-9.19751
▁data	-9.19755
kaj	-9.198
▁heart	-9.19883
▁research	-9.20087
▁modern	-9.20136
aĵo	-9.20254
▁society	-9.20289
▁‘	-9.20454
▁w	-9.20457
▁dis	-9.2046
▁current	-9.2049
▁apple	-9.20554
▁woman	-9.20581
▁familio	-9.21057
▁sea	-9.2108
▁sun	-9.21251
don	-9.21588
anto	-9.21952
▁80	-9.22203
▁someone	-9.22283
▁point	-9.22368
▁received	-9.22396
ismo	-9.22862
▁etc	-9.22872
▁project	-9.23018
▁series	-9.23124
▁radio	-9.23222
▁production	-9.23238
▁virinoj	-9.23497
▁dek	-9.23655
▁okazas	-9.23657
▁earth	-9.23669
▁kvin	-9.23682
▁”	-9.23724
▁period	-9.23966
▁usually	-9.24146
▁po	-9.24351
▁retejo	-9.24513
▁novaj	-9.24542
▁game	-9.24621
▁donas	-9.24686
▁river	-9.24741
▁process	-9.24787
▁parts	-9.24789
▁21	-9.24794
ge	-9.25047
▁north	-9.25092
▁five	-9.25122
▁komunumo	-9.25161
▁million	-9.25189
▁novan	-9.25247
▁please	-9.25254
▁france	-9.25386
▁control	-9.25419
▁fariĝis	-9.25509
▁korpo	-9.25525
▁fino	-9.25539
▁study	-9.25624
et	-9.25655
▁team	-9.25732
▁afero	-9.25741
▁aferoj	-9.25882
▁face	-9.25948
▁sat	-9.26111
▁regarding	-9.26444
▁maniero	-9.26798
ness	-9.26842
▁having	-9.2695
ke	-9.26957
▁)	-9.2699
▁result	-9.27048
▁zamenhof	-9.27115
▁half	-9.27218
▁market	-9.27372
▁?	-9.2742
▁problems	-9.27441
▁return	-9.27475
▁eŭropo	-9.27587
▁list	-9.27853
▁led	-9.27913
▁tell	-9.27916
▁central	-9.2792
▁soon	-9.28102
▁share	-9.2836
▁daŭre	-9.28397
▁diri	-9.2852
▁alian	-9.28567
▁says	-9.28708
▁idea	-9.28789
▁short	-9.29032
▁sum	-9.29062
▁pluraj	-9.29161
▁really	-9.29289
▁created	-9.29344
▁office	-9.29504
▁temas	-9.29683
▁near	-9.29748
antoj	-9.29763
▁meeting	-9.29788
▁early	-9.29922
▁based	-9.29927
▁available	-9.30035
▁eyes	-9.30201
▁dream	-9.30219
▁(19	-9.30417
▁j	-9.30494
▁working	-9.30597
il	-9.30746
▁labor	-9.30862
▁present	-9.30896
▁create	-9.30916
▁difficult	-9.30989
be	-9.31044
ilo	-9.3107
▁similar	-9.31295
▁believe	-9.3145
▁published	-9.31569
▁above	-9.31677
▁io	-9.31855
um	-9.31884
▁price	-9.3198
▁bonan	-9.32136
▁nature	-9.32178
▁universitato	-9.32179
▁domo	-9.3271
▁space	-9.3283
ul	-9.32836
▁lot	-9.32988
▁course	-9.33006
▁inkluzive	-9.33018
▁trovis	-9.33095
we	-9.33151
▁uzata	-9.33186
▁matter	-9.33389
ba	-9.33454
▁level	-9.33574
!”	-9.33628
▁value	-9.33708
-19	-9.33738
▁y	-9.3385
▁energy	-9.33901
▁perhaps	-9.33962
▁sent	-9.33994
▁certe	-9.3423
▁natural	-9.34248
▁further	-9.34359
▁type	-9.34375
▁ĉefa	-9.34541
▁st	-9.34551
ity	-9.3456
▁mono	-9.34571
noj	-9.34626
▁politician	-9.3467
mal	-9.34711
”,	-9.34776
▁enough	-9.34784
▁politikisto	-9.34788
!"	-9.34886
▁child	-9.34927
▁business	-9.3505
▁ten	-9.35211
so	-9.35317
▁turn	-9.35359
▁books	-9.35494
▁angla	-9.35644
▁page	-9.3565
▁regiono	-9.3566
aŭ	-9.35672
▁room	-9.35742
▁considered	-9.35893
▁version	-9.36027
▁persono	-9.36028
▁community	-9.36118
▁strong	-9.36294
con	-9.36337
▁immediately	-9.36395
iĝi	-9.36414
▁culture	-9.36479
▁famous	-9.3648
▁90	-9.36515
▁green	-9.36552
po	-9.3665
▁past	-9.36733
▁third	-9.36735
▁feel	-9.36746
▁sinjoro	-9.37152
▁aliajn	-9.37174
▁pay	-9.37248
▁got	-9.37553
org	-9.37572
▁anti	-9.37645
for	-9.3767
iĝ	-9.37704
▁quickly	-9.37743
▁foreign	-9.37881
▁russian	-9.37982
▁iĝis	-9.38044
▁living	-9.38099
▁•	-9.38287
▁comes	-9.38465
▁patrino	-9.38528
▁↑	-9.38667
va	-9.38774
▁longa	-9.39052
▁call	-9.39164
▁morto	-9.39342
▁viro	-9.39431
▁fakte	-9.39528
son	-9.39586
▁foje	-9.39595
▁army	-9.39734
▁ricevas	-9.39736
▁provide	-9.39751
▁needs	-9.39775
▁rest	-9.39775
▁member	-9.39819
▁economic	-9.39965
▁sankta	-9.40024
▁ĝuste	-9.40059
▁story	-9.40079
▁text	-9.40089
▁lingvoj	-9.40096
▁star	-9.4022
toj	-9.40454
▁nian	-9.40545
▁try	-9.40656
▁yet	-9.40893
▁celo	-9.41048
aĵoj	-9.41112
6	-9.41131
▁ŝin	-9.412
▁easy	-9.41263
▁rights	-9.41312
▁unknown	-9.41471
▁1.	-9.41508
▁beginning	-9.41535
▁ekster	-9.41537
▁krome	-9.41721
▁internet	-9.41724
land	-9.41841
▁jes	-9.41841
▁media	-9.41942
▁plan	-9.41997
▁vojo	-9.42148
za	-9.42339
▁certain	-9.42366
▁devis	-9.424
▁google	-9.42409
▁peace	-9.4241
▁montras	-9.42414
▁wanted	-9.42435
ri	-9.42523
▁antaŭe	-9.42594
ry	-9.42673
▁meet	-9.42777
▁technology	-9.42899
▁born	-9.42964
▁bonaj	-9.43038
▁ktp	-9.43311
8	-9.43343
▁won	-9.43493
▁british	-9.43555
▁baldaŭ	-9.43592
▁sola	-9.43667
▁pre	-9.4387
▁care	-9.43956
▁thing	-9.43968
▁content	-9.4398
▁nor	-9.43995
▁visit	-9.4423
▁addition	-9.4427
pa	-9.44489
▁march	-9.44495
▁choose	-9.44594
▁island	-9.4469
▁vera	-9.44708
▁formo	-9.44724
▁park	-9.44767
▁receive	-9.44791
▁moment	-9.45026
▁phone	-9.45066
▁22	-9.45072
▁military	-9.4509
▁education	-9.45091
▁services	-9.45116
▁filo	-9.45171
▁ĉefe	-9.45343
▁jarojn	-9.45347
ho	-9.45355
ir	-9.45486
▁science	-9.4561
▁amount	-9.45722
▁television	-9.45749
▁simply	-9.4576
▁http	-9.45773
7	-9.45777
▁shall	-9.45867
▁vidas	-9.45886
▁whom	-9.4595
▁miaj	-9.46064
▁krei	-9.46199
▁samtempe	-9.46214
▁material	-9.46512
kon	-9.46764
▁70	-9.46792
▁lasta	-9.46908
▁ŝtato	-9.46909
▁front	-9.46941
▁libera	-9.46949
▁malsamaj	-9.47032
▁reĝo	-9.47156
▁mar	-9.47172
▁david	-9.47177
▁franca	-9.47372
▁maria	-9.47408
▁yes	-9.47442
▁germany	-9.47629
▁role	-9.47771
▁ha	-9.47793
▁venas	-9.47913
ter	-9.47913
▁located	-9.47937
▁force	-9.47985
bo	-9.48026
▁iris	-9.48053
▁nu	-9.4822
▁largest	-9.48222
▁donis	-9.48449
eto	-9.48467
▁week	-9.48499
▁continue	-9.48513
▁artikolo	-9.48566
▁given	-9.48576
▁certainly	-9.48577
▁verŝajne	-9.48644
▁add	-9.487
▁committee	-9.48741
▁top	-9.48845
▁gave	-9.48906
▁appeared	-9.49
if	-9.49026
▁kvazaŭ	-9.49242
▁leave	-9.49246
▁uzo	-9.49247
▁america	-9.49271
ci	-9.49371
▁cost	-9.49404
▁pensas	-9.49542
▁ene	-9.49576
▁line	-9.4959
ha	-9.4963
▁120	-9.49634
▁friend	-9.49845
▁ask	-9.49858
▁parents	-9.49924
▁lernejo	-9.49997
▁kompanio	-9.50033
▁easily	-9.50037
▁middle	-9.50064
▁speed	-9.50179
▁months	-9.50227
▁along	-9.50288
▁instead	-9.50297
▁organization	-9.50329
▁official	-9.50471
▁going	-9.5049
▁mean	-9.50575
▁news	-9.50575
▁republic	-9.5062
▁volis	-9.50685
▁global	-9.5083
▁design	-9.50841
▁outside	-9.5085
▁board	-9.50856
▁troviĝas	-9.50878
▁bad	-9.51115
▁akiri	-9.51162
▁museum	-9.51174
▁ŝatas	-9.51206
▁attention	-9.5121
▁big	-9.51264
▁entire	-9.51304
▁tutan	-9.51479
▁cities	-9.51491
▁population	-9.5157
▁building	-9.51628
▁apud	-9.51644
▁uk	-9.51663
▁aperis	-9.51691
▁atingi	-9.51707
▁almenaŭ	-9.51731
▁esperantists	-9.51958
▁farita	-9.51972
▁amo	-9.5202
▁ĉina	-9.52213
antaj	-9.5236
▁groups	-9.52395
▁viroj	-9.52445
▁done	-9.52453
▁makes	-9.52532
▁situation	-9.52563
▁low	-9.52573
▁produktoj	-9.52593
▁ĉion	-9.5261
▁tempon	-9.52634
▁propra	-9.52664
▁speak	-9.52724
▁teksto	-9.52766
▁longe	-9.52913
▁fire	-9.52958
▁seen	-9.5296
▁minutes	-9.53113
▁started	-9.5323
▁servo	-9.53425
▁told	-9.53431
▁germana	-9.53496
▁ŝajnas	-9.53712
▁lian	-9.53768
▁contact	-9.53795
▁informoj	-9.53798
▁ii	-9.53914
▁capital	-9.53973
▁iri	-9.53977
▁written	-9.54029
sa	-9.54037
▁lost	-9.54065
▁cause	-9.54285
▁homojn	-9.54324
▁hope	-9.54368
▁ever	-9.54444
▁doesn	-9.54644
▁nov	-9.54676
▁italian	-9.54977
▁search	-9.55008
www	-9.55161
▁vortoj	-9.55206
▁built	-9.55242
▁died	-9.55263
▁partio	-9.55414
▁gravaj	-9.55421
▁morning	-9.55457
▁$	-9.55742
▁francio	-9.558
▁android	-9.5585
▁23	-9.55939
▁west	-9.55944
▁centro	-9.56035
▁amikoj	-9.56113
▁ĝenerale	-9.56144
▁computer	-9.56169
▁programo	-9.562
adis	-9.56205
▁field	-9.56227
▁ĝiaj	-9.56291
▁making	-9.56317
9	-9.56448
▁amas	-9.56587
▁2.	-9.56639
ti	-9.56645
▁paul	-9.56875
▁restas	-9.56928
per	-9.56981
q	-9.56999
▁york	-9.57043
▁sam	-9.57078
▁studentoj	-9.57174
▁iphone	-9.57182
▁talk	-9.57252
▁eŭropa	-9.57278
▁ties	-9.57301
▁iun	-9.57359
ten	-9.5769
fi	-9.57782
▁decided	-9.57802
▁event	-9.57817
▁interesting	-9.5785
▁might	-9.57899
▁nuntempe	-9.57903
▁write	-9.58009
▁machine	-9.58048
▁ge	-9.58085
%	-9.58105
igu	-9.58231
▁spanish	-9.58272
▁step	-9.58327
▁upon	-9.58391
▁paper	-9.58478
▁cultural	-9.58535
▁vivon	-9.58615
▁28	-9.58786
ŝ	-9.58903
▁oil	-9.58991
▁bar	-9.59007
▁august	-9.59057
▁report	-9.59072
▁\(	-9.59115
▁met	-9.59143
▁bela	-9.59179
▁membroj	-9.5919
▁saint	-9.5926
▁filmo	-9.59261
▁#	-9.5929
▁final	-9.5943
▁species	-9.59447
▁currently	-9.59506
zo	-9.5954
▁indeed	-9.5961
▁personal	-9.59754
▁color	-9.59835
▁kongreso	-9.59837
▁town	-9.59863
▁industry	-9.59874
▁eu	-9.59887
▁wrote	-9.60073
▁quite	-9.60237
▁tagon	-9.60254
▁council	-9.60257
▁wife	-9.60376
▁looking	-9.60503
▁remember	-9.60664
▁27	-9.60674
▁street	-9.60748
adon	-9.60772
▁send	-9.60776
▁travel	-9.60786
▁happy	-9.60869
▁despite	-9.60915
▁lerni	-9.61083
▁east	-9.61102
ĝi	-9.61107
▁workers	-9.6116
▁close	-9.61304
▁milionoj	-9.61336
▁summer	-9.61362
▁proksime	-9.61382
ebla	-9.61517
▁200	-9.61557
▁knowledge	-9.617
▁z	-9.61772
▁doni	-9.61805
▁keep	-9.6192
▁model	-9.61985
▁yourself	-9.62153
▁juna	-9.62217
▁ĝenerala	-9.62263
▁plant	-9.62297
▁vorto	-9.62324
▁heard	-9.62382
▁spirit	-9.62662
▁position	-9.62685
▁povos	-9.62697
▁blood	-9.62749
▁eblas	-9.62804
▁dr	-9.62847
▁parolas	-9.62852
▁hands	-9.629
▁germanio	-9.62912
jara	-9.62976
▁kon	-9.63016
ion	-9.63051
▁events	-9.63063
▁bon	-9.63091
▁generally	-9.63344
du	-9.63379
ate	-9.6346
▁email	-9.63492
▁users	-9.63564
▁periodo	-9.63615
▁games	-9.63634
▁self	-9.63722
▁(18	-9.63749
▁virino	-9.63769
▁major	-9.63787
▁april	-9.63877
▁trade	-9.6395
▁proksimume	-9.64041
am	-9.64051
▁bonvolu	-9.64075
▁ratio	-9.64147
▁western	-9.64222
▁lives	-9.64293
▁mil	-9.64325
▁table	-9.64362
▁kredas	-9.64417
▁con	-9.64445
▁question	-9.64457
▁26	-9.64546
▁eternulo	-9.64578
▁boy	-9.64605
▁needed	-9.6462
▁mortis	-9.64631
▁road	-9.64634
▁buy	-9.64681
▁named	-9.647
▁act	-9.64933
▁klientoj	-9.64969
▁clear	-9.65113
▁funkcias	-9.65332
▁average	-9.65575
▁grand	-9.65629
▁iras	-9.65807
men	-9.65823
▁eat	-9.6594
fa	-9.66039
▁paroli	-9.66171
▁voice	-9.66252
▁thanks	-9.66298
▁test	-9.663
▁rezulto	-9.66637
▁3.	-9.66706
▁security	-9.66887
▁julio	-9.66899
▁hard	-9.66947
▁girl	-9.67078
▁tiaj	-9.67104
▁novajn	-9.67212
but	-9.67319
▁socio	-9.67337
▁june	-9.67467
▁author	-9.67492
▁october	-9.67523
▁partoj	-9.67545
▁mary	-9.6759
▁urboj	-9.67638
▁anstataŭ	-9.67657
▁july	-9.67708
▁station	-9.67836
▁actually	-9.67839
ec	-9.67882
▁reason	-9.6796
vo	-9.68018
ting	-9.68032
▁class	-9.68032
▁companies	-9.68121
▁sign	-9.68252
▁towards	-9.68272
▁individual	-9.68283
▁distance	-9.68328
▁majo	-9.68333
rs	-9.68447
ine	-9.68561
▁december	-9.6858
▁evening	-9.68651
▁legi	-9.68696
▁looked	-9.68706
▁te	-9.68771
▁van	-9.68829
0	-9.68864
▁september	-9.69008
▁sekve	-9.69096
▁socia	-9.69299
▁six	-9.69402
▁watch	-9.69406
igitaj	-9.69409
▁russia	-9.69443
▁village	-9.69476
gi	-9.69479
mm	-9.69493
▁rekte	-9.69505
▁court	-9.69507
▁movado	-9.6951
▁kind	-9.69525
▁serio	-9.69546
▁lokoj	-9.69677
▁offer	-9.69689
▁sumo	-9.69802
▁roman	-9.69884
▁kompreneble	-9.69934
▁die	-9.69982
▁conditions	-9.69999
▁problemo	-9.7007
▁club	-9.70132
▁results	-9.70305
▁homa	-9.7034
▁action	-9.70558
▁enjoy	-9.70617
▁january	-9.7065
▁bring	-9.70676
▁reading	-9.70716
ano	-9.708
▁elekti	-9.70848
ian	-9.70912
▁prezo	-9.70926
▁latin	-9.71033
▁door	-9.71217
aro	-9.71238
▁below	-9.71276
▁restis	-9.71354
id	-9.71424
▁writing	-9.71511
▁account	-9.71542
▁wall	-9.71773
▁interest	-9.71778
▁aŭto	-9.71803
▁probably	-9.71868
▁increase	-9.7191
▁malgraŭ	-9.71968
▁complete	-9.71971
▁popolo	-9.72069
▁former	-9.72086
▁places	-9.72093
▁blue	-9.721
▁shows	-9.72177
▁higher	-9.72258
▁battle	-9.72266
10	-9.72333
▁learning	-9.72808
▁esperantistoj	-9.72843
gen	-9.72981
▁nations	-9.73078
▁london	-9.73085
▁professional	-9.73109
▁plena	-9.73153
▁gepatroj	-9.73226
▁opinion	-9.73361
▁jesus	-9.73406
»	-9.73487
▁access	-9.73499
▁single	-9.73537
▁changes	-9.73552
anoj	-9.73618
▁helpas	-9.73676
▁75	-9.73734
▁temo	-9.73773
▁decidis	-9.73815
▁ko	-9.73859
–	-9.7398
▁laboron	-9.74045
▁ĉiun	-9.74082
▁mass	-9.74129
▁stop	-9.74156
▁male	-9.74169
▁animals	-9.74197
nd	-9.74223
esperanto	-9.74232
▁gives	-9.74389
ck	-9.74393
▁appear	-9.74403
▁ma	-9.74435
▁bank	-9.74452
nto	-9.74582
▁move	-9.74586
em	-9.74603
▁questions	-9.74651
▁ludo	-9.74696
ki	-9.74868
▁network	-9.74898
▁stay	-9.7493
▁throughout	-9.74972
▁scii	-9.7499
▁polish	-9.75036
▁vidu	-9.75065
▁november	-9.7508
▁effect	-9.75124
sen	-9.75159
▁song	-9.75334
▁sound	-9.75391
▁demandis	-9.75428
▁marto	-9.75432
▁remain	-9.7549
▁seems	-9.75586
@	-9.75605
▁held	-9.75749
▁tomo	-9.7581
ataj	-9.75813
▁mark	-9.75922
▁train	-9.75961
▁unuaj	-9.75983
▁kulturo	-9.75994
▁areo	-9.75995
▁ground	-9.76011
▁aĝo	-9.76177
▁construction	-9.76382
mon	-9.76454
tu	-9.76474
▁cold	-9.76519
▁goal	-9.76639
▁minister	-9.76755
▁studies	-9.76895
▁across	-9.76895
▁enhavas	-9.76928
▁tria	-9.76966
▁et	-9.76995
▁include	-9.77183
▁application	-9.77207
▁christ	-9.77235
▁na	-9.77241
▁directly	-9.77276
▁respondis	-9.7738
▁permesas	-9.77393
▁skin	-9.77444
▁projekto	-9.77586
▁--	-9.77658
▁monda	-9.7771
rd	-9.77863
▁police	-9.77866
▁term	-9.77947
▁paris	-9.77958
▁enhavo	-9.78041
loj	-9.78047
▁simpla	-9.78113
▁function	-9.78147
▁press	-9.78179
ven	-9.7819
▁allow	-9.78296
▁komenco	-9.78322
ling	-9.78336
▁risk	-9.78336
▁muziko	-9.78366
▁rivero	-9.78448
▁letter	-9.78461
▁produkto	-9.7849
▁translation	-9.785
▁ĉef	-9.78502
▁percent	-9.78609
▁rich	-9.78648
▁necesas	-9.78717
▁septembro	-9.78943
é	-9.78945
▁monon	-9.78992
▁agado	-9.78995
▁oktobro	-9.79041
▁ses	-9.79044
▁behind	-9.79085
▁africa	-9.79092
▁ideo	-9.79095
tan	-9.79111
▁45	-9.79158
▁felt	-9.79245
▁traditional	-9.79267
you	-9.79476
si	-9.79477
ja	-9.79504
▁daily	-9.79559
ze	-9.7957
ina	-9.79572
▁improve	-9.79644
tra	-9.79653
▁youth	-9.79692
▁writer	-9.79694
▁customers	-9.79706
jo	-9.79834
▁valoro	-9.79975
▁ĵus	-9.80027
▁decembro	-9.80049
▁aĉeti	-9.80138
▁added	-9.80142
▁finfine	-9.80174
▁lo	-9.80231
▁nombron	-9.80282
▁difference	-9.80299
▁entute	-9.80311
▁junio	-9.80315
▁israel	-9.8047
ment	-9.80516
▁communication	-9.80523
▁run	-9.80635
ĝis	-9.80839
▁nomon	-9.80864
ie	-9.80891
ite	-9.8091
▁lower	-9.80911
▁myself	-9.8092
▁lingvon	-9.80959
▁festival	-9.81111
▁trip	-9.81136
▁relationship	-9.81195
▁januaro	-9.81198
▁site	-9.81223
▁kazo	-9.8153
▁remained	-9.8154
▁kia	-9.81602
▁elekto	-9.81722
▁teamo	-9.81789
▁style	-9.819
▁unuan	-9.8194
▁avoid	-9.81956
▁respubliko	-9.81984
▁continued	-9.81996
▁sep	-9.82025
▁malgrandaj	-9.8203
▁specific	-9.82101
▁mind	-9.82201
▁environment	-9.82298
▁150	-9.82312
year	-9.82322
▁universal	-9.82344
▁happened	-9.82366
iga	-9.82393
▁hair	-9.82492
▁ok	-9.82557
▁dog	-9.82575
▁35	-9.82579
▁base	-9.82633
▁brought	-9.82663
▁doing	-9.82667
▁thousand	-9.82718
▁japan	-9.82745
▁articles	-9.82808
▁okuloj	-9.82889
▁christian	-9.8297
▁edzino	-9.82998
▁related	-9.83002
▁remains	-9.83067
▁reach	-9.83069
▁infano	-9.83096
▁komence	-9.83129
▁poor	-9.83186
▁location	-9.83255
▁taken	-9.83293
▁truth	-9.83347
▁knew	-9.83442
▁sure	-9.83511
▁personoj	-9.83637
▁momento	-9.83803
▁truly	-9.8383
▁sense	-9.83838
▁meaning	-9.83934
▁store	-9.83949
▁hall	-9.84008
▁lived	-9.84057
▁armeo	-9.8409
▁presented	-9.84164
▁atingis	-9.84217
▁asocio	-9.84301
ĉu	-9.84331
▁centra	-9.84457
▁hour	-9.84458
▁image	-9.84481
▁aŭgusto	-9.84554
▁koro	-9.84603
▁materials	-9.84658
▁success	-9.84725
▁meza	-9.84805
▁lu	-9.84916
less	-9.84956
▁kompreni	-9.84964
▁takes	-9.8503
▁ancient	-9.85037
ema	-9.85104
▁politika	-9.85152
▁procezo	-9.85177
▁turned	-9.85206
ron	-9.8529
▁key	-9.85296
▁mobile	-9.85408
ted	-9.85422
▁month	-9.85455
▁jesuo	-9.85535
▁29	-9.85537
▁sciis	-9.85566
▁nome	-9.85749
▁view	-9.8576
dis	-9.85764
▁anyone	-9.85776
▁deziras	-9.85807
▁job	-9.8587
▁tejo	-9.85984
▁master	-9.8599
▁player	-9.85992
▁flanko	-9.86164
▁sleep	-9.86217
▁alone	-9.86249
▁tv	-9.8625
▁problemoj	-9.86254
▁skribis	-9.86384
▁square	-9.86485
▁freedom	-9.86504
▁muzeo	-9.86565
▁enter	-9.86644
▁sociaj	-9.86684
▁follow	-9.86732
▁developed	-9.86734
▁types	-9.86762
▁300	-9.86818
▁save	-9.86835
▁norda	-9.86893
▁nuna	-9.86893
▁activity	-9.86896
▁fully	-9.86956
▁japanese	-9.86965
▁uzantoj	-9.8697
one	-9.87057
}	-9.87111
▁kingdom	-9.8714
▁active	-9.87184
▁anything	-9.87241
▁somewhat	-9.87338
▁chemical	-9.87415
▁influence	-9.87428
im	-9.8751
old	-9.87542
▁sentas	-9.87549
20	-9.87684
▁established	-9.87698
zi	-9.87787
▁previous	-9.87803
▁weight	-9.87847
▁ka	-9.87878
▁private	-9.87946
▁district	-9.87993
▁4.	-9.88012
▁propran	-9.88024
net	-9.88026
▁institute	-9.88087
▁size	-9.88114
▁peter	-9.88281
▁dividas	-9.88419
▁title	-9.8842
▁ideas	-9.88632
▁ability	-9.88657
▁royal	-9.88669
▁calculate	-9.8869
▁policy	-9.88695
▁monatoj	-9.88712
▁forta	-9.88801
den	-9.88837
▁basic	-9.88879
▁range	-9.8888
▁0	-9.88905
▁either	-9.88939
▁ju	-9.88946
▁amiko	-9.8895
▁legal	-9.8902
▁soviet	-9.89169
▁returned	-9.89198
▁maro	-9.89225
▁consider	-9.89315
▁caused	-9.89339
▁tree	-9.89347
▁girls	-9.89375
▁inside	-9.89428
▁passed	-9.89443
▁mon	-9.89483
▁informojn	-9.89488
▁perfect	-9.89539
▁viv	-9.8959
ĉi	-9.89604
▁preni	-9.89644
▁novembro	-9.89646
▁areas	-9.89705
▁wants	-9.89716
{	-9.89771
▁gravas	-9.89773
▁facebook	-9.89785
▁okcidenta	-9.89829
▁mountain	-9.89833
ĵoj	-9.89834
ler	-9.89868
by	-9.8989
▁saying	-9.89996
▁check	-9.90175
ization	-9.90235
▁ways	-9.90319
▁doctor	-9.90417
ru	-9.90481
▁method	-9.90495
▁malnova	-9.90578
▁nomata	-9.90637
ized	-9.90667
▁montri	-9.90669
▁taking	-9.90672
▁ĉefaj	-9.90733
▁ali	-9.9075
ner	-9.90763
▁aperas	-9.90794
▁trovas	-9.90812
pe	-9.90821
my	-9.90871
▁italio	-9.90893
▁medical	-9.90898
ley	-9.90963
▁pan	-9.91039
est	-9.91081
▁user	-9.91134
▁ricevi	-9.91139
▁labori	-9.91163
▁vivas	-9.91251
▁fear	-9.91273
▁george	-9.91334
▁nenion	-9.91393
▁training	-9.91413
▁tried	-9.91434
▁pressure	-9.91484
▁address	-9.91499
▁code	-9.91546
▁forces	-9.91553
▁lastaj	-9.91555
▁rilatumo	-9.91584
▁answer	-9.91595
▁https	-9.91601
▁coffee	-9.91736
▁religious	-9.91789
▁aprilo	-9.9179
▁worked	-9.91811
▁mainly	-9.91815
▁kvanto	-9.91955
▁scientific	-9.91976
▁fish	-9.92031
▁literature	-9.92052
▁historical	-9.92066
▁lead	-9.92095
▁activities	-9.92134
up	-9.92233
▁aparte	-9.92325
ak	-9.92334
▁systems	-9.92394
▁device	-9.92545
=	-9.92575
▁postulas	-9.92576
▁eviti	-9.92599
▁rilate	-9.92631
▁ludi	-9.92704
▁konas	-9.92719
▁founded	-9.92784
▁hundred	-9.92789
▁gas	-9.92801
▁section	-9.92835
▁serious	-9.92903
▁membro	-9.92962
▁fama	-9.92984
mar	-9.93051
▁brother	-9.93053
un	-9.93101
▁financial	-9.93136
▁app	-9.93209
▁malbona	-9.93235
▁round	-9.93308
▁fin	-9.93324
▁gold	-9.93528
▁situacio	-9.93571
▁\)	-9.93578
▁nacioj	-9.93617
▁batalo	-9.93751
▁ver	-9.93763
▁football	-9.93896
ntaj	-9.93959
▁revolution	-9.93982
▁path	-9.94011
▁»	-9.94078
▁fall	-9.94098
ver	-9.94117
eo	-9.9421
▁message	-9.9423
▁winter	-9.94238
▁sa	-9.94244
▁growth	-9.94288
▁february	-9.94303
▁cases	-9.9437
ĵo	-9.94389
ty	-9.94391
▁suitable	-9.94521
▁parolis	-9.94567
▁forest	-9.94589
fe	-9.94631
▁1-	-9.94672
econ	-9.9477
▁library	-9.94809
▁date	-9.94854
▁strange	-9.9489
▁komerco	-9.94955
▁prenis	-9.9498
▁suda	-9.95059
▁naturo	-9.95258
▁nenio	-9.95265
▁protection	-9.9528
▁greek	-9.95314
▁mac	-9.95414
der	-9.95427
▁late	-9.95454
▁grave	-9.95469
▁pensis	-9.95502
▁vol	-9.95503
▁ready	-9.95522
▁note	-9.95599
▁orienta	-9.95699
▁physical	-9.95708
▁laboras	-9.95799
▁niajn	-9.9588
▁useful	-9.95881
▁merkato	-9.95907
▁libroj	-9.95951
▁student	-9.95971
▁produktado	-9.96031
▁strength	-9.96032
▁allows	-9.96087
▁stand	-9.96145
▁drink	-9.96169
▁approximately	-9.96195
▁potenco	-9.96205
por	-9.96238
▁normal	-9.96309
▁montris	-9.96327
▁holy	-9.96344
▁thank	-9.96448
▁fell	-9.96459
▁album	-9.96496
▁cross	-9.96506
▁lumo	-9.96513
▁par	-9.96553
▁aferojn	-9.96576
pro	-9.96717
▁versio	-9.96767
30	-9.96838
▁industrio	-9.96873
▁cat	-9.96912
▁fast	-9.97047
▁learned	-9.97103
▁ŝanĝi	-9.97126
▁surface	-9.97145
tro	-9.97232
time	-9.97238
ya	-9.97347
▁standard	-9.9736
▁pain	-9.97434
▁konservi	-9.97469
▁ofertas	-9.97485
▁32	-9.97584
▁changed	-9.9763
▁director	-9.97777
▁rusio	-9.97803
▁inkluzivas	-9.97823
▁unique	-9.97842
▁listo	-9.9788
▁su	-9.97962
▁ĉambro	-9.98167
▁2-	-9.98168
▁ensure	-9.9829
▁ve	-9.98299
▁solution	-9.98368
▁interested	-9.98372
▁practice	-9.98374
▁insulo	-9.98382
lon	-9.98387
▁horo	-9.98473
▁sukcesis	-9.98509
▁demando	-9.98532
▁task	-9.98549
gu	-9.98562
ku	-9.98566
▁ar	-9.98579
▁dir	-9.98594
▁college	-9.98652
▁aŭtoro	-9.98664
▁kristo	-9.98669
▁significant	-9.9872
▁collection	-9.9877
▁leĝo	-9.98794
▁screen	-9.98796
ur	-9.98809
▁ship	-9.98811
▁exist	-9.98816
▁equipment	-9.98898
▁trovu	-9.98968
▁seven	-9.9898
▁includes	-9.98995
▁kap	-9.99083
▁plus	-9.99195
▁saman	-9.99291
▁uzis	-9.99334
▁certigi	-9.99338
▁malfacile	-9.99444
▁reached	-9.99476
▁evoluo	-9.9952
mp	-9.99585
▁chi	-9.99614
▁blanka	-9.99688
▁plibonigi	-9.99759
▁fun	-9.99759
▁hejmo	-9.99769
ber	-9.9979
▁bo	-9.99805
▁province	-9.99824
▁northern	-9.99827
▁marko	-9.99939
▁programs	-9.99987
▁\[	-9.99997
▁forto	-10.0002
▁forms	-10.0002
▁james	-10.0005
▁frue	-10.001
50	-10.0012
▁ad	-10.0015
▁build	-10.0024
▁poland	-10.0026
▁spain	-10.0035
▁religion	-10.004
▁britio	-10.0041
▁rigardis	-10.0044
▁kara	-10.0049
▁nigra	-10.0054
▁totala	-10.0054
▁foundation	-10.0056
▁likely	-10.0057
▁offers	-10.0069
▁verkisto	-10.0069
▁facila	-10.0071
▁uzataj	-10.0071
▁italy	-10.0072
▁commission	-10.0076
▁conference	-10.0077
▁click	-10.0094
▁komenci	-10.0095
▁grupoj	-10.0098
▁department	-10.01
▁minutoj	-10.0103
▁lack	-10.0103
ated	-10.0106
▁recent	-10.0107
▁download	-10.0109
▁antaŭa	-10.0111
▁nomita	-10.0112
▁rapida	-10.0117
▁pen	-10.0118
fo	-10.0123
▁prevent	-10.0129
▁dating	-10.0131
▁nivelo	-10.0136
▁\]	-10.014
▁politiko	-10.0162
▁played	-10.0163
▁havos	-10.0166
▁populara	-10.0167
▁rather	-10.018
▁african	-10.0187
▁eklezio	-10.0188
▁platform	-10.019
▁sperto	-10.0192
▁schools	-10.0199
▁goes	-10.0199
▁del	-10.02
▁q	-10.0216
chi	-10.0223
▁malalta	-10.024
▁kvalito	-10.0249
▁pass	-10.0257
▁reto	-10.0257
▁sports	-10.0258
▁bit	-10.0267
▁rock	-10.0268
igante	-10.027
▁independent	-10.0282
▁soul	-10.0286
▁teacher	-10.0295
▁laboristoj	-10.0306
▁empire	-10.0314
▁5.	-10.0315
▁500	-10.0315
▁recently	-10.0317
▁forte	-10.0317
ster	-10.0318
▁plants	-10.032
▁ia	-10.032
▁decision	-10.0321
▁desire	-10.0327
▁lake	-10.0327
▁plenumi	-10.033
▁kalkulu	-10.0335
▁features	-10.0338
▁meters	-10.0347
▁grow	-10.0348
let	-10.035
▁asteroido	-10.0359
▁xi	-10.0371
▁becomes	-10.0378
iloj	-10.038
▁warm	-10.0399
▁resti	-10.0404
▁loka	-10.0405
▁bazo	-10.0413
▁software	-10.0413
sed	-10.0416
í	-10.042
▁hear	-10.0424
▁ones	-10.0444
▁bed	-10.0447
▁ci	-10.0456
00	-10.0461
▁ĉiutage	-10.0466
▁followed	-10.0469
▁brita	-10.0474
▁publika	-10.0478
▁participate	-10.0488
▁speco	-10.0491
▁epoko	-10.0502
▁lernantoj	-10.0502
ger	-10.0506
▁februaro	-10.0511
▁effective	-10.0513
▁esperanta	-10.0515
▁moderna	-10.0515
▁structure	-10.0517
▁jo	-10.052
▁eastern	-10.0524
▁ĉefurbo	-10.0528
▁windows	-10.0531
▁william	-10.0536
▁rajtoj	-10.0544
▁bestoj	-10.0545
▁ekonomia	-10.0548
▁else	-10.055
▁bonega	-10.0558
+	-10.0564
°	-10.0569
▁castle	-10.0579
▁southern	-10.0581
▁names	-10.0583
▁organizo	-10.0584
▁2000	-10.0594
bi	-10.0596
▁cm	-10.0598
):	-10.0603
▁komerca	-10.0604
▁klara	-10.0614
▁box	-10.0618
▁understanding	-10.0619
▁ri	-10.0623
▁helpo	-10.0625
▁energio	-10.0626
▁rolon	-10.0631
▁wide	-10.0637
▁problemojn	-10.0639
ujo	-10.0639
▁hotel	-10.065
▁pages	-10.0652
▁dark	-10.0654
▁uzu	-10.067
▁dead	-10.0683
▁sano	-10.0688
▁coming	-10.0688
▁paco	-10.0691
ntoj	-10.07
▁ŝtatoj	-10.0704
▁era	-10.0715
▁laboris	-10.072
▁rilatoj	-10.0721
lan	-10.0724
▁fakto	-10.0725
▁relative	-10.0726
ating	-10.0736
▁operation	-10.0736
▁kapo	-10.0737
19	-10.0748
▁klaso	-10.0749
kun	-10.0753
▁knabinoj	-10.0753
▁feet	-10.0757
▁eks	-10.0758
▁uses	-10.0762
▁lokon	-10.0766
▁separate	-10.0768
▁though	-10.0774
▁blog	-10.0775
▁sole	-10.0779
▁hispanio	-10.0783
▁opened	-10.0784
▁greater	-10.0785
▁bird	-10.0788
▁direct	-10.0791
▁medio	-10.0798
▁hispana	-10.0801
▁pola	-10.0802
▁petro	-10.0803
▁uzante	-10.0807
▁rusa	-10.0809
15	-10.081
▁economy	-10.0812
▁stood	-10.0815
▁komprenas	-10.0816
▁tutmonda	-10.0818
▁relations	-10.0824
▁servoj	-10.0825
▁cover	-10.0827
res	-10.0829
aĵ	-10.0829
▁36	-10.0852
▁aero	-10.0852
▁plene	-10.0854
▁web	-10.0859
ek	-10.0863
▁efektive	-10.0866
▁terms	-10.0867
▁honor	-10.0868
▁fonto	-10.0873
▁2010	-10.0877
▁feeling	-10.0892
▁weeks	-10.0893
ik	-10.0897
▁opinias	-10.0902
▁kor	-10.0902
▁garden	-10.0916
▁rate	-10.0923
▁vilaĝo	-10.0926
▁albumo	-10.0926
▁iujn	-10.0928
▁direction	-10.0928
▁parton	-10.093
▁komuna	-10.0937
▁appearance	-10.0943
▁card	-10.0945
▁fa	-10.0947
▁elements	-10.0956
▁india	-10.0957
60	-10.096
ary	-10.0965
▁territory	-10.0967
▁bus	-10.0971
▁ran	-10.0974
▁tu	-10.0974
▁chance	-10.0979
day	-10.0982
▁glass	-10.0986
▁cent	-10.0992
▁tool	-10.0994
▁deep	-10.0994
▁suddenly	-10.0995
port	-10.0995
▁temperature	-10.0999
▁forigi	-10.1
▁daughter	-10.1001
▁robert	-10.1009
▁2008	-10.1025
▁konsistas	-10.1029
▁2020	-10.1029
ng	-10.1032
▁dia	-10.1037
tio	-10.1038
▁australian	-10.104
▁magazine	-10.1044
▁plurajn	-10.1046
▁naskiĝis	-10.105
▁passage	-10.1051
▁brand	-10.1056
▁proksima	-10.1056
ts	-10.1062
、	-10.1062
▁details	-10.1078
ero	-10.1081
▁precisely	-10.1087
▁stone	-10.1093
▁klare	-10.1094
▁transport	-10.1095
▁supre	-10.1097
▁effects	-10.1101
▁sales	-10.1104
▁memory	-10.111
▁firmao	-10.1114
▁paĝo	-10.1123
▁demand	-10.113
▁forward	-10.1132
▁animal	-10.1136
▁catholic	-10.1138
▁britain	-10.1138
▁photo	-10.1139
▁cut	-10.1142
▁faru	-10.1143
▁provizas	-10.1159
▁civil	-10.1169
▁accept	-10.1169
▁fina	-10.1178
▁asteroid	-10.118
▁plejparte	-10.1183
▁spring	-10.1184
▁japanio	-10.1187
▁external	-10.1192
▁sold	-10.1196
▁tian	-10.1198
▁rakonto	-10.1198
80	-10.1201
▁fi	-10.1208
▁arto	-10.1217
▁happen	-10.1221
▁spoke	-10.1223
▁pra	-10.1223
▁provis	-10.1228
▁successful	-10.1231
▁mano	-10.1235
▁newspaper	-10.1236
▁tools	-10.1243
▁nepre	-10.1247
▁vivi	-10.1258
▁ekzistis	-10.1263
▁jan	-10.1265
▁points	-10.1271
▁birth	-10.1271
▁hold	-10.1276
ĝas	-10.1282
▁link	-10.1288
▁wind	-10.129
▁supren	-10.129
▁achieve	-10.1291
▁purpose	-10.1295
▁lum	-10.13
▁participants	-10.1314
ff	-10.1318
▁character	-10.1323
▁spread	-10.1323
▁kreis	-10.1324
tis	-10.1326
▁dear	-10.1326
▁bio	-10.1331
▁revenis	-10.1331
▁tut	-10.1333
▁trees	-10.1337
▁equal	-10.1337
▁wood	-10.1337
▁silent	-10.1339
▁suno	-10.134
▁numbers	-10.134
▁larger	-10.1341
pri	-10.1343
▁provided	-10.1349
▁cxar	-10.1356
▁diversajn	-10.1359
▁serĉas	-10.1361
can	-10.1364
▁produced	-10.1369
▁stories	-10.1372
▁technical	-10.1375
▁bildo	-10.138
▁band	-10.14
▁limited	-10.1405
▁situas	-10.1406
▁walk	-10.1408
▁management	-10.141
ies	-10.1411
▁ĝian	-10.1415
▁sonĝo	-10.142
▁kampo	-10.1422
*	-10.1432
22	-10.1435
▁fe	-10.1453
▁teknologio	-10.1457
▁euros	-10.1459
▁worth	-10.1461
▁ilian	-10.147
▁distanco	-10.1472
mer	-10.1475
▁performance	-10.1482
▁moved	-10.1482
▁aŭdis	-10.1487
▁bill	-10.149
ive	-10.1491
▁homaj	-10.1492
▁provides	-10.1494
▁playing	-10.1495
ada	-10.1505
)|	-10.1507
▁monato	-10.1515
▁kondiĉoj	-10.1516
▁federal	-10.1524
▁choice	-10.1527
kiel	-10.1528
▁stato	-10.1531
▁opportunity	-10.1534
▁creation	-10.1535
▁pollando	-10.1536
▁2009	-10.1536
▁oh	-10.1538
▁positive	-10.154
▁okazos	-10.1545
etoj	-10.1552
que	-10.1557
lando	-10.1557
▁faros	-10.1557
▁partoprenis	-10.156
▁oficiala	-10.1563
▁organized	-10.1568
▁interreto	-10.1569
▁powerful	-10.1569
▁2011	-10.1571
40	-10.1574
▁complex	-10.1574
▁artikoloj	-10.1575
▁pere	-10.1575
▁metal	-10.1576
ego	-10.1578
▁spirito	-10.1582
▁itala	-10.1584
▁komitato	-10.1594
▁mu	-10.1597
▁ex	-10.1604
▁gajnis	-10.1606
▁equation	-10.1607
▁punkto	-10.1609
ny	-10.1619
▁projects	-10.1621
▁loĝas	-10.1625
▁2012	-10.1629
▁solvi	-10.1634
▁majority	-10.1634
▁sentis	-10.1636
▁frua	-10.1637
▁brain	-10.1638
▁artist	-10.1639
▁academy	-10.1646
▁devos	-10.1657
▁trust	-10.1658
▁speech	-10.1664
▁highest	-10.1664
▁knows	-10.1675
▁kemia	-10.1679
▁thinking	-10.1683
▁31	-10.1689
▁spaco	-10.1692
▁designed	-10.1692
▁rules	-10.17
▁showed	-10.17
ists	-10.1704
example	-10.171
▁ban	-10.1711
▁protect	-10.1712
▁divided	-10.1717
▁verkoj	-10.1717
▁seemed	-10.172
▁loĝantoj	-10.1721
▁aŭstralia	-10.1722
▁estonteco	-10.1724
▁affairs	-10.1726
▁6.	-10.1727
▁duono	-10.1733
▁greatly	-10.1742
の	-10.1742
▁organizations	-10.1742
▁file	-10.1744
wa	-10.1745
▁boys	-10.1746
▁konstrui	-10.1746
▁prezentas	-10.1748
▁studo	-10.1749
▁birds	-10.1754
▁chief	-10.176
▁older	-10.1764
▁inhabitants	-10.1764
▁altaj	-10.1764
▁rose	-10.1773
▁vojon	-10.1774
▁mo	-10.178
tor	-10.1781
▁kazoj	-10.1785
▁onto	-10.1786
▁eye	-10.1786
24	-10.1788
▁growing	-10.1791
▁kombinaĵo	-10.1802
▁speciala	-10.1803
▁league	-10.1814
nov	-10.1817
▁subteno	-10.1821
▁window	-10.1823
what	-10.1824
▁profit	-10.1827
▁fight	-10.1829
▁internal	-10.1832
▁arrived	-10.1832
ejoj	-10.1832
sh	-10.1834
▁municipality	-10.1837
▁afriko	-10.184
▁natura	-10.1841
▁provinco	-10.1841
▁treatment	-10.1843
gas	-10.1848
▁meti	-10.1851
▁allowed	-10.1856
▁democratic	-10.1858
▁para	-10.1866
▁renkonti	-10.1873
tion	-10.1873
▁komisiono	-10.1875
▁mentioned	-10.1882
▁length	-10.1882
。	-10.1883
▁manĝi	-10.1887
▁distrikto	-10.1887
▁aliflanke	-10.1892
▁accepted	-10.1895
▁monto	-10.1899
▁husband	-10.1905
▁horojn	-10.1905
▁unio	-10.1906
▁2014	-10.1908
▁exchange	-10.1913
pli	-10.1914
▁inform	-10.1916
▁brown	-10.1916
▁covered	-10.1917
▁alvenis	-10.1921
▁heat	-10.1927
▁nokto	-10.1928
▁tagojn	-10.1932
▁experienced	-10.1932
▁apartenas	-10.1949
▁ekonomio	-10.195
▁sekva	-10.1952
▁2013	-10.196
▁iomete	-10.1962
bar	-10.1966
▁essential	-10.1976
▁vojaĝo	-10.1977
▁commercial	-10.1978
▁thousands	-10.1985
▁knabino	-10.1987
▁sekureco	-10.1989
▁competition	-10.1992
▁painting	-10.1995
▁except	-10.1997
▁aktoro	-10.2001
▁amazon	-10.2007
▁formed	-10.2012
▁pagi	-10.2012
▁replied	-10.2014
▁mountains	-10.2014
▁subite	-10.2014
▁2015	-10.2017
▁martin	-10.2017
▁neither	-10.202
▁("	-10.202
igos	-10.2023
▁england	-10.2023
▁charles	-10.2029
▁win	-10.203
▁attack	-10.2032
▁letters	-10.2036
▁welcome	-10.204
▁chat	-10.2057
▁excellent	-10.2059
▁guide	-10.2062
▁nation	-10.2066
▁responsible	-10.2066
▁fariĝas	-10.2067
▁resources	-10.2072
▁photos	-10.2073
▁huge	-10.2074
▁cup	-10.2077
eg	-10.2088
▁scienco	-10.2094
▁helps	-10.2096
▁steel	-10.2099
▁urban	-10.21
nia	-10.2103
tri	-10.2105
▁soldiers	-10.2109
▁award	-10.211
▁express	-10.2116
of	-10.2122
▁es	-10.2123
▁arm	-10.2127
▁reduce	-10.2127
▁campaign	-10.213
▁clearly	-10.2133
▁scientists	-10.2134
▁ca	-10.2138
ally	-10.214
age	-10.2143
▁killed	-10.2143
▁novel	-10.2143
▁esperas	-10.2153
16	-10.2156
▁kontroli	-10.2158
▁esperantist	-10.2159
▁planet	-10.2163
▁linguistic	-10.217
▁career	-10.2179
▁knabo	-10.2187
▁prime	-10.2195
▁mult	-10.2198
▁particularly	-10.2199
▁certa	-10.2199
▁alt	-10.2212
▁celas	-10.2214
▁reasons	-10.2215
▁origin	-10.2218
▁division	-10.2219
▁reen	-10.2224
▁diferenco	-10.2232
isma	-10.2235
▁theory	-10.2236
▁carried	-10.2237
▁paid	-10.2237
▁parizo	-10.2239
▁palace	-10.224
▁previously	-10.224
▁included	-10.2242
▁os	-10.2243
▁begin	-10.2247
▁parliament	-10.2248
▁mallonga	-10.2253
▁joy	-10.2254
▁join	-10.2256
▁tien	-10.2256
▁paŝo	-10.2259
▁islands	-10.227
▁nekonata	-10.2275
▁numero	-10.2277
▁000	-10.2278
▁parties	-10.2291
▁digital	-10.2292
▁contains	-10.2298
▁compared	-10.2298
▁subject	-10.2304
well	-10.2305
lin	-10.2307
ista	-10.2309
▁komenciĝis	-10.2318
▁leader	-10.2326
▁~	-10.2334
▁er	-10.2337
90	-10.2337
▁besides	-10.2338
igado	-10.235
▁vortojn	-10.2353
▁adam	-10.2362
▁literaturo	-10.2364
▁links	-10.2371
▁ruĝa	-10.2372
▁edukado	-10.2372
▁48	-10.2373
▁listen	-10.2376
▁oficejo	-10.2383
▁teaching	-10.2387
▁verko	-10.2391
▁2021	-10.2392
▁que	-10.2408
▁tipo	-10.2411
▁spend	-10.2411
▁sky	-10.2414
non	-10.2414
▁safe	-10.2417
▁professor	-10.2418
ac	-10.2421
18	-10.2422
▁ege	-10.2424
▁televida	-10.2425
▁announced	-10.2437
▁hom	-10.2439
▁ter	-10.2445
▁forget	-10.2449
▁!	-10.2449
▁marketing	-10.2451
▁www	-10.2454
▁salt	-10.2459
▁2019	-10.2461
▁sukceso	-10.2468
▁sir	-10.2471
▁bi	-10.2475
eca	-10.2477
▁mondmilito	-10.2485
▁levels	-10.2487
▁petis	-10.2487
▁laws	-10.2489
les	-10.249
▁hospital	-10.2494
▁respect	-10.2494
▁costs	-10.2498
▁tea	-10.2501
▁customer	-10.2508
▁aparato	-10.2513
▁blind	-10.2519
▁ludas	-10.2523
▁solve	-10.2524
▁origina	-10.2525
12	-10.2525
▁industrial	-10.2531
▁getting	-10.2532
▁konataj	-10.2532
▁journey	-10.2532
▁metis	-10.254
▁increased	-10.2541
▁provi	-10.2542
▁malfacila	-10.2546
▁clean	-10.2547
▁provizi	-10.2548
▁pa	-10.2549
▁trying	-10.255
▁jar	-10.2552
▁serve	-10.2558
▁sango	-10.2561
▁frato	-10.2564
▁prince	-10.2566
▁songs	-10.2568
ana	-10.2572
cha	-10.2575
▁manko	-10.2577
▁datumoj	-10.2579
▁trovos	-10.2583
▁rajtas	-10.2583
▁asia	-10.2584
▁produce	-10.2586
▁hejme	-10.2587
▁festo	-10.2588
▁regions	-10.259
▁rigardi	-10.2594
▁moreover	-10.2596
21	-10.2597
dy	-10.2598
▁develop	-10.2603
▁object	-10.2603
75	-10.2605
▁consequently	-10.2607
▁materialo	-10.2619
▁expression	-10.2621
▁3-	-10.2622
▁secret	-10.2625
ier	-10.2629
▁translated	-10.2631
▁komencas	-10.2632
▁2006	-10.2632
▁los	-10.2642
▁pov	-10.2645
▁fu	-10.2657
cio	-10.2657
▁faritaj	-10.2658
▁fajro	-10.2658
▁canada	-10.2662
▁ordo	-10.2663
▁topic	-10.2666
▁visited	-10.2668
▁ludoj	-10.2669
ili	-10.2693
min	-10.2693
▁interesa	-10.2699
▁wear	-10.2701
▁happens	-10.2705
▁celoj	-10.2715
▁hot	-10.2717
);	-10.2718
ika	-10.2723
▁mouth	-10.2724
▁ret	-10.2727
▁michael	-10.2733
▁kar	-10.2735
▁titolo	-10.2736
▁families	-10.2737
red	-10.274
▁korea	-10.2746
▁mostly	-10.2748
her	-10.2752
▁pas	-10.2754
▁rilato	-10.2754
▁status	-10.2754
line	-10.2757
▁sekvaj	-10.2764
▁entered	-10.2764
")	-10.2766
▁finished	-10.2769
▁preĝejo	-10.2778
▁fat	-10.2779
▁wait	-10.278
▁rule	-10.278
▁furthermore	-10.278
▁iru	-10.2783
▁duon	-10.2784
▁spent	-10.2786
▁revolucio	-10.2795
▁figure	-10.2796
▁broadcast	-10.2799
▁multi	-10.2801
▁respondo	-10.2803
▁rs	-10.2807
lu	-10.2813
▁twenty	-10.2814
▁2007	-10.2817
▁pensi	-10.2823
▁ba	-10.2826
▁agreement	-10.2829
▁floor	-10.284
▁20-	-10.284
tre	-10.2845
▁gravan	-10.2848
▁firm	-10.2853
▁ku	-10.2856
▁malantaŭ	-10.2857
▁eternal	-10.286
▁loss	-10.2861
▁ĉielo	-10.2861
▁helped	-10.2863
▁rapid	-10.2864
▁2016	-10.2868
▁issue	-10.2869
▁climate	-10.2872
▁direktoro	-10.2873
▁altan	-10.2873
▁loĝantaro	-10.2875
▁washington	-10.2875
ize	-10.2877
:||	-10.2879
▁bridge	-10.2881
▁citizens	-10.2883
25	-10.2884
▁flowers	-10.2885
ĝo	-10.289
&	-10.289
▁correct	-10.2895
▁hit	-10.2896
▁che	-10.2896
▁internaciaj	-10.2899
▁review	-10.29
▁australia	-10.2903
▁sendi	-10.2906
see	-10.2921
▁von	-10.2922
uk	-10.2923
▁safety	-10.2926
▁50%	-10.293
▁imperio	-10.2937
▁images	-10.2944
▁devices	-10.2945
17	-10.2947
▁disease	-10.2955
▁esperanton	-10.2958
▁leading	-10.2971
▁linio	-10.2974
▁thomas	-10.2977
▁independence	-10.2978
▁33	-10.2982
▁progress	-10.2986
▁compound	-10.2988
ol	-10.2991
▁bonajn	-10.2995
▁manoj	-10.2996
▁parko	-10.3
▁skribi	-10.3011
▁earlier	-10.3014
▁400	-10.3016
▁films	-10.3017
▁akvon	-10.3027
▁crisis	-10.3038
▁har	-10.3042
▁pet	-10.3044
adi	-10.3046
▁healthy	-10.3048
▁raporto	-10.305
▁functions	-10.305
▁partopreni	-10.306
▁spiritual	-10.3062
▁favor	-10.3067
▁ajna	-10.3068
▁malsano	-10.3071
▁milit	-10.3072
▁simultaneously	-10.3075
▁2017	-10.3077
▁londono	-10.3079
▁aldoni	-10.308
▁perdis	-10.3081
▁discovered	-10.3084
▁sekcio	-10.3086
▁leaves	-10.3089
▁weather	-10.309
▁revenas	-10.3091
▁concept	-10.3097
▁dankon	-10.31
▁leaders	-10.3104
ful	-10.3108
▁actions	-10.3112
▁wikipedia	-10.3121
▁dezajno	-10.3124
▁protekti	-10.3127
▁viziti	-10.313
▁;	-10.3131
▁grandajn	-10.3138
▁reform	-10.314
▁steps	-10.3142
▁interna	-10.3143
▁season	-10.3145
car	-10.3145
▁prefer	-10.3147
▁prepared	-10.3149
▁ice	-10.3149
▁koncerne	-10.3158
▁stage	-10.3159
▁komunikado	-10.3161
▁teritorio	-10.3162
▁cxi	-10.3169
70	-10.3171
▁provas	-10.3171
▁uzita	-10.3173
▁cooperation	-10.3174
“	-10.3175
aĵojn	-10.3179
▁picture	-10.318
▁afterwards	-10.3183
▁demandoj	-10.3188
▁iliajn	-10.3192
▁starting	-10.3199
▁ye	-10.32
▁exists	-10.3201
▁concerns	-10.3209
▁simila	-10.3209
▁pens	-10.3215
▁drive	-10.3222
ish	-10.3224
▁elektita	-10.3225
▁administration	-10.3226
▁dudek	-10.3235
▁]	-10.3238
▁sex	-10.3239
▁county	-10.3239
▁trakti	-10.3241
yes	-10.3242
▁goals	-10.3249
▁jaron	-10.3253
▁wine	-10.3255
▁closed	-10.3259
ham	-10.3262
▁eniris	-10.3264
▁dry	-10.3269
▁sud	-10.327
▁jean	-10.3271
▁carry	-10.3273
▁akiris	-10.3276
▁placed	-10.3279
▁arms	-10.3287
▁believed	-10.3292
▁apart	-10.3301
▁snow	-10.3302
▁heavy	-10.3304
▁rilatas	-10.3315
▁popoloj	-10.3316
aĵon	-10.332
▁existence	-10.3322
▁kosto	-10.3322
▁grandeco	-10.3325
▁infanojn	-10.3329
int	-10.3331
eblaj	-10.3332
▁respond	-10.3334
▁individuals	-10.3336
▁usonaj	-10.3336
▁vizaĝo	-10.3342
▁female	-10.3342
▁musical	-10.3346
▁justice	-10.3347
▁sci	-10.3355
iĝu	-10.3358
▁daŭras	-10.3359
▁apenaŭ	-10.336
▁disvolviĝo	-10.336
▁consists	-10.3361
▁parlamento	-10.3364
▁specoj	-10.3366
▁valley	-10.3368
▁focus	-10.3376
▁queen	-10.338
ps	-10.3391
▁modelo	-10.3393
▁ekzemplo	-10.3393
▁kanto	-10.3394
▁ekstere	-10.3395
inter	-10.3397
▁kapablo	-10.3398
▁appears	-10.3402
▁regionoj	-10.3405
▁sendis	-10.3407
▁plen	-10.3408
▁namely	-10.3411
▁junaj	-10.3412
▁mez	-10.3415
pas	-10.3417
▁miajn	-10.3417
▁vero	-10.3418
▁informo	-10.3419
▁faith	-10.3425
35	-10.3425
▁shape	-10.3426
▁flag	-10.3429
▁esplorado	-10.3429
▁iron	-10.3431
▁border	-10.3434
▁response	-10.3435
▁malmultaj	-10.3442
▁released	-10.3443
▁fields	-10.3448
▁verda	-10.3452
▁ŝanĝo	-10.3454
▁neniun	-10.3454
iĝos	-10.3455
▁touch	-10.3458
▁semajno	-10.346
gon	-10.3463
▁sciencistoj	-10.3464
▁estraro	-10.3471
▁ta	-10.3473
era	-10.3475
45	-10.3481
ex	-10.3489
▁stilo	-10.3494
ito	-10.3497
▁remove	-10.35
▁bag	-10.3501
▁maljuna	-10.3503
▁aĝa	-10.3503
14	-10.3504
▁uzanto	-10.3511
▁traffic	-10.3517
▁nomas	-10.352
▁regular	-10.3523
▁atendas	-10.3527
11	-10.3529
▁marriage	-10.3532
▁otherwise	-10.3533
▁ideal	-10.3534
▁factory	-10.3544
▁danke	-10.3554
koj	-10.3563
▁wild	-10.3568
▁teni	-10.3575
▁religio	-10.3582
▁ŝiaj	-10.3584
▁instruisto	-10.3586
nu	-10.3587
▁2018	-10.3588
▁pieces	-10.3591
▁youtube	-10.3591
▁players	-10.3591
▁revuo	-10.3597
▁prefere	-10.3599
▁hejmen	-10.3605
▁reported	-10.3605
▁receives	-10.3606
▁varma	-10.361
▁preter	-10.361
▁kialo	-10.3616
▁kompanioj	-10.3622
▁condition	-10.3624
▁manner	-10.3628
28	-10.3632
▁secretary	-10.3638
▁regional	-10.3645
▁ĉie	-10.3648
▁temoj	-10.3648
ura	-10.3651
▁direkto	-10.3654
▁dependas	-10.3656
▁required	-10.3661
▁ra	-10.3665
▁speaking	-10.3666
▁materialoj	-10.3668
▁herself	-10.367
▁railway	-10.367
▁johano	-10.3672
▁rain	-10.3679
▁reality	-10.3679
this	-10.3682
▁piece	-10.3682
▁programoj	-10.3683
▁pordo	-10.3683
led	-10.3687
roj	-10.3687
▁resistance	-10.3689
▁causes	-10.3691
▁libron	-10.3692
▁foto	-10.3699
▁fair	-10.3704
▁rome	-10.3705
▁berlin	-10.3705
▁henry	-10.3706
▁usa	-10.371
emo	-10.3716
▁eight	-10.3723
▁mondon	-10.3726
kan	-10.3727
like	-10.373
▁veturas	-10.3731
▁sides	-10.3736
▁described	-10.3741
▁verkis	-10.3744
▁universala	-10.3746
ŭ	-10.375
▁manĝaĵo	-10.3751
▁break	-10.3751
▁2005	-10.3752
▁ligo	-10.3752
▁malsupren	-10.3752
▁1990	-10.3755
▁sand	-10.3759
▁symbol	-10.3762
▁record	-10.3769
▁damage	-10.3779
▁lokaj	-10.3786
▁returns	-10.3786
▁komputilo	-10.379
▁tablo	-10.379
ula	-10.3795
that	-10.3801
▁wonderful	-10.3802
igon	-10.3804
▁upper	-10.3804
▁double	-10.3806
▁czech	-10.3806
▁ce	-10.381
▁der	-10.381
bon	-10.3814
▁camp	-10.3815
▁serĉi	-10.3815
▁diet	-10.3817
▁command	-10.3819
▁ocean	-10.3826
▁brazil	-10.3834
▁humanity	-10.3838
▁eksteraj	-10.3839
▁procentoj	-10.384
▁historia	-10.384
▁telefono	-10.3847
▁medicine	-10.3847
ido	-10.3852
▁studoj	-10.3854
▁supra	-10.3856
▁wish	-10.3864
▁moon	-10.3866
▁ĝusta	-10.3867
27	-10.3868
star	-10.3868
▁indian	-10.3872
▁antikva	-10.3881
▁arbo	-10.3881
▁klubo	-10.3888
▁baby	-10.3891
▁tim	-10.3892
26	-10.3893
▁absolutely	-10.3899
▁rigardas	-10.3901
▁konsilio	-10.3902
▁ven	-10.3903
▁volume	-10.3907
▁married	-10.3915
▁finish	-10.3915
▁count	-10.392
dan	-10.3921
▁ludis	-10.3923
▁visitors	-10.3923
▁leg	-10.3924
▁ball	-10.3925
▁brothers	-10.3928
▁clothes	-10.3929
▁partner	-10.3931
▁occurred	-10.3937
▁foot	-10.3942
▁sunday	-10.3942
iko	-10.3945
▁shi	-10.3946
▁72	-10.3948
▁helpis	-10.3956
▁42	-10.396
▁visible	-10.3968
▁sit	-10.3969
ah	-10.3973
▁electric	-10.3974
▁konstruita	-10.3976
▁trajno	-10.3978
▁comment	-10.3978
▁rapideco	-10.3978
▁ŝajne	-10.3982
▁pure	-10.3983
▁japana	-10.3983
fer	-10.3985
▁metodo	-10.3985
▁unfortunately	-10.3988
▁petas	-10.3992
▁shop	-10.3997
ab	-10.4
▁(1	-10.4002
▁ekrano	-10.4004
▁1980	-10.4005
▁deklaris	-10.4014
bu	-10.4015
▁il	-10.4021
▁conversation	-10.4021
▁covid	-10.4021
▁participated	-10.4022
29	-10.4022
ä	-10.4024
▁impossible	-10.4024
▁redukti	-10.4037
ria	-10.4042
▁ana	-10.4046
▁signifo	-10.4051
▁prize	-10.4055
▁ŝajnis	-10.4055
▁uzado	-10.4058
pi	-10.4059
▁bildoj	-10.4061
hu	-10.4063
▁seem	-10.4065
▁looks	-10.4074
▁opening	-10.4074
▁divide	-10.4075
▁doloro	-10.4077
▁kuracisto	-10.4078
▁smaller	-10.4078
▁plimulto	-10.4081
▁nord	-10.4082
▁lose	-10.4087
▁lines	-10.409
▁jewish	-10.4093
▁aspektas	-10.4094
▁pop	-10.4094
33	-10.4095
▁koloro	-10.4101
▁19-	-10.4101
▁ga	-10.4104
▁nevertheless	-10.4105
▁christmas	-10.4106
▁au	-10.4107
▁legas	-10.4109
▁publiko	-10.411
▁konferenco	-10.4111
▁arab	-10.4113
▁ondo	-10.4115
▁persona	-10.4121
▁widely	-10.4132
▁talking	-10.4132
▁colors	-10.4136
che	-10.4141
▁stopped	-10.4146
▁nobel	-10.4149
▁conflict	-10.4154
▁problemon	-10.4159
▁principle	-10.4164
▁assembly	-10.4167
▁smith	-10.4171
▁sport	-10.4172
▁val	-10.4172
▁kontrolo	-10.4178
▁kultura	-10.4182
▁°	-10.4184
▁explain	-10.4184
▁65	-10.4187
▁plans	-10.4188
▁constant	-10.4195
▁mond	-10.4198
▁numerous	-10.42
▁lady	-10.4215
▁constitution	-10.4219
▁solid	-10.422
▁evolution	-10.422
▁rimedoj	-10.4223
▁konstruaĵo	-10.4223
doj	-10.4229
▁native	-10.4232
▁wrong	-10.4232
▁methods	-10.4239
▁decide	-10.4248
▁voĉo	-10.4248
ring	-10.4252
foje	-10.4252
sk	-10.4255
▁malgrandan	-10.4259
▁prenas	-10.4262
▁ejo	-10.4262
▁fresh	-10.4262
▁vento	-10.4264
▁strato	-10.4271
▁pi	-10.4278
▁vast	-10.4279
▁coast	-10.4286
▁kliento	-10.4287
▁centuries	-10.4287
▁solvo	-10.4289
▁plastic	-10.4293
▁homaro	-10.4296
▁malmulte	-10.4297
ard	-10.4298
▁becoming	-10.4301
cy	-10.4302
▁prezentis	-10.4303
▁eŭropaj	-10.4309
▁filmoj	-10.431
▁alie	-10.4314
▁joseph	-10.4323
▁evil	-10.4325
▁prepare	-10.4326
▁edzo	-10.4333
▁supported	-10.4335
▁politikaj	-10.4335
▁horse	-10.4337
▁discover	-10.4343
▁portas	-10.4344
▁teachers	-10.4345
ĉe	-10.4345
iĝon	-10.4346
▁traveling	-10.4347
ut	-10.435
▁kapablas	-10.4362
▁malsamajn	-10.4368
▁initially	-10.4374
▁gxi	-10.4378
▁proposed	-10.438
▁kreita	-10.4383
65	-10.4387
▁rimarkis	-10.4387
▁4-	-10.4392
▁importance	-10.4394
▁reĝa	-10.4394
▁understandably	-10.4397
▁request	-10.4397
▁knaboj	-10.4397
▁zono	-10.4403
32	-10.4405
▁eŭroj	-10.4409
▁aspekto	-10.441
▁jews	-10.4412
13	-10.4414
she	-10.4414
▁historion	-10.4415
▁tourism	-10.4417
▁beauty	-10.4422
jes	-10.4425
out	-10.4426
tes	-10.4434
sur	-10.4434
▁soldatoj	-10.4436
dia	-10.4438
▁occur	-10.4449
▁sekvis	-10.4451
▁esprimo	-10.4452
▁advantage	-10.4454
cu	-10.4457
▁kreskis	-10.4459
▁continues	-10.446
▁dank	-10.4461
▁rezultoj	-10.4466
▁espero	-10.4468
▁philosophy	-10.4469
▁kanado	-10.4476
▁kunlaboro	-10.4485
▁terrible	-10.4485
▁64	-10.4488
▁elected	-10.4488
▁elektis	-10.4489
▁speakers	-10.4489
▁shown	-10.4494
▁cards	-10.4496
99	-10.4496
▁34	-10.4497
>	-10.4499
▁sinjorino	-10.45
▁understood	-10.4501
▁button	-10.4502
▁vivis	-10.4503
05	-10.4504
▁notes	-10.4512
▁dangerous	-10.4518
▁potential	-10.452
▁39	-10.4525
3.	-10.4527
▁muzik	-10.4528
▁latest	-10.4531
▁houses	-10.4531
▁unto	-10.4531
▁negative	-10.4538
▁recognized	-10.4542
▁values	-10.4542
▁planned	-10.4543
▁vizitis	-10.4549
▁ring	-10.456
▁ebla	-10.4564
▁eniri	-10.4574
▁argentina	-10.4575
▁instituto	-10.4576
▁povu	-10.4576
▁reala	-10.4577
estas	-10.4577
▁efforts	-10.4579
▁property	-10.4579
▁benefits	-10.4583
▁concerning	-10.4586
tic	-10.4587
▁decido	-10.4593
▁machines	-10.4594
▁fal	-10.4601
▁timo	-10.4609
▁notice	-10.4616
▁running	-10.4616
▁jerusalem	-10.4622
ben	-10.4629
▁behavior	-10.4632
▁pliaj	-10.4632
▁libereco	-10.4635
har	-10.4636
▁objects	-10.4636
▁tempoj	-10.4636
▁sister	-10.4636
▁miss	-10.464
▁sha	-10.4642
berg	-10.4644
▁golden	-10.4645
▁seeing	-10.4646
▁stars	-10.4648
▁relationships	-10.4649
pre	-10.4652
▁semajnoj	-10.4655
▁cell	-10.4655
▁%	-10.4658
▁eta	-10.4659
▁7.	-10.4659
▁cu	-10.4665
▁carefully	-10.4665
▁kompare	-10.4665
▁edition	-10.4673
▁documents	-10.4678
▁nacio	-10.4681
dio	-10.4685
cho	-10.4687
▁analysis	-10.4691
▁sekvas	-10.4694
▁studio	-10.4699
▁port	-10.4708
▁bel	-10.4712
▁actor	-10.4713
▁fojon	-10.4714
▁greatest	-10.4714
▁bought	-10.472
▁lud	-10.4721
▁yellow	-10.4726
▁scienca	-10.4726
▁strukturo	-10.4728
▁kaŭzas	-10.4729
ĉ	-10.4731
▁platformo	-10.4732
▁renkontis	-10.4732
▁hundo	-10.4734
▁billion	-10.4738
▁issues	-10.474
▁sal	-10.4742
▁alternative	-10.4745
▁menso	-10.4751
▁ram	-10.4752
▁dreams	-10.4753
▁vid	-10.4756
ilon	-10.4762
▁poet	-10.4764
▁diru	-10.4768
▁easier	-10.477
▁nuclear	-10.4771
▁tax	-10.4773
▁kialoj	-10.4774
▁feliĉa	-10.4774
▁frank	-10.4776
▁2004	-10.4778
▁jack	-10.4781
▁ameriko	-10.4784
▁giving	-10.4788
▁bay	-10.4789
▁funkcio	-10.479
▁efika	-10.4791
▁perfekta	-10.4792
▁ideoj	-10.4794
▁presence	-10.4797
▁option	-10.48
▁proponas	-10.4806
▁maybe	-10.4808
▁thoughts	-10.4811
▁sinsekvaj	-10.4811
▁flow	-10.4812
called	-10.4817
▁mid	-10.4818
▁soft	-10.482
not	-10.4821
▁sources	-10.4824
su	-10.4824
▁kapon	-10.4829
▁filino	-10.4829
▁defense	-10.483
▁ŝtata	-10.4832
▁election	-10.4832
▁farm	-10.4834
ov	-10.4835
▁ĝui	-10.4836
▁lernejoj	-10.4841
▁partoprenantoj	-10.4843
pp	-10.4844
ü	-10.4846
▁atingas	-10.4848
▁centre	-10.4848
▁kaŭzis	-10.485
op	-10.4854
▁originala	-10.4859
▁grew	-10.4861
▁civitanoj	-10.4863
▁served	-10.4865
sto	-10.4865
eton	-10.4867
kiu	-10.4867
▁kg	-10.4872
▁sxi	-10.4873
▁tower	-10.4875
▁defined	-10.4876
▁meetings	-10.4877
▁brazilo	-10.4884
▁regno	-10.4887
▁buildings	-10.4888
▁applications	-10.4888
ran	-10.4889
85	-10.4891
▁connection	-10.4892
▁meat	-10.4894
▁karlo	-10.4898
23	-10.4905
▁map	-10.4905
ez	-10.4909
ida	-10.4917
▁airport	-10.4923
▁fruit	-10.4927
▁falis	-10.4928
▁tasko	-10.4928
▁absolute	-10.4929
▁hu	-10.4929
▁bedaŭrinde	-10.4932
▁offered	-10.4933
sistemo	-10.4936
itan	-10.4936
▁formoj	-10.4937
▁profesia	-10.4941
▁pura	-10.4944
▁core	-10.4945
▁motor	-10.4945
▁valuable	-10.4946
▁produkti	-10.4946
▁friendly	-10.4946
▁experiences	-10.4948
▁moral	-10.4949
▁ŝanĝoj	-10.4956
vis	-10.4961
▁propraj	-10.4962
▁5-	-10.4971
▁lernis	-10.4973
▁fixed	-10.4974
▁ourselves	-10.4975
▁pope	-10.4977
ent	-10.4979
▁charge	-10.498
eble	-10.4981
▁animo	-10.4984
▁eldono	-10.4986
77	-10.4987
▁efiko	-10.4989
▁metroj	-10.4991
hr	-10.4997
▁advice	-10.4998
▁temple	-10.4998
▁beyond	-10.5002
▁apply	-10.5003
▁sell	-10.5003
▁mankas	-10.5004
▁malhelpi	-10.5011
▁sube	-10.5017
▁aĉetis	-10.5018
▁declared	-10.5019
▁interests	-10.5028
▁38	-10.5032
▁creating	-10.5032
▁mc	-10.5034
▁staris	-10.504
ous	-10.5041
▁iii	-10.5041
0,000	-10.5044
▁occasion	-10.5045
▁messages	-10.5045
▁signal	-10.5049
▁cetere	-10.505
nes	-10.5056
▁release	-10.5057
▁researchers	-10.506
▁ti	-10.5063
▁kresko	-10.5065
▁com	-10.5068
vin	-10.507
▁tar	-10.5076
ó	-10.5079
▁biblioteko	-10.508
▁44	-10.5081
ks	-10.5086
▁noticed	-10.5088
▁california	-10.5095
▁discussion	-10.5098
▁reveno	-10.5099
post	-10.5105
▁aro	-10.5108
▁milk	-10.5109
▁atmosphere	-10.5109
▁pezo	-10.5109
▁category	-10.5114
gan	-10.5115
▁ekvacio	-10.5115
▁emperor	-10.5117
▁forced	-10.5118
▁remaining	-10.5119
▁bread	-10.512
▁gajni	-10.5125
rio	-10.5126
▁paro	-10.5129
▁1970	-10.5132
▁effectively	-10.5137
▁experts	-10.5137
▁[1]	-10.5139
▁cells	-10.5145
▁constantly	-10.5147
▁gu	-10.5148
hi	-10.5152
▁highly	-10.5156
86	-10.5156
▁loĝ	-10.5157
▁wi	-10.5157
▁greka	-10.516
ung	-10.5161
▁forlasis	-10.5161
▁sekvi	-10.5167
▁description	-10.5171
▁azio	-10.5186
▁sistemon	-10.5187
▁scio	-10.5189
▁okazi	-10.5189
▁fill	-10.5193
▁riĉa	-10.5198
▁slightly	-10.52
▁additional	-10.5201
▁helpos	-10.5203
▁launched	-10.5206
▁peti	-10.5206
▁smart	-10.5206
▁efikon	-10.5208
▁twitter	-10.5209
▁items	-10.5211
▁aux	-10.5212
▁antaŭen	-10.5212
▁taŭga	-10.5215
▁reports	-10.5215
▁1960	-10.5216
▁strongly	-10.5217
▁ebligas	-10.5218
▁lago	-10.5226
ato	-10.5227
▁ricevos	-10.5232
cia	-10.5239
kov	-10.5243
val	-10.525
▁consecutive	-10.5253
▁aŭstralio	-10.5254
▁capable	-10.5254
▁moscow	-10.5256
sp	-10.5257
▁ministry	-10.5258
▁samsung	-10.5265
▁ed	-10.5266
▁dance	-10.5275
▁specioj	-10.528
▁sistemoj	-10.5282
▁generation	-10.5285
▁preta	-10.5286
ski	-10.5289
des	-10.5292
▁dutch	-10.5293
▁theme	-10.5296
▁publikigita	-10.5297
01	-10.5299
▁necesa	-10.5301
▁fondita	-10.5303
▁ekstera	-10.5303
▁parte	-10.5305
▁joined	-10.5306
▁require	-10.5306
▁kill	-10.5306
▁authority	-10.5308
▁birdoj	-10.5313
▁sendube	-10.5317
▁medium	-10.5331
▁bazita	-10.5332
▁eventoj	-10.5334
▁linked	-10.5335
▁subteni	-10.5342
▁kreskas	-10.5347
▁exercise	-10.5354
▁akademio	-10.5356
▁solutions	-10.5356
▁kunveno	-10.5356
▁dedicated	-10.5362
▁defend	-10.5373
▁kredo	-10.5374
ker	-10.5377
▁tradition	-10.5379
▁evento	-10.5385
▁worldwide	-10.5389
▁judoj	-10.5392
▁signo	-10.5395
▁imagine	-10.5395
▁diverse	-10.5395
▁richard	-10.5395
▁surbaze	-10.5396
▁annual	-10.5397
▁profesoro	-10.5402
▁okulojn	-10.5404
▁fini	-10.5405
▁pozicio	-10.5406
2.	-10.5407
▁requires	-10.541
ding	-10.5413
▁maŝino	-10.5416
▁bu	-10.5419
▁memor	-10.5421
▁ltd	-10.5422
▁couldn	-10.5422
▁undoubtedly	-10.5422
▁possibility	-10.5424
▁agree	-10.5427
▁’	-10.5428
▁happiness	-10.5437
▁helpon	-10.5437
49	-10.5447
▁komercaj	-10.5448
▁israelo	-10.545
▁originally	-10.5451
▁zone	-10.5454
▁tag	-10.5456
▁ideon	-10.5456
▁cerbo	-10.5461
▁mm	-10.5461
▁artisto	-10.5463
▁vorton	-10.5463
▁facts	-10.5468
▁temperaturo	-10.5472
oh	-10.5475
emaj	-10.5492
▁associated	-10.5496
▁anglio	-10.5496
▁channel	-10.55
are	-10.5505
▁vaste	-10.5506
▁600	-10.5518
▁pm	-10.5519
▁raised	-10.552
68	-10.5527
▁mrs	-10.5528
▁kids	-10.5531
▁somero	-10.5537
▁teach	-10.5542
▁beijing	-10.5549
▁tend	-10.555
▁bc	-10.5555
mas	-10.5556
▁entreprenoj	-10.5557
95	-10.5557
▁veni	-10.5558
▁manieroj	-10.5562
▁favorite	-10.5564
▁ios	-10.5564
▁institutions	-10.5567
▁9.	-10.5571
▁55	-10.5572
▁180	-10.5577
bre	-10.5577
▁sets	-10.558
▁egypt	-10.558
▁subtenas	-10.5581
▁domon	-10.5581
▁editor	-10.5584
jare	-10.5585
nda	-10.5587
ser	-10.5588
▁publikigis	-10.5591
▁silver	-10.5591
▁simbolo	-10.5596
▁initial	-10.5597
▁marbordo	-10.5598
▁anna	-10.5599
▁matene	-10.5599
tal	-10.5601
▁ir	-10.5603
ara	-10.5607
▁venos	-10.5612
▁mort	-10.5613
▁junuloj	-10.5613
▁unit	-10.5615
▁gain	-10.5615
▁boat	-10.5615
from	-10.5619
▁konsideras	-10.5619
▁journal	-10.562
▁similaj	-10.5624
ŝi	-10.5629
▁cars	-10.5629
▁install	-10.5633
▁rise	-10.5637
▁legis	-10.5639
▁im	-10.5639
▁pe	-10.5641
▁lasu	-10.5649
▁purchase	-10.5651
▁fariĝi	-10.5655
▁eating	-10.5655
ira	-10.5656
▁rigardu	-10.5657
▁literary	-10.5667
▁projektoj	-10.5667
▁ludantoj	-10.5669
▁partojn	-10.567
▁igas	-10.5671
▁supply	-10.5675
▁muro	-10.5676
▁ĉ	-10.5678
▁connected	-10.5684
▁konstante	-10.5686
which	-10.5688
bel	-10.5703
-18	-10.571
▁detail	-10.5712
36	-10.5714
all	-10.5717
▁guard	-10.5718
▁humans	-10.572
▁peoples	-10.5725
ris	-10.5725
unu	-10.5725
▁planedo	-10.5729
▁indikas	-10.573
▁operating	-10.5731
▁engine	-10.5732
▁sekura	-10.5734
▁desert	-10.5737
▁degree	-10.5738
▁communist	-10.5739
▁follows	-10.574
▁staras	-10.5743
ju	-10.5746
▁fruaj	-10.575
▁cap	-10.5751
▁aim	-10.5752
▁income	-10.5761
▁involved	-10.5761
▁sara	-10.5763
gar	-10.5768
▁battery	-10.5774
af	-10.5779
▁konsiderata	-10.5779
▁benefit	-10.5779
tajn	-10.5782
▁popola	-10.5784
▁precize	-10.5784
▁expected	-10.5786
▁entirely	-10.5786
▁romano	-10.5791
▁succeeded	-10.5791
▁lies	-10.5792
▁·	-10.5797
▁familioj	-10.5798
31	-10.5799
▁ordered	-10.5801
han	-10.5807
▁meze	-10.5812
je	-10.5814
▁pu	-10.5817
▁matters	-10.5818
▁37	-10.582
▁atenton	-10.5823
^	-10.5825
▁utila	-10.5826
▁taught	-10.5827
▁antaux	-10.5829
▁element	-10.5829
▁paĝoj	-10.5829
▁exhibition	-10.5831
long	-10.5838
▁kubo	-10.5839
▁mor	-10.5844
▁aparta	-10.5847
▁feelings	-10.5847
▁expressed	-10.5851
▁aparatoj	-10.5853
our	-10.5855
▁judge	-10.5857
▁heaven	-10.5857
▁miloj	-10.5861
▁walls	-10.5861
▁calls	-10.5862
▁individuoj	-10.5862
▁tradicia	-10.5865
urbo	-10.5867
▁20%	-10.5867
tar	-10.5868
▁hill	-10.5868
▁produktojn	-10.5875
▁usual	-10.588
▁flat	-10.5881
▁atendi	-10.5887
▁ŝian	-10.589
zy	-10.5893
▁akcepti	-10.5894
▁practical	-10.5896
▁malfermi	-10.5901
▁leaving	-10.5905
▁nomis	-10.5909
▁gazeto	-10.5915
▁kastelo	-10.5924
▁distribution	-10.5926
labor	-10.5927
▁communities	-10.5929
▁cancer	-10.5929
▁moving	-10.593
▁jarcentoj	-10.5931
▁flu	-10.5933
▁bear	-10.5933
▁ordinary	-10.5935
▁everywhere	-10.5935
▁plantoj	-10.5936
▁drug	-10.5939
▁reprezentas	-10.594
▁approach	-10.594
▁louis	-10.5941
▁particular	-10.5944
▁angel	-10.5945
▁63	-10.5948
▁agency	-10.5951
▁hungarian	-10.5954
▁interreta	-10.5955
▁advantages	-10.5967
▁goods	-10.5972
▁ministro	-10.5972
▁kvanton	-10.5975
▁ĉiujare	-10.5979
▁bible	-10.5983
▁manĝas	-10.5984
▁polico	-10.5987
▁fratoj	-10.5987
▁evidente	-10.5993
▁aldonis	-10.5993
▁sekretario	-10.5994
▁programon	-10.5996
▁cha	-10.5998
ud	-10.5999
▁staff	-10.6004
▁lingva	-10.6006
▁pictures	-10.6013
▁stands	-10.6015
▁santa	-10.6017
▁54	-10.6021
estro	-10.6022
▁kaŭzi	-10.6023
▁waiting	-10.6024
▁effort	-10.6025
▁divine	-10.6028
▁va	-10.6029
▁nomoj	-10.603
▁aktiva	-10.6033
▁potenca	-10.6036
term	-10.6037
▁2001	-10.6037
▁za	-10.6038
▁expect	-10.6038
▁race	-10.6038
iv	-10.604
eta	-10.6045
▁sounds	-10.6046
they	-10.6047
▁mexico	-10.605
ance	-10.6051
▁democracy	-10.6053
▁fojojn	-10.6057
▁manon	-10.6059
▁besto	-10.6059
▁imperiestro	-10.6061
▁capacity	-10.6066
▁kolekto	-10.6071
▁taste	-10.6074
▁romo	-10.6085
▁loved	-10.6086
▁senti	-10.6088
▁explained	-10.6088
▁finding	-10.6091
▁sugar	-10.6091
▁toward	-10.6093
▁56	-10.6101
ence	-10.6103
▁ŝancon	-10.6109
▁height	-10.6113
▁stock	-10.6115
▁avantaĝoj	-10.6115
ā	-10.6115
▁files	-10.6117
▁hav	-10.6124
raj	-10.6128
64	-10.6129
▁kelkfoje	-10.6132
▁studied	-10.6132
▁15-	-10.6137
▁percentage	-10.6141
kar	-10.6144
▁audience	-10.6148
▁sexual	-10.6148
▁lasis	-10.615
▁areoj	-10.6152
▁limigita	-10.6153
▁erik	-10.6156
▁hi	-10.6158
▁document	-10.616
▁komunumoj	-10.6167
▁portuguese	-10.6169
▁papo	-10.617
▁kilometers	-10.6171
▁ended	-10.6175
▁ipad	-10.6177
▁estro	-10.6177
pu	-10.6178
▁ŝatus	-10.618
▁connect	-10.6181
▁plur	-10.6181
bra	-10.6182
▁walking	-10.6186
▁ru	-10.6187
▁premo	-10.6187
▁bru	-10.6189
▁socialist	-10.6191
▁10-	-10.6191
▁elŝuti	-10.6195
au	-10.6197
▁ze	-10.6197
▁completed	-10.6199
ok	-10.6203
▁begins	-10.6203
▁mira	-10.6204
▁dividita	-10.6204
▁childhood	-10.6204
▁existing	-10.6209
48	-10.621
▁1000	-10.6213
▁han	-10.6215
▁2003	-10.6216
ure	-10.6216
▁85	-10.6218
▁tour	-10.6223
▁profunde	-10.6223
▁bicycle	-10.6224
ping	-10.6225
▁povi	-10.6225
▁sweet	-10.6227
55	-10.6231
▁texts	-10.6231
▁agoj	-10.6233
▁librojn	-10.6234
▁pentraĵo	-10.6234
▁specio	-10.6235
▁esperantisto	-10.6237
▁ages	-10.6241
▁francisco	-10.6242
▁ĉiutaga	-10.6244
▁models	-10.6246
quality	-10.6247
▁kafo	-10.6248
▁gi	-10.625
▁vice	-10.6251
▁introduced	-10.6253
▁principles	-10.6258
▁maintain	-10.626
▁partioj	-10.6264
▁destroyed	-10.6265
▁tele	-10.6267
500	-10.6267
kio	-10.6268
▁vikipedio	-10.627
š	-10.6271
▁prezidento	-10.6271
art	-10.6272
▁donita	-10.6272
van	-10.6275
▁prices	-10.6276
▁dogs	-10.6276
▁basis	-10.6277
tiko	-10.6277
▁alexander	-10.6278
tz	-10.6278
▁pala	-10.6279
▁arts	-10.6281
▁quick	-10.6282
with	-10.6283
ena	-10.6283
▁captain	-10.6285
▁aliro	-10.6286
▁kategorio	-10.6289
▁vasta	-10.629
▁entjeroj	-10.6293
▁requirements	-10.6296
▁relatively	-10.6296
▁kurso	-10.6299
▁pleasant	-10.63
▁ekz	-10.6305
▁lastatempe	-10.6305
▁slowly	-10.6306
▁devenas	-10.6307
▁miles	-10.6307
á	-10.631
▁comments	-10.6312
▁natur	-10.6312
▁intended	-10.6318
▁18-	-10.632
▁haŭto	-10.632
▁cast	-10.6322
44	-10.6322
way	-10.6331
▁baza	-10.6332
adas	-10.6334
▁removed	-10.6338
vidu	-10.6342
▁agreed	-10.6347
▁ĉinaj	-10.635
▁integers	-10.6351
▁trading	-10.6354
.[1]	-10.6364
▁antonio	-10.637
▁flight	-10.6371
▁surfaco	-10.6374
ej	-10.6376
war	-10.6377
▁ukraine	-10.6378
▁saturday	-10.6379
▁>	-10.638
▁ligita	-10.6383
movado	-10.6384
▁politics	-10.6385
▁ms	-10.6393
▁eksterlandaj	-10.6395
▁elementoj	-10.6396
38	-10.6398
▁elektu	-10.6398
▁combined	-10.6398
▁profunda	-10.6398
▁kredis	-10.6399
▁ch	-10.6403
▁ŝtat	-10.6409
▁patients	-10.641
▁rekta	-10.6414
▁finis	-10.6414
▁plays	-10.6418
▁vidos	-10.6425
▁elsendo	-10.6429
▁teorio	-10.6435
sta	-10.6437
met	-10.6438
▁julia	-10.6438
▁meanwhile	-10.6438
▁66	-10.644
▁investment	-10.644
▁extra	-10.6441
▁limit	-10.6444
▁esploristoj	-10.6444
▁sezono	-10.6445
▁stacio	-10.6446
sch	-10.6448
▁kondukas	-10.6449
▁traduko	-10.6451
▁porti	-10.6454
▁micro	-10.6455
▁140	-10.646
▁vizitantoj	-10.6463
▁mine	-10.6463
▁dolaroj	-10.6464
▁pasis	-10.6467
▁mention	-10.6476
▁renkontiĝo	-10.6477
ries	-10.6478
▁naŭ	-10.6478
▁fourth	-10.6484
▁galaxy	-10.6484
ap	-10.6495
▁@	-10.6497
idoj	-10.6498
▁payment	-10.6499
▁teatro	-10.6501
▁dictionary	-10.6507
▁acid	-10.6514
▁malnovaj	-10.6514
▁palaco	-10.6515
ú	-10.6515
▁fizika	-10.6517
▁chamber	-10.6521
▁populacio	-10.6526
▁usd	-10.6526
ped	-10.6528
▁ĉefministro	-10.6529
▁reg	-10.6532
▁simile	-10.6533
▁8.	-10.6533
▁trajtoj	-10.6535
▁hitler	-10.6536
ities	-10.6537
▁volo	-10.6541
78	-10.6542
▁plano	-10.6543
▁banko	-10.6545
how	-10.6549
▁malvarma	-10.6549
▁fortoj	-10.6549
ville	-10.6551
▁kiaj	-10.6552
▁unuiĝintaj	-10.6553
▁credit	-10.6553
▁succeed	-10.6555
▁perform	-10.6558
▁edge	-10.6559
▁courses	-10.6562
▁arbaro	-10.6565
free	-10.6567
▁ilo	-10.6568
▁fly	-10.657
▁nomiĝas	-10.6571
▁amerika	-10.6574
▁maximum	-10.6575
▁manĝ	-10.6577
▁sad	-10.6579
▁walked	-10.6583
▁quiet	-10.6583
▁(2	-10.6583
▁artists	-10.6584
tin	-10.6589
▁priest	-10.6593
▁vote	-10.6594
ila	-10.6594
▁chapter	-10.6596
form	-10.6596
▁characteristics	-10.6599
▁dirante	-10.6602
▁depending	-10.6605
▁pleasure	-10.6608
▁sento	-10.6609
▁prezenti	-10.6609
▁camera	-10.661
▁twice	-10.6614
▁federation	-10.662
▁katolika	-10.6624
▁lito	-10.6633
tojn	-10.6643
▁weapons	-10.6644
▁cxe	-10.6649
▁severe	-10.6656
▁leads	-10.6656
▁aleksandro	-10.6658
▁respondi	-10.666
▁bottom	-10.6666
▁proprajn	-10.667
▁tan	-10.6673
▁demandojn	-10.6675
▁tage	-10.6675
▁error	-10.6678
▁gift	-10.6678
▁factors	-10.6679
▁reguloj	-10.668
▁valoron	-10.6681
▁travels	-10.6682
▁saved	-10.6682
▁instruistoj	-10.6684
mu	-10.6685
▁100%	-10.6686
▁€	-10.6687
▁160	-10.669
▁savi	-10.6691
▁depends	-10.6693
ative	-10.6693
▁yu	-10.6699
▁index	-10.67
▁missing	-10.6701
▁daniel	-10.6708
▁naciaj	-10.6711
▁circle	-10.6714
sub	-10.6714
▁environmental	-10.6718
▁applied	-10.6719
▁anniversary	-10.6722
▁opinio	-10.6724
cent	-10.6729
inta	-10.673
▁latina	-10.6731
76	-10.6733
▁malferma	-10.6737
39	-10.6738
▁faster	-10.6738
▁96	-10.6739
▁festivalo	-10.674
▁administrado	-10.6741
▁koloroj	-10.6744
ang	-10.6746
▁strategy	-10.6748
▁suffering	-10.6748
▁deal	-10.6749
▁nine	-10.6749
▁belaj	-10.6757
▁kompleta	-10.6761
▁electronic	-10.6763
▁okaze	-10.6769
▁log	-10.6773
▁memoro	-10.6774
istic	-10.6778
56	-10.6779
▁anstataŭe	-10.678
▁vision	-10.6781
▁cxiuj	-10.6791
▁dollars	-10.6794
▁und	-10.6794
▁valid	-10.6801
▁kontakto	-10.6804
▁konduto	-10.6807
▁konstruado	-10.6807
izing	-10.6807
▁atendis	-10.6812
▁sid	-10.6814
▁nearly	-10.682
▁discuss	-10.682
▁netherlands	-10.6821
▁seek	-10.6821
▁kondukis	-10.6821
▁dom	-10.6826
▁juda	-10.6826
▁milionojn	-10.6829
▁balance	-10.6832
▁fenestro	-10.6835
▁arboj	-10.6839
▁pac	-10.684
▁options	-10.6842
▁baseball	-10.6843
▁stress	-10.6845
▁liber	-10.6846
▁aldone	-10.6847
▁occupied	-10.6847
▁dreaming	-10.6848
ship	-10.6848
▁batal	-10.6849
▁islamic	-10.6851
known	-10.6854
▁sale	-10.6856
▁sukcesa	-10.6857
▁noise	-10.6857
▁parol	-10.6858
▁iĝas	-10.686
▁elektra	-10.686
▁popularaj	-10.6864
▁examples	-10.6864
▁classes	-10.6864
▁programaro	-10.6866
▁kong	-10.6867
▁vir	-10.6868
▁standing	-10.6869
▁10%	-10.6869
▁ireland	-10.687
▁slow	-10.6872
ica	-10.6873
▁krizo	-10.6875
tempo	-10.688
-1	-10.6881
▁interview	-10.6884
▁agadoj	-10.6884
▁mount	-10.6888
▁liberal	-10.6892
▁ip	-10.6896
▁bezonis	-10.6896
end	-10.6899
67	-10.6904
▁kri	-10.6906
▁actress	-10.6908
▁kalkulo	-10.6913
▁korpon	-10.6914
▁guests	-10.6917
▁hundreds	-10.6918
▁malsama	-10.692
000	-10.692
▁storage	-10.6921
34	-10.6924
▁akceptis	-10.6928
▁solar	-10.6931
▁poli	-10.6935
▁kreas	-10.6936
▁datumojn	-10.6942
▁insuloj	-10.6943
▁em	-10.6946
▁virtual	-10.6948
▁oleo	-10.6948
▁replaced	-10.6948
▁background	-10.6951
▁manojn	-10.6951
▁latter	-10.6952
▁plate	-10.6952
▁advertising	-10.6956
▁interkonsento	-10.6958
▁vort	-10.696
▁comfortable	-10.696
laŭ	-10.6961
▁malrapide	-10.6963
▁ankaux	-10.6964
▁jobs	-10.6965
▁nearby	-10.6967
▁musician	-10.6969
▁52	-10.697
▁×	-10.6972
gis	-10.6973
▁mission	-10.6973
▁kan	-10.6978
▁fundamental	-10.6983
mia	-10.6985
▁false	-10.6987
▁explore	-10.6991
eu	-10.6995
▁friday	-10.6996
▁hardly	-10.6996
▁ur	-10.6998
ology	-10.7001
▁contain	-10.7006
▁sh	-10.7009
▁evidence	-10.7014
▁records	-10.7017
▁authorities	-10.702
▁kontakti	-10.7021
qui	-10.7021
▁seat	-10.7025
▁84	-10.7026
tur	-10.7026
▁none	-10.7029
▁ro	-10.703
zio	-10.7032
的	-10.7033
▁liquid	-10.7033
▁clients	-10.7033
▁2015,	-10.7035
▁duan	-10.7036
▁posedas	-10.7038
▁eggs	-10.704
▁spoken	-10.704
▁entrepreno	-10.7041
▁wave	-10.7041
elo	-10.7044
▁mirinda	-10.7046
▁koncepto	-10.7047
▁profile	-10.7049
▁intelligence	-10.706
▁promote	-10.7062
iro	-10.7065
▁wikimedia	-10.7065
▁juan	-10.7068
▁skills	-10.7068
▁1,	-10.7069
▁cuba	-10.7078
▁88	-10.7079
▁trejnado	-10.7079
▁tomorrow	-10.7081
▁realize	-10.7083
▁urbon	-10.7083
▁wars	-10.7091
▁produktas	-10.7099
▁friendship	-10.71
▁signed	-10.7101
▁aferon	-10.7106
▁prenu	-10.7109
▁mer	-10.7111
▁lasi	-10.7113
▁temp	-10.7114
▁rolo	-10.7119
▁expensive	-10.712
▁increasingly	-10.7121
▁draw	-10.7128
▁longan	-10.7129
▁heritage	-10.7132
▁2002	-10.7133
▁lee	-10.7135
▁prison	-10.7137
▁malfermita	-10.7141
▁perdi	-10.7142
▁dato	-10.7142
▁ŝipo	-10.7143
▁komprenis	-10.7144
▁elektro	-10.7147
▁bruno	-10.7147
▁unika	-10.7148
▁artikolon	-10.7153
▁rekomendas	-10.7153
▁provu	-10.7154
▁araba	-10.7157
▁aliron	-10.7158
▁hat	-10.7159
▁fotoj	-10.716
▁daŭris	-10.7162
▁similarly	-10.7163
▁failed	-10.7164
▁fontoj	-10.7164
▁probable	-10.7164
▁detaloj	-10.7164
▁opportunities	-10.7166
kin	-10.7167
▁proponis	-10.7174
▁ligno	-10.7174
▁format	-10.7174
▁registration	-10.7176
▁sana	-10.7176
▁administrative	-10.7177
▁movie	-10.7179
▁federacia	-10.7181
▁beach	-10.7182
▁errors	-10.7192
▁finiĝis	-10.7196
▁kant	-10.7196
▁muzikisto	-10.7199
▁publishing	-10.7202
▁urba	-10.7206
▁employees	-10.7213
▁younger	-10.7215
fort	-10.7216
burg	-10.7219
04	-10.7228
▁reveni	-10.7231
born	-10.7235
▁waste	-10.7236
▁aŭdi	-10.7241
▁okul	-10.7241
ach	-10.7244
▁memoras	-10.7245
▁fellow	-10.7246
▁interne	-10.7249
▁rakontis	-10.7253
▁smallest	-10.7253
via	-10.7255
▁babilejo	-10.7256
▁educational	-10.7263
▁leĝoj	-10.727
▁2022	-10.7271
▁tests	-10.7272
▁doubt	-10.7273
▁responsibility	-10.7274
▁instagram	-10.7274
▁disappeared	-10.7278
ea	-10.728
▁officially	-10.7283
▁wa	-10.7291
bit	-10.7291
▁ob	-10.7294
ability	-10.7295
▁1:	-10.7295
▁universe	-10.7297
▁hong	-10.7301
▁domestic	-10.7301
ale	-10.7304
▁cook	-10.7305
▁iran	-10.7306
▁110	-10.7306
▁powder	-10.7308
41	-10.7312
▁lay	-10.7313
▁rapido	-10.7316
▁rub	-10.7318
▁premio	-10.7318
▁les	-10.7318
▁ajnan	-10.7321
▁fort	-10.7328
lia	-10.7331
▁counter	-10.7331
▁alteco	-10.7333
▁komuniki	-10.734
▁donos	-10.7342
▁neck	-10.7343
▁decades	-10.7345
▁liajn	-10.7346
▁korean	-10.735
▁biblio	-10.7356
▁filozofio	-10.7359
61	-10.7362
06	-10.7364
▁installation	-10.7364
▁streets	-10.7365
▁carbon	-10.7368
▁thick	-10.737
▁flankoj	-10.7371
▁bal	-10.7375
▁forum	-10.7379
▁longaj	-10.7379
▁branch	-10.7381
▁aer	-10.7381
dra	-10.7382
▁venonta	-10.7386
▁1950	-10.7387
xi	-10.7389
▁supera	-10.7389
▁vehicle	-10.7396
▁beat	-10.7401
▁hidden	-10.7402
▁modernaj	-10.7411
▁speciale	-10.7416
▁considering	-10.7417
▁ian	-10.7417
▁recommend	-10.7419
▁filled	-10.7419
▁communicate	-10.7422
fu	-10.7422
▁sperton	-10.7426
▁televido	-10.7427
▁protekto	-10.7428
ĵojn	-10.7431
▁attended	-10.7433
▁contract	-10.7435
▁produkta	-10.7435
▁klarigi	-10.7437
▁asertas	-10.7438
▁nura	-10.7441
▁intereso	-10.7441
▁austria	-10.7442
▁traveled	-10.7444
▁jump	-10.7444
▁contents	-10.7452
▁kian	-10.7457
||1	-10.746
▁elektas	-10.7462
▁chosen	-10.7464
▁subtenon	-10.7464
▁tenas	-10.7472
▁patron	-10.7475
▁joint	-10.7475
▁instrument	-10.748
▁objekto	-10.7483
▁ps	-10.7489
mann	-10.7493
▁stable	-10.7496
▁adapt	-10.7496
▁roberto	-10.7497
▁recognize	-10.7499
▁introduction	-10.7501
vid	-10.7504
▁max	-10.7505
▁americans	-10.751
rk	-10.7511
▁wise	-10.7516
▁participation	-10.7516
bro	-10.7517
42	-10.7518
▁topics	-10.7518
▁cor	-10.752
▁konsideri	-10.7522
▁bodies	-10.7522
▁victory	-10.7524
▁influo	-10.7524
▁folio	-10.7525
▁adopted	-10.7526
ator	-10.753
▁fate	-10.7533
▁rete	-10.7533
▁hejma	-10.7534
▁impact	-10.7535
▁custom	-10.7535
▁singer	-10.7539
ĥ	-10.754
▁opera	-10.754
▁taŭgas	-10.7543
▁afternoon	-10.7544
▁alte	-10.7545
▁nederlando	-10.7546
▁standards	-10.7547
▁differences	-10.755
▁oficiale	-10.7551
▁financa	-10.7552
▁track	-10.7554
▁nombroj	-10.7554
▁aspects	-10.7555
▁treaty	-10.7557
▁sendependa	-10.7557
▁komenca	-10.7558
▁yesterday	-10.756
▁landon	-10.7562
br	-10.7562
▁print	-10.7562
▁250	-10.7565
▁kept	-10.7565
▁transfer	-10.7566
▁demokratio	-10.7568
▁$1	-10.7568
ban	-10.7569
▁dekstra	-10.757
▁penso	-10.757
▁proposal	-10.7571
▁esploro	-10.7576
▁minutojn	-10.758
▁dividi	-10.7587
▁guarantee	-10.7589
▁bol	-10.7592
ev	-10.7595
iĝanta	-10.7596
▁ie	-10.7597
▁copy	-10.7599
▁vendo	-10.7604
oni	-10.7605
ph	-10.7606
mus	-10.7607
▁developing	-10.7608
▁abroad	-10.7611
▁senpaga	-10.7613
▁sitting	-10.7616
▁presents	-10.7617
▁gar	-10.7618
▁tur	-10.7619
72	-10.7624
grand	-10.7625
▁fojo	-10.7625
▁sons	-10.7625
▁metu	-10.7631
▁76	-10.7634
▁vic	-10.7635
▁okazo	-10.7636
▁generacio	-10.7638
▁gvidantoj	-10.7639
▁launch	-10.764
who	-10.7646
▁priskribo	-10.7646
▁organizoj	-10.7647
▁operations	-10.7648
iĝinta	-10.7651
▁inkludas	-10.7654
▁poetry	-10.7654
mark	-10.7659
▁websites	-10.7659
▁sekvan	-10.7659
▁tiajn	-10.7663
tru	-10.7668
▁konstruis	-10.7668
47	-10.7668
▁famaj	-10.7668
eno	-10.7669
▁sp	-10.7669
▁troops	-10.7672
▁figures	-10.7673
09	-10.7674
▁attacks	-10.7679
▁advanced	-10.7679
▁framework	-10.7679
pur	-10.7681
▁gray	-10.7682
sha	-10.7683
▁pasinteco	-10.7684
▁95	-10.7686
▁signs	-10.7686
▁vizito	-10.7687
▁funkcioj	-10.7697
▁enhavon	-10.7699
▁instali	-10.77
▁gravajn	-10.7701
▁konstitucio	-10.7702
▁resto	-10.7703
▁officer	-10.7705
▁blua	-10.7706
▁princo	-10.771
nio	-10.7712
▁unesco	-10.7713
▁letero	-10.7715
▁preferas	-10.7715
▁identity	-10.7718
more	-10.772
▁foriris	-10.7721
▁daŭrigi	-10.7721
▁networks	-10.7722
bio	-10.7723
▁16-	-10.7723
▁equally	-10.7723
▁rid	-10.7725
▁vest	-10.7726
▁tasks	-10.7728
▁potencon	-10.7729
▁detailed	-10.7731
lum	-10.7737
▁chair	-10.7738
mb	-10.7738
▁igis	-10.7739
▁prayer	-10.774
▁movements	-10.7746
▁levi	-10.7749
▁regado	-10.7752
▁gets	-10.7755
▁struggle	-10.7756
▁kristana	-10.7757
ide	-10.7757
▁regularly	-10.7757
▁lie	-10.7758
▁pliigi	-10.7759
07	-10.776
▁representatives	-10.7762
▁maldekstra	-10.7762
▁retejoj	-10.7766
▁increasing	-10.7766
▁defendo	-10.7769
▁rezultojn	-10.7769
▁rare	-10.777
▁empty	-10.7771
▁floroj	-10.7772
▁familia	-10.7773
▁aldonu	-10.7774
▁somehow	-10.7777
▁12-	-10.7778
▁readers	-10.7778
▁var	-10.778
▁flug	-10.7781
▁publication	-10.7781
▁changing	-10.7783
there	-10.7783
▁jun	-10.7786
▁update	-10.7794
▁manĝo	-10.7805
▁legu	-10.781
▁epi	-10.7813
▁select	-10.7826
vel	-10.783
▁violence	-10.7832
▁6-	-10.7838
▁hor	-10.7841
▁regule	-10.7845
▁opposition	-10.7845
▁manual	-10.7846
▁limo	-10.7847
46	-10.7854
▁institucioj	-10.7857
▁arrival	-10.7858
▁inteligenta	-10.7863
▁plenan	-10.7864
bin	-10.7865
▁kapablon	-10.7867
37	-10.787
▁hotelo	-10.787
▁juro	-10.7871
▁budget	-10.7875
name	-10.7878
▁asian	-10.7883
▁pastro	-10.7884
».	-10.7884
▁ĉeesto	-10.7885
▁teo	-10.7885
▁ki	-10.7885
▁recommended	-10.7886
▁aid	-10.7886
án	-10.7888
▁deziro	-10.7891
に	-10.7891
▁regime	-10.7894
▁valo	-10.7894
▁sciences	-10.7896
▁kol	-10.7897
▁brazilian	-10.7898
asocio	-10.7898
▁providing	-10.7898
▁konstru	-10.7899
▁flor	-10.7903
▁indigenous	-10.7908
▁bet	-10.7908
02	-10.7909
▁consumption	-10.7918
▁planto	-10.7918
▁infan	-10.792
▁malfrue	-10.792
▁ya	-10.7921
istino	-10.7922
–19	-10.7925
▁larĝa	-10.7927
▁rooms	-10.793
▁poeto	-10.7931
66	-10.7932
▁sta	-10.7933
▁stud	-10.7936
▁ministerio	-10.7937
tus	-10.7941
▁adults	-10.7941
▁deeply	-10.7947
▁exactly	-10.7947
▁publikaj	-10.795
▁thirty	-10.7951
▁knowing	-10.7953
ford	-10.7954
▁nekonato	-10.7954
▁managed	-10.7956
▁ride	-10.7959
▁registri	-10.7961
▁block	-10.7962
▁timas	-10.7964
▁studi	-10.7964
▁ekzisto	-10.7966
▁vetero	-10.7967
▁ivo	-10.7968
▁ĝardeno	-10.7972
▁flughaveno	-10.7972
▁replace	-10.7977
▁declaration	-10.7978
100	-10.798
▁edward	-10.7981
▁kapti	-10.7984
▁officials	-10.7985
▁specifically	-10.7985
ini	-10.799
▁mental	-10.7991
▁seconds	-10.7991
▁match	-10.7994
fr	-10.7994
03	-10.7995
▁rio	-10.7998
▁grandega	-10.7998
▁klasika	-10.8
antan	-10.8005
▁bush	-10.801
▁opposite	-10.8011
new	-10.8017
▁foods	-10.8017
▁pale	-10.8017
▁ununura	-10.8018
▁host	-10.802
▁membership	-10.8022
▁protest	-10.8027
▁mode	-10.8029
▁couple	-10.803
▁helena	-10.8036
▁kinds	-10.8038
cm	-10.8039
▁formal	-10.8039
▁mag	-10.804
▁valentin	-10.8048
▁gvidanto	-10.805
▁monday	-10.8052
▁ekiras	-10.8052
▁pot	-10.8054
▁tutmonde	-10.8056
▁ŝanĝis	-10.8059
▁ludanto	-10.8064
var	-10.8065
▁fulfill	-10.8065
▁journalist	-10.8065
▁anoncis	-10.8066
▁millions	-10.8067
ms	-10.8067
▁bildon	-10.8067
▁ekspozicio	-10.8068
▁surprised	-10.8068
▁nikolao	-10.807
96	-10.807
▁belongs	-10.8071
▁adult	-10.8074
▁tribunalo	-10.8075
▁vo	-10.8075
▁piano	-10.8077
▁manufacturing	-10.8081
▁2:	-10.8082
▁konstanta	-10.8088
▁tenis	-10.8088
▁tekston	-10.8088
▁unufoje	-10.809
▁celon	-10.809
62	-10.8091
▁41	-10.8094
▁1920	-10.8099
▁mp	-10.8099
tel	-10.8102
▁olga	-10.8104
▁mini	-10.8109
▁disvolvi	-10.8111
▁feature	-10.8114
▁egalas	-10.8118
▁privata	-10.8119
▁kampoj	-10.8119
▁display	-10.812
▁praktiko	-10.8123
maj	-10.8123
▁afraid	-10.8125
▁aware	-10.8126
▁adding	-10.813
▁catch	-10.8134
▁irish	-10.8136
ft	-10.8141
▁konstruaĵoj	-10.8142
▁thy	-10.8149
▁malsanoj	-10.8149
▁elections	-10.8154
▁orders	-10.8155
▁servi	-10.8156
▁konto	-10.816
▁amuza	-10.8165
▁industria	-10.8167
▁residents	-10.8176
▁bezonoj	-10.8177
▁chain	-10.8178
▁danger	-10.818
▁novaĵoj	-10.8187
▁68	-10.8188
▁ser	-10.8193
▁minimum	-10.8194
▁worry	-10.8195
▁hans	-10.8195
▁240	-10.8196
▁mara	-10.8199
▁meal	-10.82
▁signifon	-10.8202
ĉar	-10.8202
ret	-10.8203
▁faktoroj	-10.8204
kri	-10.8205
▁presentation	-10.8206
▁iĝi	-10.8212
▁specifa	-10.8215
▁symptoms	-10.8224
ced	-10.8225
▁43	-10.8228
▁ski	-10.8228
▁weak	-10.8228
▁justeco	-10.8231
▁anglan	-10.8231
▁restaurant	-10.8232
ska	-10.8233
▁templo	-10.8234
▁bright	-10.8237
▁barato	-10.8242
▁wealth	-10.8243
200	-10.8244
▁chu	-10.8248
▁manĝaĵoj	-10.8251
aux	-10.8253
▁albert	-10.8254
▁broken	-10.8254
bs	-10.8256
del	-10.8257
▁99	-10.8258
▁imp	-10.8259
▁fortan	-10.826
▁sidis	-10.826
▁straight	-10.8261
▁nice	-10.8262
▁fer	-10.8266
▁cycle	-10.8267
▁theater	-10.8268
teco	-10.8268
grupo	-10.8269
▁pacific	-10.8269
▁gone	-10.8269
▁isbn	-10.8274
▁angle	-10.8275
fal	-10.8278
▁argument	-10.8283
▁pacientoj	-10.8284
▁pupils	-10.8286
▁elstara	-10.8287
▁achieved	-10.8291
kur	-10.8293
▁bat	-10.8294
▁fund	-10.8295
▁hide	-10.8298
ón	-10.83
▁igi	-10.8301
▁klarigas	-10.8302
▁canadian	-10.8303
▁luno	-10.8303
▁iros	-10.8305
▁wang	-10.8305
▁bob	-10.8307
▁cookies	-10.8309
far	-10.831
▁characters	-10.8316
▁determine	-10.8318
▁successfully	-10.8319
▁romia	-10.8321
▁tired	-10.8323
▁trov	-10.8323
▁provo	-10.8324
84	-10.8328
▁approved	-10.8329
▁koron	-10.8335
▁certaj	-10.834
▁sch	-10.8345
▁perfectly	-10.8345
▁realized	-10.8345
▁wonder	-10.8346
▁smooth	-10.8346
▁primary	-10.8346
▁showing	-10.8347
▁divers	-10.8347
▁silence	-10.8347
ras	-10.8348
▁auto	-10.835
▁mont	-10.8353
▁gate	-10.8354
▁kaŝ	-10.8354
level	-10.8355
▁lunch	-10.8357
||3	-10.8358
▁okcidento	-10.8359
▁reduced	-10.8362
▁130	-10.8367
▁loĝis	-10.8369
▁iloj	-10.8372
▁poem	-10.8372
88	-10.8373
▁[2]	-10.8375
▁theatre	-10.8377
▁vespere	-10.8382
▁ger	-10.8385
▁creative	-10.8385
▁register	-10.839
▁smile	-10.8392
▁malaperis	-10.8393
▁ab	-10.8394
▁malkovris	-10.8395
▁malbone	-10.8397
▁closer	-10.8398
▁josé	-10.8399
▁duty	-10.84
▁rakontas	-10.84
▁kre	-10.8402
▁discount	-10.8404
▁properties	-10.8406
▁naskiĝo	-10.8408
▁memori	-10.8408
▁settings	-10.8409
▁scale	-10.8409
▁demandas	-10.841
▁jardekoj	-10.8411
▁mikro	-10.8412
▁concert	-10.8413
ning	-10.8415
▁esperantista	-10.8416
▁semi	-10.8416
▁suffered	-10.8416
ari	-10.8423
▁zi	-10.8425
▁birdo	-10.8425
▁convenient	-10.8426
▁sang	-10.8426
house	-10.8427
▁tiutempe	-10.843
▁selected	-10.8435
las	-10.8436
use	-10.8436
▁17-	-10.8437
▁root	-10.8439
▁client	-10.8439
▁rajton	-10.8441
fra	-10.8444
▁konflikto	-10.8445
▁1997	-10.8446
▁stranga	-10.8451
▁hieraŭ	-10.8451
▁pliajn	-10.8456
▁organizaĵo	-10.8457
▁score	-10.8457
▁soil	-10.8458
▁77	-10.846
▁transportation	-10.846
▁indicate	-10.8461
▁artistoj	-10.8464
moj	-10.8465
▁armed	-10.8465
▁1999	-10.8468
▁metro	-10.8469
▁automatically	-10.8469
▁apparently	-10.8471
▁malproksime	-10.8477
▁rilatojn	-10.8478
ĉo	-10.8479
▁normala	-10.8481
▁acts	-10.8482
▁49	-10.8482
▁plue	-10.8483
▁deliver	-10.8484
▁1996	-10.8485
▁1995	-10.8487
▁noted	-10.8488
▁fighting	-10.8489
cas	-10.8494
zu	-10.8497
▁estante	-10.8498
▁extensive	-10.8499
▁servojn	-10.8507
▁crime	-10.8507
▁veturis	-10.8509
▁komenciĝas	-10.8509
▁multiple	-10.8509
▁elektoj	-10.8509
98	-10.8515
▁videos	-10.8517
▁principo	-10.852
▁kitchen	-10.8525
▁funkcii	-10.8525
▁gamo	-10.8527
▁quantity	-10.8528
▁context	-10.8532
▁servant	-10.8535
▁senco	-10.8536
▁minor	-10.8539
▁trump	-10.854
▁konstruo	-10.8543
▁rul	-10.8543
▁forlasi	-10.8545
ius	-10.8547
▁3:	-10.8547
▁decisions	-10.8548
▁naturally	-10.8553
2|	-10.8557
▁analizo	-10.8557
▁statement	-10.8557
ren	-10.8562
▁informed	-10.8564
ö	-10.8564
▁sick	-10.8565
umo	-10.8566
▁kal	-10.857
▁collaboration	-10.857
▁whatever	-10.8571
▁corner	-10.8573
trans	-10.8573
▁bild	-10.8574
ial	-10.8575
▁malfermis	-10.8578
when	-10.8584
▁demandi	-10.8584
language	-10.8584
▁sites	-10.8585
71	-10.8586
▁units	-10.8588
rum	-10.8591
▁pasigis	-10.8591
▁iv	-10.8594
▁ji	-10.8598
▁amaskomunikiloj	-10.86
▁amon	-10.8601
▁invited	-10.8603
▁sharp	-10.8606
▁collect	-10.8606
▁pun	-10.8608
shi	-10.861
▁kovras	-10.8611
▁pluvo	-10.8612
▁sufiĉas	-10.8615
▁representative	-10.8615
▁kampanjo	-10.8617
▁skribas	-10.8617
▁cultures	-10.8622
▁kvara	-10.8623
acio	-10.8625
▁terura	-10.863
med	-10.8631
▁bre	-10.8633
▁grundo	-10.8635
ulino	-10.8638
▁fabriko	-10.8639
▁enkonduko	-10.864
▁forton	-10.8641
ligo	-10.8642
▁iel	-10.8644
▁bra	-10.8646
▁turkey	-10.8649
▁sudo	-10.865
▁formon	-10.865
▁efike	-10.8653
eroj	-10.8654
▁legs	-10.8654
▁wisdom	-10.8656
▁dinner	-10.8656
iz	-10.8658
▁wifi	-10.866
▁pres	-10.8661
▁returning	-10.8666
nun	-10.8669
▁driver	-10.867
pel	-10.8672
▁shoes	-10.8673
▁mat	-10.868
▁cathedral	-10.8681
▁piedoj	-10.8682
based	-10.8686
▁angry	-10.8688
▁memoru	-10.8688
▁objektoj	-10.8691
▁everyday	-10.8692
▁ukrainio	-10.8692
-2	-10.8693
▁possibly	-10.8697
▁simon	-10.8697
pr	-10.8697
▁vojoj	-10.8698
ric	-10.87
▁origine	-10.8701
▁aldonas	-10.8707
ĝu	-10.8708
▁survey	-10.8712
58	-10.8714
▁mas	-10.8718
▁pol	-10.8718
▁attempt	-10.8719
▁failure	-10.872
▁coat	-10.872
59	-10.8722
ye	-10.8725
▁automatic	-10.8725
▁societo	-10.8727
▁organize	-10.873
wood	-10.8731
▁14-	-10.8732
▁sing	-10.8733
▁raw	-10.8736
▁81	-10.8736
par	-10.8737
tino	-10.8737
▁dorm	-10.8741
▁biography	-10.8743
▁donu	-10.8748
81	-10.875
▁ideojn	-10.8752
▁perdo	-10.8752
▁rigard	-10.8753
▁portis	-10.8754
▁flower	-10.8756
▁morgaŭ	-10.8757
▁cifereca	-10.8758
▁patient	-10.8758
▁bell	-10.876
▁overall	-10.876
▁muzikon	-10.876
mes	-10.8762
ef	-10.8762
mg	-10.8765
▁iama	-10.8765
▁reĝino	-10.8766
tas	-10.8767
igxis	-10.877
▁ligiloj	-10.877
▁scene	-10.8771
▁dust	-10.8771
▁ĝojo	-10.8771
pon	-10.8774
▁reaction	-10.8775
▁eliris	-10.8777
▁cool	-10.8781
▁seriously	-10.8782
▁drinking	-10.8786
▁concerned	-10.8788
▁contrast	-10.8788
▁audio	-10.879
▁malofte	-10.8793
▁marine	-10.8793
▁46	-10.8794
▁fruits	-10.8795
▁circumstances	-10.8797
▁subsequent	-10.8798
▁samaj	-10.8799
▁minute	-10.8801
▁forever	-10.8807
eja	-10.8808
▁recorded	-10.8808
▁stelo	-10.8808
▁registered	-10.8811
▁naturaj	-10.8811
▁diseases	-10.8811
ix	-10.8813
▁kreskanta	-10.8815
▁sono	-10.8816
▁vintro	-10.8824
▁aircraft	-10.8825
▁testing	-10.8826
mis	-10.8826
▁oriento	-10.8827
▁administra	-10.8828
▁lernu	-10.883
▁microsoft	-10.8832
▁lernas	-10.8834
▁relevant	-10.8837
ible	-10.8837
ag	-10.8838
▁variety	-10.8839
▁swedish	-10.884
▁teron	-10.8841
▁tradicio	-10.8842
▁antaŭaj	-10.8843
▁8-	-10.8845
▁naskita	-10.8845
▁filip	-10.8847
▁shot	-10.8848
nce	-10.8849
▁belong	-10.885
▁esprimi	-10.885
▁esplor	-10.8855
▁driving	-10.8855
▁postuloj	-10.8858
▁sentence	-10.8858
▁suffer	-10.8859
▁typical	-10.8862
▁reta	-10.8865
▁offering	-10.8867
eme	-10.8868
▁influas	-10.887
▁alportis	-10.8873
▁traktado	-10.8873
▁belan	-10.8875
▁represents	-10.8876
▁newspapers	-10.8877
cre	-10.8878
▁outstanding	-10.8883
▁eventually	-10.8887
ves	-10.8892
▁crown	-10.8892
▁geo	-10.8893
▁kariero	-10.8895
▁planning	-10.8898
▁specialaj	-10.89
▁maŝinoj	-10.8904
now	-10.8904
len	-10.8904
▁tank	-10.8906
79	-10.8907
ee	-10.8909
č	-10.8912
▁senton	-10.8913
▁trovita	-10.8913
▁kutima	-10.8913
gra	-10.892
▁islam	-10.8921
pen	-10.8922
▁kaptis	-10.8926
▁proof	-10.8927
▁op	-10.893
▁cutting	-10.8931
43	-10.8932
▁surprise	-10.8935
▁daŭros	-10.8937
▁aŭtomate	-10.8937
jan	-10.8939
▁historian	-10.894
▁occurs	-10.8942
▁illness	-10.8942
▁marks	-10.8945
▁palm	-10.8947
▁instruado	-10.8947
▁classical	-10.8949
lar	-10.895
▁alportas	-10.895
▁domoj	-10.895
▁angulo	-10.8955
54	-10.8955
69	-10.8957
▁georgi	-10.8958
▁47	-10.896
▁infana	-10.896
▁360	-10.8961
▁metas	-10.8961
▁moskvo	-10.8963
▁sector	-10.8969
▁push	-10.897
▁ships	-10.8974
▁authors	-10.8974
▁challenge	-10.8976
▁bottle	-10.898
▁82	-10.8985
▁performed	-10.8985
▁sol	-10.8987
▁oftaj	-10.8988
▁pp	-10.8988
html	-10.8989
▁increases	-10.8992
▁milita	-10.8993
▁instructions	-10.8994
▁cuban	-10.8994
▁collected	-10.8997
loko	-10.9
▁measure	-10.9
▁permesi	-10.9003
fin	-10.9004
▁reader	-10.9005
▁formula	-10.9007
▁specialan	-10.9009
▁medicina	-10.901
▁pal	-10.901
mov	-10.9012
ram	-10.9018
▁parolado	-10.9018
bla	-10.902
▁rilataj	-10.9021
▁universo	-10.9022
eth	-10.9022
▁transform	-10.9023
▁processing	-10.9023
▁(17	-10.9026
▁manager	-10.9028
▁fratino	-10.903
▁hero	-10.9031
▁owner	-10.9031
▁aims	-10.9031
▁totalan	-10.9035
▁servon	-10.9038
▁repair	-10.904
▁amikojn	-10.9041
▁determini	-10.9042
▁vidpunkto	-10.9044
▁similas	-10.905
▁mask	-10.905
▁faktoj	-10.9052
▁afrika	-10.9052
▁desired	-10.9052
▁brul	-10.9052
▁karl	-10.9056
▁represent	-10.9059
08	-10.906
▁package	-10.9061
▁rilaton	-10.9062
inte	-10.9065
▁holiday	-10.9067
▁esplori	-10.9067
▁telephone	-10.9068
▁cream	-10.9071
▁1940	-10.9074
▁churches	-10.9076
▁donated	-10.9076
▁paint	-10.9077
tt	-10.9077
ama	-10.9081
▁ak	-10.9082
▁watching	-10.9086
▁gen	-10.9088
▁ekipaĵo	-10.9088
▁fluo	-10.909
▁pasinta	-10.9091
field	-10.9092
▁switzerland	-10.9094
ey	-10.9094
▁vendi	-10.9094
▁fuel	-10.9096
rt	-10.9097
cc	-10.9098
das	-10.9099
illa	-10.91
▁sukcese	-10.9101
▁10.	-10.9111
▁ivan	-10.9116
▁ŝ	-10.9117
▁comfort	-10.9117
▁vendejo	-10.9118
read	-10.9119
▁distant	-10.9122
▁kuracistoj	-10.9123
▁earn	-10.9125
lastname	-10.9131
▁nokte	-10.9131
▁klarigis	-10.9132
▁holding	-10.9132
▁niveloj	-10.9134
▁enemy	-10.9136
▁ukrainian	-10.9137
▁2008,	-10.9143
ejon	-10.9144
4.	-10.9145
wi	-10.9147
fluo	-10.915
▁extreme	-10.9152
▁existed	-10.9152
▁refused	-10.9153
▁birthday	-10.9153
ima	-10.9157
▁organ	-10.9158
itajn	-10.9158
ming	-10.9159
▁senpage	-10.916
▁intelligent	-10.9161
ep	-10.9161
▁narrow	-10.9167
▁doctors	-10.9174
▁lernado	-10.9175
▁shopping	-10.9175
▁gun	-10.9175
▁raportis	-10.9177
ebl	-10.9177
▁branches	-10.9179
▁69	-10.918
▁enjoyed	-10.9181
▁havebla	-10.9185
▁madrid	-10.9185
▁junulo	-10.9185
san	-10.9186
▁fr	-10.9188
-20	-10.9188
▁zorgas	-10.9189
▁revo	-10.9197
dek	-10.9202
▁retejon	-10.9205
▁attitude	-10.9206
▁esence	-10.9206
▁installed	-10.9208
▁lakto	-10.921
▁regas	-10.921
▁manage	-10.9212
▁lecture	-10.9216
sko	-10.9222
win	-10.9227
▁islama	-10.9227
hav	-10.9228
▁postulis	-10.9228
▁sugestas	-10.9236
▁concrete	-10.9239
pt	-10.9241
▁mayor	-10.9242
▁51	-10.9244
▁difinita	-10.9246
ice	-10.9246
▁influenced	-10.9246
▁sufficient	-10.9247
▁artificial	-10.9247
▁ekzemploj	-10.9249
▁universities	-10.925
gio	-10.9251
▁thou	-10.9255
kas	-10.9255
▁fit	-10.926
▁1930	-10.9262
▁poly	-10.9262
▁target	-10.9264
▁kolo	-10.9265
▁caught	-10.9265
▁superior	-10.9266
▁generalo	-10.9266
▁anger	-10.9266
▁2023	-10.9267
57	-10.9271
▁reprezentantoj	-10.9272
▁acquired	-10.9272
▁destroy	-10.9274
▁mesaĝo	-10.9276
▁kantoj	-10.9278
▁1988	-10.928
▁ag	-10.9281
▁1994	-10.9283
bert	-10.9286
▁classic	-10.9286
▁formation	-10.9287
▁route	-10.9289
▁primarily	-10.9292
▁internacian	-10.9292
▁rod	-10.9293
real	-10.93
▁stated	-10.93
▁mur	-10.9303
▁directed	-10.9305
▁phones	-10.9309
▁restos	-10.931
▁fono	-10.9313
▁governments	-10.9315
▁officers	-10.9318
▁necessarily	-10.9318
▁86	-10.9318
▁1989	-10.9323
94	-10.9324
▁respondas	-10.9325
▁mala	-10.9325
▁longo	-10.9329
▁vel	-10.933
▁alcohol	-10.9333
▁mezo	-10.9336
▁secure	-10.9338
▁freely	-10.934
▁gradually	-10.9342
||4	-10.9342
▁plenkreskuloj	-10.9344
▁kur	-10.9345
▁establish	-10.9345
▁klimato	-10.9346
▁postulo	-10.9348
を	-10.9348
▁reĝimo	-10.9349
▁kra	-10.9355
▁heads	-10.9356
box	-10.936
gue	-10.9364
▁confirmed	-10.9364
▁consequences	-10.9367
▁germanaj	-10.9367
▁ree	-10.9367
▁accompanied	-10.9368
▁kruc	-10.9369
▁francis	-10.937
▁equals	-10.9379
▁sendepende	-10.938
▁feed	-10.9382
▁pc	-10.9384
▁kreado	-10.9388
▁montoj	-10.9392
king	-10.9393
▁grass	-10.9396
▁bordo	-10.9397
▁processes	-10.9398
▁orient	-10.9398
▁800	-10.9399
▁poems	-10.9399
▁rakontoj	-10.9401
▁bas	-10.9401
uma	-10.9404
▁78	-10.9404
▁steloj	-10.9406
▁pdf	-10.9408
▁trouble	-10.941
▁resolution	-10.941
▁troviĝis	-10.941
▁ligitaj	-10.9412
▁discussed	-10.9416
▁ĵurnalisto	-10.9416
▁propono	-10.9417
▁ponto	-10.9418
▁daŭrigis	-10.9419
▁religia	-10.9419
▁markets	-10.942
▁printing	-10.942
▁permesis	-10.9423
▁asembleo	-10.9423
▁reverse	-10.9426
▁oz	-10.9426
89	-10.9427
▁surely	-10.9428
plena	-10.9429
▁aŭstrio	-10.9429
▁mesaĝon	-10.9432
▁promise	-10.9432
▁positions	-10.9432
▁liberaj	-10.9434
▁£	-10.9435
▁retoj	-10.9435
▁baz	-10.9438
▁cxu	-10.9441
▁spirita	-10.9443
▁ear	-10.9443
▁7-	-10.9445
ý	-10.9445
yo	-10.9445
lio	-10.9445
▁lasas	-10.9446
ene	-10.9449
▁lingvojn	-10.945
▁supporting	-10.9452
▁delivery	-10.9454
▁tomb	-10.9455
▁elemento	-10.9456
▁frequent	-10.9456
▁studying	-10.9457
gro	-10.946
▁formas	-10.9464
▁ofta	-10.9464
log	-10.9465
▁irano	-10.9465
▁whatsapp	-10.9468
▁é	-10.9469
▁25%	-10.947
▁franco	-10.9471
itoj	-10.9471
▁computers	-10.9472
▁1998	-10.9472
▁quarter	-10.9473
▁warsaw	-10.9476
▁moviĝas	-10.9477
bal	-10.9478
▁1979	-10.9479
uro	-10.9479
▁malsupra	-10.948
▁67	-10.9481
▁imperial	-10.9482
▁pinto	-10.9482
▁critical	-10.9487
▁unable	-10.9489
▁inner	-10.949
gli	-10.9493
▁bomb	-10.9493
▁1987	-10.9494
▁pago	-10.9497
▁labour	-10.9503
▁electrical	-10.9505
▁belief	-10.9506
||2	-10.9507
▁ill	-10.9509
▁62	-10.9511
)||	-10.9513
97	-10.9514
▁contribute	-10.9514
▁license	-10.9515
▁oldest	-10.9517
▁metodoj	-10.9519
▁veron	-10.9519
▁risko	-10.9521
▁125	-10.9522
▁patr	-10.9523
▁kaŭzo	-10.9525
ens	-10.9527
▁57	-10.9527
51	-10.9527
▁aŭskulti	-10.9528
▁diros	-10.9528
▁mom	-10.9529
▁usb	-10.953
▁autumn	-10.9531
amo	-10.9531
▁rimedojn	-10.9532
▁kato	-10.9533
▁agadon	-10.9533
▁rajto	-10.954
▁unlike	-10.954
▁neniel	-10.954
▁permission	-10.9541
din	-10.9542
▁reference	-10.9543
▁ampleksa	-10.9546
▁pasintaj	-10.9548
▁chose	-10.9549
▁vapor	-10.9549
▁venko	-10.9551
▁izrael	-10.9552
▁elena	-10.9553
▁surrounding	-10.9556
▁11-	-10.9558
some	-10.9559
▁bezono	-10.9563
▁biografio	-10.9564
ky	-10.9568
▁manieron	-10.9568
nova	-10.9569
▁yo	-10.9571
nic	-10.9574
▁extremely	-10.9577
▁engineering	-10.9579
▁dates	-10.9583
▁liston	-10.9584
▁cloud	-10.9584
▁fluid	-10.9585
▁apero	-10.9587
▁medicino	-10.9588
▁gastoj	-10.9591
▁kulturoj	-10.9592
▁finds	-10.9592
▁combination	-10.9593
▁regula	-10.9594
▁pied	-10.9596
▁roof	-10.9602
▁zu	-10.9604
▁74	-10.9605
▁experiment	-10.9605
▁gro	-10.9608
▁artistic	-10.9609
▁1968	-10.961
▁meta	-10.9612
▁tridek	-10.9615
bor	-10.9617
ct	-10.9618
▁98	-10.9619
▁aliĝi	-10.962
▁ĉesis	-10.9622
▁import	-10.9623
▁tells	-10.9624
daj	-10.9625
▁cy	-10.9627
▁nederlanda	-10.9627
▁academic	-10.9631
off	-10.9634
▁char	-10.9639
▁serĉis	-10.9639
inoj	-10.9639
▁hungary	-10.9644
▁permanent	-10.9645
▁grado	-10.9645
▁frost	-10.9646
▁definition	-10.9647
▁architecture	-10.9647
▁turismo	-10.9647
▁celebrate	-10.9648
ste	-10.9649
▁neutral	-10.9649
▁necese	-10.965
▁decidi	-10.9652
zon	-10.9653
▁kantono	-10.9653
▁meksiko	-10.9654
▁kolekti	-10.9655
▁adreso	-10.9658
▁pick	-10.9661
▁cinema	-10.9664
▁net	-10.9665
▁governor	-10.967
▁venki	-10.9676
rin	-10.9678
▁attend	-10.9678
▁multiply	-10.9679
voj	-10.9679
▁vespero	-10.968
▁saluton	-10.968
centro	-10.968
▁termino	-10.9684
cher	-10.9688
▁austrian	-10.969
▁stations	-10.969
▁escape	-10.9691
lic	-10.9692
▁avantaĝojn	-10.9692
▁stratoj	-10.9697
▁fame	-10.9697
▁claim	-10.97
alt	-10.9701
▁roots	-10.9706
ali	-10.971
foj	-10.9712
82	-10.9713
▁awards	-10.9713
ical	-10.9715
▁noble	-10.9716
▁estate	-10.9717
▁kriis	-10.9719
▁interpretation	-10.9721
▁gri	-10.9723
▁fan	-10.9724
▁placo	-10.9725
53	-10.9726
-3	-10.9726
▁fashion	-10.9727
▁vitro	-10.9728
ney	-10.9729
lingva	-10.9732
52	-10.9733
▁motoro	-10.9736
▁nom	-10.9736
▁singing	-10.9737
vol	-10.9739
▁1993	-10.974
▁initiative	-10.974
▁akceptas	-10.9742
ros	-10.9744
▁cre	-10.9745
▁manufacturer	-10.9746
▁dialogue	-10.975
▁meznombro	-10.975
naj	-10.9751
▁studento	-10.9751
▁regxo	-10.9753
▁13-	-10.9754
▁interalie	-10.9755
▁luka	-10.9755
▁clothing	-10.9756
▁actual	-10.9758
▁brings	-10.9758
▁prezentita	-10.9762
▁kanalo	-10.9763
▁bor	-10.9764
▁mixed	-10.9765
▁executive	-10.9766
▁protected	-10.9767
▁speaker	-10.9768
▁1985	-10.9769
▁miliardoj	-10.977
▁prove	-10.9771
▁strategic	-10.9772
▁glit	-10.9775
ı	-10.9775
▁tradiciaj	-10.9775
▁depende	-10.9776
nie	-10.9783
▁efficiency	-10.9783
▁fabric	-10.9785
▁emas	-10.9788
▁ceteraj	-10.9789
▁(3	-10.9794
▁trupoj	-10.9795
▁skribita	-10.9795
▁speaks	-10.9796
▁deziris	-10.9802
▁ul	-10.9804
▁translations	-10.9807
▁kapabloj	-10.9807
ĝ	-10.9807
▁tel	-10.9808
▁flying	-10.9809
▁versions	-10.9809
▁gxin	-10.9812
▁improved	-10.9813
▁portugal	-10.9814
▁mutual	-10.9817
▁cried	-10.9818
▁sight	-10.9818
▁diversity	-10.9819
▁appropriate	-10.9821
▁powers	-10.9822
▁selling	-10.9823
5%	-10.9824
▁tears	-10.9825
jun	-10.983
▁statistics	-10.9831
▁blank	-10.9832
▁ŝatis	-10.9833
▁supro	-10.9834
▁kompreno	-10.9835
73	-10.9837
▁twelve	-10.9838
▁prepari	-10.9838
▁drugs	-10.984
▁helping	-10.984
▁fako	-10.984
▁euro	-10.9841
▁gained	-10.9841
▁aimed	-10.9841
▁limoj	-10.9842
▁arabic	-10.9847
▁kvaliton	-10.9847
▁papero	-10.9848
zer	-10.9853
▁phase	-10.9857
▁respondon	-10.9858
74	-10.9858
list	-10.9859
rie	-10.9859
cal	-10.9862
▁concern	-10.9862
▁mortigi	-10.9865
english	-10.9865
▁menu	-10.9865
▁multon	-10.9866
▁barbara	-10.9867
▁homes	-10.9874
▁geedziĝo	-10.9878
▁supports	-10.9879
▁pin	-10.9882
ré	-10.9883
▁answered	-10.9887
▁turning	-10.9887
▁venkis	-10.9887
rp	-10.9892
▁^	-10.9895
ł	-10.9895
▁treated	-10.9895
▁aliĝis	-10.9897
▁casino	-10.9903
▁dario	-10.9905
▁worse	-10.9906
▁enemies	-10.9906
93	-10.9907
ken	-10.9909
bas	-10.9909
▁logo	-10.991
▁indicates	-10.9914
▁fido	-10.9914
▁contemporary	-10.9914
▁kruco	-10.9915
▁factor	-10.9918
▁extended	-10.9919
ins	-10.9919
▁obtain	-10.9923
▁12.	-10.9925
▁thin	-10.9931
▁kalkuli	-10.9933
wing	-10.9934
▁ĉapitro	-10.9937
▁tip	-10.9938
▁esenca	-10.9938
▁●	-10.9939
▁establishment	-10.994
▁reliable	-10.9942
xbet	-10.9944
tero	-10.9945
▁studis	-10.9946
ile	-10.9946
[1]	-10.9948
2,	-10.9948
lingvo	-10.9949
ala	-10.9952
ji	-10.9952
▁fo	-10.9956
▁territories	-10.9959
▁reserve	-10.9964
▁blankaj	-10.9965
▁biciklo	-10.9965
▁grammar	-10.9967
▁accident	-10.9968
▁tips	-10.997
▁<	-10.997
▁literatura	-10.997
▁zo	-10.997
▁promised	-10.9971
▁87	-10.9973
▁gal	-10.9973
▁mail	-10.9977
cz	-10.9978
▁nato	-10.9979
▁laux	-10.9982
▁sablo	-10.9987
▁obama	-10.9987
▁turkish	-10.9989
▁plenumas	-10.9993
▁situacion	-10.9995
▁alveno	-11
bri	-11.0002
▁voj	-11.0004
▁monatojn	-11.0005
▁smell	-11.0006
▁dume	-11.0007
▁sumon	-11.0007
▁degrees	-11.0007
▁buŝo	-11.0008
board	-11.0009
▁irlando	-11.001
▁tall	-11.0017
▁sincere	-11.0018
▁fenomeno	-11.0022
▁panjo	-11.0024
▁aplikoj	-11.0027
nomo	-11.0028
▁hospitalo	-11.0029
▁zoo	-11.0029
tive	-11.0033
rian	-11.0034
▁raise	-11.0035
▁lift	-11.0036
▁planas	-11.0036
▁ŝtalo	-11.0036
▁58	-11.004
▁vehicles	-11.0041
▁apliki	-11.0041
▁rifuzis	-11.0043
▁drama	-11.0044
▁1939	-11.0045
▁teams	-11.0048
▁mad	-11.005
▁wouldn	-11.0053
▁frazo	-11.0055
1.	-11.0055
ip	-11.0056
▁viva	-11.0056
▁hurt	-11.0057
▁2012,	-11.0057
▁stalin	-11.0057
▁eraro	-11.0061
▁affect	-11.0061
pan	-11.0063
▁treat	-11.0063
▁magic	-11.0064
▁selection	-11.0068
▁1)	-11.0069
▁stones	-11.007
▁stream	-11.007
ification	-11.0073
▁describe	-11.0074
▁headquarters	-11.0074
▁borders	-11.0076
▁tourist	-11.0076
▁leadership	-11.0078
ĉjo	-11.0078
▁cry	-11.0079
▁monument	-11.0081
2)	-11.0082
87	-11.0082
▁pool	-11.0086
vers	-11.0086
▁aranĝo	-11.009
▁formi	-11.0092
▁2006,	-11.0093
▁malbonaj	-11.0095
▁smoke	-11.0099
▁vizaĝon	-11.0103
▁trankvila	-11.0103
▁92	-11.0103
▁2009,	-11.0104
▁vojaĝi	-11.0104
▁panel	-11.0107
▁vico	-11.0112
▁produkton	-11.0114
▁falls	-11.0116
▁feliĉe	-11.0116
▁fifth	-11.0116
▁hungara	-11.0116
▁truck	-11.0117
▁inspired	-11.0118
▁agricultural	-11.0118
lik	-11.0119
sia	-11.012
▁ethnic	-11.0124
▁estonta	-11.0125
▁swiss	-11.0126
▁origino	-11.013
▁frequently	-11.0135
▁recognition	-11.0139
▁regard	-11.0139
▁kilometroj	-11.0141
tika	-11.0142
▁konversacio	-11.0148
▁acquire	-11.0151
▁tomas	-11.0153
cor	-11.0154
▁neĝo	-11.0154
▁suggest	-11.0155
bus	-11.0158
▁dev	-11.0162
▁varmo	-11.0163
▁manĝaĵon	-11.0163
▁criminal	-11.0164
▁ph	-11.0164
▁burning	-11.0167
▁sek	-11.0169
▁searching	-11.0174
▁prezoj	-11.0175
▁dress	-11.0175
▁phenomenon	-11.0176
▁venu	-11.0177
▁ordonis	-11.0177
gaj	-11.018
▁alice	-11.018
▁packaging	-11.018
ŝo	-11.0182
▁runs	-11.0187
▁structures	-11.0188
▁abraham	-11.0188
▁liked	-11.0191
▁aŭd	-11.0193
▁aŭton	-11.0195
▁servas	-11.0196
▁kultur	-11.0196
▁monitor	-11.0196
▁hundoj	-11.0203
▁enterprise	-11.0205
▁israeli	-11.0208
ot	-11.0208
▁writers	-11.0209
▁kunteksto	-11.0214
▁konis	-11.0215
▁difficulties	-11.0216
▁faces	-11.0216
para	-11.0217
▁veran	-11.0218
▁tin	-11.0219
▁ikue	-11.022
vu	-11.0221
▁individuo	-11.0222
▁kim	-11.0223
▁sim	-11.0225
▁kredi	-11.0226
▁komencu	-11.0227
▁rajtojn	-11.0227
stan	-11.0227
▁ŝablono	-11.0229
▁aĵoj	-11.0232
▁shared	-11.0232
▁storm	-11.0235
▁2011,	-11.0235
▁pair	-11.0235
▁dokumentoj	-11.0237
▁ekonomiaj	-11.0238
▁4:	-11.0238
▁proper	-11.0239
▁math	-11.0239
▁konduki	-11.024
▁forests	-11.024
▁flago	-11.0241
▁asertis	-11.0241
▁cirkonstancoj	-11.0244
▁2007,	-11.0245
ulojn	-11.0246
▁malgrandajn	-11.0248
▁kostas	-11.0249
▁instrui	-11.025
▁lock	-11.0253
over	-11.0256
▁sees	-11.0257
▁wooden	-11.026
▁legado	-11.026
▁nordo	-11.0262
▁mortigis	-11.0262
igan	-11.0262
flu	-11.0262
▁finance	-11.0263
▁murder	-11.0264
▁valoroj	-11.0265
▁kancero	-11.0265
▁dividing	-11.0267
▁beatrice	-11.0268
▁1944	-11.0269
▁nomi	-11.027
▁conclusion	-11.0272
▁measures	-11.0272
▁pretas	-11.0273
▁dad	-11.0275
▁enreta	-11.0277
dar	-11.0279
▁berlino	-11.0281
▁alive	-11.0281
▁impression	-11.0286
▁cel	-11.0289
mail	-11.029
▁ultimately	-11.029
▁tickets	-11.0291
▁energion	-11.0291
ani	-11.0293
▁policies	-11.0293
▁progreso	-11.0295
▁handle	-11.0295
▁pekino	-11.0298
▁lessons	-11.0301
▁orange	-11.0304
▁receiving	-11.0305
▁aŭtoritatoj	-11.0307
▁sankt	-11.0309
▁priskribas	-11.031
▁prior	-11.0311
▁2010,	-11.0311
▁alarm	-11.0311
▁malaltaj	-11.0314
▁fondis	-11.0314
▁monastery	-11.0314
▁suferis	-11.0315
▁atako	-11.032
▁muzika	-11.032
▁starigi	-11.032
▁observe	-11.0321
▁multiplying	-11.0322
▁modeloj	-11.0331
▁bull	-11.0333
bur	-11.0333
▁vortaro	-11.0333
▁establita	-11.0334
▁ahead	-11.0337
mat	-11.0337
▁kovrita	-11.0346
back	-11.0347
▁ero	-11.0351
kre	-11.0352
▁suferas	-11.0352
▁banks	-11.0353
▁voices	-11.0359
ese	-11.036
▁haveno	-11.0363
▁ĉeloj	-11.0366
▁restu	-11.0368
▁zofia	-11.0369
▁30-	-11.0372
gel	-11.0374
bol	-11.0378
▁observed	-11.0379
▁funkciis	-11.038
▁distancon	-11.0381
▁rides	-11.0381
▁anne	-11.0383
▁glory	-11.0383
▁[3]	-11.0383
▁starigis	-11.0384
▁figuro	-11.0384
▁mars	-11.0385
▁iraq	-11.0386
!)	-11.0387
igaj	-11.0389
hl	-11.0389
▁uzitaj	-11.039
▁svislando	-11.0391
▁calendar	-11.0394
lojn	-11.0395
▁eco	-11.0404
▁1991	-11.0405
▁sidejo	-11.041
63	-11.0411
▁technologies	-11.0411
▁novjorko	-11.0411
▁mari	-11.0413
▁apliko	-11.0415
▁alliance	-11.0415
ono	-11.0415
▁nest	-11.0419
▁broke	-11.0423
▁1948	-11.0423
▁1986	-11.0426
▁sweden	-11.0428
ified	-11.0428
▁personaj	-11.043
▁federacio	-11.0431
▁silvia	-11.0437
▁alklaku	-11.0437
▁candidate	-11.0438
▁session	-11.0438
5.	-11.044
▁registaroj	-11.044
▁91	-11.044
▁prof	-11.0446
▁fortaj	-11.0446
▁challenges	-11.0447
▁konsentas	-11.0448
▁hearing	-11.045
▁horses	-11.0451
▁supozas	-11.0452
▁1945	-11.0453
▁unuafoje	-11.0459
▁darkness	-11.046
▁jacob	-11.0462
▁enketo	-11.0465
▁spa	-11.0466
▁chest	-11.0467
▁drop	-11.0467
▁capture	-11.0467
▁kom	-11.0471
▁donaco	-11.0471
...”	-11.0474
▁candidates	-11.0474
▁instruis	-11.0474
usa	-11.0476
▁bur	-11.0477
▁represented	-11.0479
▁glu	-11.0482
▁furniture	-11.0483
ai	-11.0484
▁affected	-11.0487
▁perforto	-11.0488
▁locations	-11.049
cl	-11.0491
▁bbc	-11.0496
▁arranged	-11.0498
▁$2	-11.0498
▁worker	-11.0501
kie	-11.0502
▁kuŝas	-11.0502
▁varoj	-11.0505
▁proud	-11.0507
▁kien	-11.0507
▁spacon	-11.0509
▁victims	-11.0514
▁clock	-11.0515
▁lawyer	-11.0521
▁lectures	-11.0521
▁depend	-11.0521
▁havu	-11.0522
▁drawing	-11.0522
▁answers	-11.0523
▁ideala	-11.0526
▁dar	-11.0526
od	-11.0532
▁annually	-11.0534
ire	-11.0535
▁lok	-11.0538
▁kolor	-11.054
▁2005,	-11.0541
▁familiar	-11.0543
▁dezerto	-11.0544
pens	-11.0545
▁militon	-11.0546
▁1975	-11.0546
▁situations	-11.0547
pl	-11.0547
▁hole	-11.0552
▁rando	-11.0552
▁kristina	-11.0552
▁seka	-11.0553
▁1992	-11.0553
▁1967	-11.0554
▁warning	-11.0555
ou	-11.0557
ĵon	-11.0559
▁virgin	-11.0561
▁moves	-11.0561
▁junulara	-11.0563
▁traduk	-11.0564
lle	-11.0572
▁discovery	-11.0573
▁proksimaj	-11.0573
▁lev	-11.0574
▁captured	-11.0577
▁rapidly	-11.0579
▁dungitoj	-11.0581
▁gb	-11.0582
mos	-11.0583
▁destruction	-11.0587
▁villa	-11.0587
▁bitcoin	-11.0591
▁heredaĵo	-11.0594
▁opinions	-11.0595
▁greece	-11.0595
▁rarely	-11.0597
dic	-11.0597
▁trend	-11.0598
▁template	-11.0599
▁agriculture	-11.06
▁dormo	-11.0601
libro	-11.0604
▁basbalisto	-11.0604
tempe	-11.0605
▁strengthen	-11.0606
▁essentially	-11.0606
▁listening	-11.061
rino	-11.0611
umi	-11.0611
meti	-11.0612
▁sar	-11.0614
▁venontaj	-11.0617
▁situanta	-11.0617
▁partopreno	-11.0617
▁tap	-11.0619
▁entry	-11.0619
▁celojn	-11.0619
▁sektoro	-11.0619
▁assistance	-11.0621
ž	-11.0623
▁ŝanĝiĝis	-11.0626
▁uncle	-11.063
ismaj	-11.0632
▁peaceful	-11.0632
▁grant	-11.0633
▁funkciojn	-11.0635
▁appointed	-11.0636
▁fakuloj	-11.0636
▁jim	-11.0637
▁expert	-11.0639
▁hell	-11.064
▁rebeka	-11.0643
▁virus	-11.0646
▁covers	-11.0649
city	-11.065
′′	-11.0652
▁sending	-11.0653
▁debate	-11.0653
▁elektitaj	-11.0654
sky	-11.0654
▁unesko	-11.0656
▁grandurbo	-11.0658
▁kodo	-11.0659
▁encourage	-11.0659
▁spertis	-11.066
▁firstname	-11.0663
▁kadre	-11.0663
ux	-11.0664
▁bro	-11.0665
▁aŭtoj	-11.0666
▁karaktero	-11.0666
▁2)	-11.0667
▁malfrua	-11.0667
▁cro	-11.0669
▁institution	-11.0671
▁notoj	-11.0673
▁dna	-11.0676
ind	-11.0678
▁frame	-11.0679
▁peza	-11.0679
▁advance	-11.068
forma	-11.0682
▁renata	-11.0685
tter	-11.0685
▁concentration	-11.0691
▁efikoj	-11.0692
▁riĉaj	-11.0692
tago	-11.0694
▁revolutionary	-11.0694
▁bishop	-11.0696
▁teeth	-11.0696
turn	-11.0698
▁kapablojn	-11.0699
▁konsentis	-11.0701
▁demandon	-11.0701
▁multan	-11.0702
tia	-11.0702
▁ends	-11.0705
▁konkurso	-11.0705
▁references	-11.0709
▁publish	-11.071
ites	-11.071
▁parallel	-11.0713
▁explains	-11.0718
▁limits	-11.072
▁difino	-11.0721
▁mirror	-11.0723
▁advokato	-11.0723
▁zorgi	-11.0724
▁neighboring	-11.0727
▁hd	-11.0728
▁poverty	-11.073
ĝoj	-11.0731
▁marked	-11.0732
▁filon	-11.0734
dr	-11.0739
▁beer	-11.074
▁totalo	-11.0742
▁cam	-11.0744
▁harry	-11.0745
▁79	-11.0749
▁aplikaĵo	-11.075
▁vivanta	-11.0751
ua	-11.0755
ward	-11.0757
▁fariĝos	-11.0758
▁calm	-11.0758
▁esperant	-11.076
▁instruments	-11.076
▁bildojn	-11.076
▁disc	-11.0762
▁alporti	-11.0762
▁regret	-11.0765
fon	-11.0765
▁komputiloj	-11.0772
▁johnson	-11.0772
izo	-11.0773
▁turo	-11.0775
olo	-11.0777
kel	-11.0781
▁tekstoj	-11.0781
kiam	-11.0782
▁stronger	-11.0783
▁tru	-11.0786
▁controlled	-11.0788
▁reign	-11.079
▁rimedo	-11.0794
▁harm	-11.0794
▁militoj	-11.0796
▁bul	-11.0797
||5	-11.0798
bat	-11.0798
water	-11.0798
▁kalifornio	-11.0801
▁cable	-11.0801
tado	-11.0804
ld	-11.0804
▁fraction	-11.0805
▁likes	-11.0807
▁0.5	-11.0809
vas	-11.0809
▁oceano	-11.0811
▁linioj	-11.0812
ela	-11.0821
$	-11.0822
▁revealed	-11.0823
▁updated	-11.0825
▁1918	-11.0826
▁purposes	-11.0827
▁electricity	-11.0829
▁sekso	-11.0834
kh	-11.0835
▁components	-11.0835
side	-11.0838
▁testo	-11.0839
▁61	-11.084
▁sekundoj	-11.084
▁wire	-11.0845
▁andrew	-11.0846
lis	-11.0846
▁principoj	-11.0849
▁katarina	-11.0849
▁paintings	-11.085
▁diskuto	-11.0853
ably	-11.0862
▁filoj	-11.0862
tr	-11.0864
▁prezento	-11.0865
▁cd	-11.0867
cer	-11.0868
▁muscle	-11.0868
▁majstro	-11.0874
▁intellectual	-11.0878
▁zorge	-11.0878
▁vienna	-11.088
▁lights	-11.0886
▁argentino	-11.0886
▁bonus	-11.0886
▁turnis	-11.0888
▁mix	-11.0888
▁visual	-11.0889
ario	-11.0893
▁imagi	-11.0894
92	-11.0897
▁entrance	-11.0898
▁pump	-11.0903
▁passing	-11.0904
:30	-11.0905
300	-11.0908
ige	-11.091
▁threw	-11.0912
▁arch	-11.0913
▁dorso	-11.0913
▁hejm	-11.0914
linio	-11.0915
gb	-11.0916
▁folioj	-11.0917
▁pozicion	-11.0919
▁sidas	-11.0919
▁row	-11.0919
laj	-11.0921
▁9-	-11.0921
▁preferred	-11.0921
▁vasilis	-11.0922
▁perspective	-11.0923
▁sveda	-11.0923
▁strict	-11.0923
▁arrive	-11.0923
▁ĝustan	-11.0924
▁normo	-11.0924
▁col	-11.0925
▁mold	-11.0926
▁aspekton	-11.0927
▁spekti	-11.0927
▁rice	-11.0928
work	-11.0929
▁105	-11.0932
▁beta	-11.0932
▁remote	-11.0934
▁pensoj	-11.0934
▁remarkable	-11.0934
▁1984	-11.0935
▁deklaro	-11.0938
mir	-11.0939
▁popol	-11.0941
▁sorto	-11.0942
▁1976	-11.0944
▁lim	-11.0947
▁jordan	-11.095
▁customs	-11.0951
▁eraroj	-11.0951
▁asks	-11.0952
▁lastan	-11.0953
▁translate	-11.0953
▁mola	-11.0956
▁[...]	-11.0956
▁farante	-11.0957
page	-11.0959
▁historiaj	-11.0959
▁nuntempa	-11.0959
▁teknika	-11.096
▁atento	-11.0961
▁carl	-11.0962
▁overcome	-11.0967
▁batali	-11.0968
▁okazaĵo	-11.097
▁videbla	-11.0971
▁punktoj	-11.0973
▁extraordinary	-11.0974
▁intervjuo	-11.0975
▁ham	-11.0976
▁uni	-11.0979
ago	-11.098
▁malkovri	-11.0981
▁solidarity	-11.0983
▁judgment	-11.0984
▁malliberejo	-11.0988
▁traktas	-11.0988
▁gathered	-11.0988
▁settlement	-11.0991
etojn	-11.0994
▁praise	-11.0994
▁neniuj	-11.0996
▁kongresa	-11.0996
▁sporto	-11.0996
▁klin	-11.1
▁verki	-11.1002
▁shipping	-11.1002
rest	-11.1008
▁amazing	-11.101
▁kapitano	-11.1012
▁associations	-11.1012
▁operate	-11.1015
▁believes	-11.1016
lie	-11.1019
ians	-11.1019
▁bezonos	-11.102
km	-11.102
▁arb	-11.1022
▁havus	-11.1023
ray	-11.1023
▁ceremony	-11.1024
は	-11.1024
rich	-11.1029
▁1973	-11.1029
▁christianity	-11.1031
▁joe	-11.1033
nik	-11.1033
▁ijk	-11.1037
▁miloŝ	-11.1046
").	-11.1047
▁seksa	-11.1048
▁waves	-11.1049
▁anastasia	-11.1051
parto	-11.1051
▁aĉetas	-11.1053
put	-11.1055
▁disk	-11.1056
ong	-11.1058
▁homon	-11.1059
▁fri	-11.106
▁ĉeestis	-11.1061
▁unless	-11.1062
stra	-11.1065
▁boxes	-11.1065
aron	-11.1066
law	-11.1066
▁roma	-11.1067
▁egale	-11.1067
▁olympic	-11.1068
▁antikvaj	-11.1068
▁duke	-11.107
▁konservas	-11.1071
▁philip	-11.1074
▁eblon	-11.1075
▁restoracio	-11.1075
▁kandidatoj	-11.1079
▁christians	-11.1079
ecaj	-11.108
▁regulations	-11.1081
▁invest	-11.1083
▁opiniis	-11.1086
▁hazarde	-11.1087
6.	-11.1089
▁dagmara	-11.1092
▁poezio	-11.1094
▁divido	-11.1097
▁modest	-11.1101
▁accounts	-11.1101
▁plato	-11.1103
▁wheel	-11.1107
▁uzon	-11.1109
▁talent	-11.1111
pin	-11.1111
▁retro	-11.1112
▁nobody	-11.1114
▁danĝera	-11.1116
▁plane	-11.1117
▁koncerna	-11.1118
▁leteron	-11.1118
▁grupon	-11.1119
▁detalo	-11.1124
▁contrary	-11.1124
▁salary	-11.1125
▁eliri	-11.1127
▁largely	-11.1128
zar	-11.1129
▁procento	-11.113
▁1982	-11.1131
▁partners	-11.1132
▁aleksio	-11.1133
▁specife	-11.1133
▁delivered	-11.1133
▁jare	-11.1137
▁40%	-11.1138
▁volus	-11.1138
▁senate	-11.1138
▁vokis	-11.114
▁gvidis	-11.1142
▁2013,	-11.1143
ert	-11.1143
hel	-11.1144
anti	-11.1145
▁pat	-11.1147
▁ekvacion	-11.1147
▁arta	-11.1148
▁eniras	-11.1148
▁emotional	-11.1148
▁ŝa	-11.1151
▁francaj	-11.1151
bru	-11.1154
▁hebrew	-11.1159
▁80%	-11.1162
▁wolf	-11.1166
▁ghi	-11.1166
▁1978	-11.1166
▁asking	-11.1167
▁fought	-11.1169
▁nigraj	-11.1173
▁biggest	-11.1174
▁pink	-11.1175
ĉa	-11.1175
▁usonanoj	-11.118
▁53	-11.1182
▁contribution	-11.1182
▁ĝuas	-11.1183
▁threat	-11.1184
▁73	-11.1185
▁rok	-11.1187
▁gods	-11.1187
▁okcidentaj	-11.1187
▁ordinara	-11.1188
▁1974	-11.1191
▁doktoro	-11.1191
▁dieto	-11.1192
ations	-11.1193
▁aldono	-11.1196
domo	-11.1196
▁enable	-11.1199
▁lerneja	-11.1201
antaŭ	-11.1201
▁accessible	-11.1202
▁sword	-11.1202
▁putin	-11.1204
ord	-11.1205
▁1969	-11.1205
▁pocket	-11.1207
mel	-11.1207
▁browser	-11.1207
▁centers	-11.121
▁currency	-11.1216
▁grace	-11.1219
▁peak	-11.1219
▁vegetables	-11.1219
▁luis	-11.1219
▁pull	-11.1221
mond	-11.1223
▁menciita	-11.1224
▁dediĉita	-11.1226
▁transporto	-11.1227
▁jara	-11.1228
▁precise	-11.1229
▁agordi	-11.1235
▁intencas	-11.1235
▁meant	-11.1238
▁privacy	-11.124
▁hel	-11.1242
▁realigi	-11.1242
▁categories	-11.1243
▁cleaning	-11.1243
▁grown	-11.1244
▁lifestyle	-11.1245
▁mike	-11.1245
▁partly	-11.1246
▁ultra	-11.1246
▁atom	-11.1247
▁fox	-11.1247
most	-11.1248
▁operacio	-11.1249
▁rank	-11.125
▁agi	-11.1251
▁dika	-11.1252
▁fla	-11.1253
▁convention	-11.1253
▁ruĝ	-11.1254
▁kings	-11.1255
yan	-11.1255
▁renkontas	-11.1257
▁unity	-11.1258
▁laugh	-11.126
▁verkita	-11.1261
▁pordon	-11.1262
air	-11.1264
reto	-11.1265
▁mel	-11.1267
▁roll	-11.1268
▁mod	-11.127
mil	-11.127
rus	-11.1279
▁esprimis	-11.1281
▁fee	-11.1282
just	-11.1282
inda	-11.1282
▁eblaj	-11.1284
▁flava	-11.1288
▁danĝero	-11.1289
||0	-11.129
▁kadro	-11.129
▁printed	-11.1291
83	-11.1292
top	-11.1293
▁finland	-11.1293
▁kristanoj	-11.1294
▁posedanto	-11.1294
-6	-11.1295
▁kapabla	-11.1295
▁occupation	-11.13
▁guest	-11.13
▁1965	-11.1301
▁plibonigo	-11.1302
▁radical	-11.1303
н	-11.1304
▁supreme	-11.1305
▁hello	-11.131
▁ĉambron	-11.131
goj	-11.1311
igebla	-11.1311
dor	-11.1316
▁dynasty	-11.1317
▁summary	-11.1317
▁corporation	-11.1319
vic	-11.132
▁demands	-11.132
▁repeat	-11.1321
▁propaganda	-11.1321
▁delicate	-11.1322
е	-11.1322
▁feels	-11.1323
▁verdaj	-11.1324
▁gallery	-11.1326
ĝa	-11.1326
▁insult	-11.1327
sign	-11.1328
▁commander	-11.1329
▁fotojn	-11.1329
▁layer	-11.1332
tiu	-11.1334
3%	-11.1338
logo	-11.1339
▁tab	-11.1341
▁amalia	-11.1342
▁citizen	-11.1342
▁skribo	-11.1343
▁nose	-11.1348
▁typically	-11.1351
91	-11.1355
▁pla	-11.1357
▁tourists	-11.1358
▁tube	-11.1359
▁hal	-11.1362
▁kas	-11.1364
▁simplaj	-11.1364
▁fokuso	-11.1364
▁disponebla	-11.1368
gg	-11.1368
▁mir	-11.1369
▁interesaj	-11.1371
▁muroj	-11.1373
vojo	-11.1373
▁kat	-11.1374
▁liver	-11.1375
▁brazila	-11.1378
▁malantaŭa	-11.1381
▁attacked	-11.1382
▁valve	-11.1383
▁careful	-11.1383
▁amikeco	-11.1384
▁kulturaj	-11.1385
▁vladimir	-11.1387
▁prominent	-11.1387
▁lion	-11.1387
▁correctly	-11.1388
▁refer	-11.1389
▁pad	-11.1392
▁30%	-11.1395
▁ĵurnalo	-11.1397
▁vino	-11.1397
▁skatolo	-11.14
▁solving	-11.14
▁cxiu	-11.1403
▁1917	-11.1407
▁relation	-11.1409
▁giant	-11.1409
book	-11.141
▁organizi	-11.141
▁blogo	-11.1412
▁views	-11.1413
▁komunan	-11.1413
ĵ	-11.1413
▁21-	-11.1413
▁relates	-11.1414
▁persons	-11.1414
▁dion	-11.1415
▁procezon	-11.1415
▁shadow	-11.1415
▁mok	-11.1416
tek	-11.1419
▁pole	-11.1419
▁ĉas	-11.1422
▁bazaj	-11.1422
▁kondiĉo	-11.1423
▁trial	-11.1426
▁instruction	-11.1433
▁produktaj	-11.1434
arm	-11.1436
▁regi	-11.1438
▁tongue	-11.1438
▁protein	-11.1439
▁colleagues	-11.1441
が	-11.1443
▁kontraux	-11.1445
mol	-11.1445
listo	-11.1446
▁possibilities	-11.1448
▁datado	-11.1449
ise	-11.145
ŝa	-11.1451
▁indiĝenaj	-11.1451
▁busy	-11.1451
▁lamp	-11.1452
▁fre	-11.1452
▁trinki	-11.1453
▁fiŝoj	-11.1453
jaraĝa	-11.1453
▁arose	-11.1453
▁monthly	-11.1455
▁salajro	-11.1456
dum	-11.1456
▁intereson	-11.146
▁prezon	-11.1462
▁cabinet	-11.1464
▁metita	-11.1464
▁soldier	-11.1465
▁feliĉo	-11.1466
▁1941	-11.1471
▁boston	-11.1472
▁levis	-11.1473
▁oro	-11.1474
mont	-11.1474
▁dufoje	-11.1474
▁mexican	-11.1476
▁aliri	-11.1476
▁stick	-11.1477
▁legantoj	-11.1478
▁aspektoj	-11.1479
nom	-11.148
▁atingos	-11.148
om	-11.1481
▁id	-11.1483
▁71	-11.1485
▁armenian	-11.1488
▁assistant	-11.1488
▁manuel	-11.1495
▁dolĉa	-11.1497
▁tipoj	-11.1498
ivo	-11.1498
▁pur	-11.1498
ses	-11.1502
bach	-11.1504
▁techniques	-11.1505
▁significantly	-11.1505
▁broad	-11.1507
▁malpeza	-11.1509
▁forumo	-11.1509
▁enspezo	-11.1512
▁estimated	-11.1512
▁1972	-11.152
stein	-11.1526
iris	-11.1526
▁religiaj	-11.1528
▁ste	-11.1528
▁nokton	-11.1529
▁strategio	-11.1529
iri	-11.153
▁ŝanĝojn	-11.1533
▁preserved	-11.1534
▁sufficiently	-11.1534
▁damaged	-11.1536
nojn	-11.1538
▁jones	-11.1541
▁posting	-11.1542
▁ludon	-11.1542
rá	-11.1544
▁businesses	-11.1544
▁roko	-11.1544
▁cooking	-11.1545
▁antaŭenigi	-11.1545
▁residence	-11.1547
▁sanaj	-11.1547
▁canal	-11.1549
▁ripet	-11.1552
ella	-11.1552
▁aktuala	-11.1553
▁esprim	-11.1555
▁katedralo	-11.1557
▁kerno	-11.1557
▁closely	-11.1559
▁kelk	-11.1559
▁recovery	-11.156
▁profito	-11.1564
▁confidence	-11.1566
▁1983	-11.1566
▁unusual	-11.1566
▁wing	-11.1567
▁manĝis	-11.1568
sio	-11.1569
▁egal	-11.1571
▁vojaĝoj	-11.1572
▁1964	-11.1579
▁turns	-11.1579
▁interesoj	-11.1579
▁referencoj	-11.1579
▁traktato	-11.1579
▁kosmo	-11.1581
▁serĉo	-11.1582
mbo	-11.1582
▁malfermo	-11.1583
right	-11.1586
▁eterna	-11.1586
ulon	-11.1586
▁oportuna	-11.1588
▁paŭlo	-11.1588
▁surrounded	-11.1588
▁malhelpas	-11.1597
▁vivoj	-11.1599
▁certas	-11.1604
▁pik	-11.1607
▁2014,	-11.1609
german	-11.1611
▁dan	-11.1612
▁passion	-11.1614
▁paĉjo	-11.1614
▁okaz	-11.1615
▁watched	-11.1618
▁painter	-11.1618
▁suggests	-11.1621
▁contained	-11.1621
▁83	-11.1621
▁fishing	-11.1622
▁throw	-11.1623
speaking	-11.1629
▁paulo	-11.163
»,	-11.1631
▁regulo	-11.1632
▁konsiderita	-11.1633
▁trafis	-11.1633
▁pel	-11.1637
▁graveco	-11.1638
▁tiamaniere	-11.1639
▁armiloj	-11.1639
▁movies	-11.164
▁pandemic	-11.1643
▁fiks	-11.1643
▁ears	-11.1646
▁alex	-11.1647
▁voĉoj	-11.1651
aroj	-11.1655
▁ep	-11.1658
▁comprehensive	-11.1662
▁aviadilo	-11.1663
▁newly	-11.1664
▁ec	-11.1668
▁duobla	-11.1669
▁serioza	-11.1674
▁metrojn	-11.1674
▁uz	-11.1676
▁kuris	-11.1677
iĝante	-11.1679
▁turisma	-11.168
▁invasion	-11.1681
▁samuel	-11.1681
▁seĝo	-11.1685
▁uniform	-11.1686
▁garage	-11.1687
▁partnero	-11.1687
▁characteristic	-11.1687
ich	-11.1687
▁forex	-11.1688
▁turkio	-11.1689
▁gre	-11.1689
adoj	-11.1691
jen	-11.1692
à	-11.1693
▁cho	-11.1694
▁ribelo	-11.1695
▁ĝiajn	-11.1696
▁serĉ	-11.1698
▁administri	-11.1701
eks	-11.1703
▁breakfast	-11.1706
▁mallumo	-11.1706
▁pozitiva	-11.1707
▁1977	-11.1708
▁firmaoj	-11.1709
▁tekniko	-11.1709
▁qui	-11.1709
▁blu	-11.1711
into	-11.1711
▁interior	-11.1711
▁sx	-11.1713
▁shore	-11.1713
▁hindio	-11.1714
rc	-11.1717
▁starts	-11.1719
▁intend	-11.1721
▁vietnam	-11.1722
arto	-11.1725
▁reputation	-11.173
▁aluminum	-11.1731
▁grade	-11.1733
â	-11.1733
ega	-11.1733
▁somera	-11.1736
▁identify	-11.1736
laboro	-11.1736
▁consent	-11.174
▁fabrikado	-11.174
▁sendependeco	-11.1741
ges	-11.1742
▁sheep	-11.1743
▁gospel	-11.1744
▁folk	-11.1745
liber	-11.1745
▁burn	-11.1746
▁1947	-11.1749
▁absorb	-11.175
▁abu	-11.1754
▁mixture	-11.1754
lud	-11.1754
▁pod	-11.1758
▁suggested	-11.1758
▁produktis	-11.1758
▁konekti	-11.1759
▁gradoj	-11.176
-5	-11.176
▁honest	-11.1761
iganta	-11.1762
head	-11.1763
▁zealand	-11.1764
▁1981	-11.1767
▁attract	-11.1767
▁signoj	-11.1767
date	-11.1768
▁movi	-11.1769
▁persone	-11.177
▁setting	-11.1773
▁switch	-11.1774
▁jackson	-11.1775
▁criticism	-11.1775
sek	-11.1776
▁strive	-11.1778
▁celebrated	-11.1778
▁klasoj	-11.1779
gy	-11.1782
▁hol	-11.1782
▁pierre	-11.1784
▁gusto	-11.1785
▁intense	-11.1788
ĝe	-11.1789
▁talked	-11.1791
lov	-11.1791
▁convinced	-11.1793
▁vent	-11.1795
tempa	-11.1796
▁1.5	-11.1796
▁mezan	-11.1798
▁shortly	-11.1799
▁mild	-11.18
▁1956	-11.1801
▁repeated	-11.1801
▁resulting	-11.1803
▁exam	-11.1803
▁wireless	-11.1804
▁praktika	-11.1805
▁nomataj	-11.1806
▁indicated	-11.1809
▁shanghai	-11.1809
set	-11.181
▁tuesday	-11.1812
▁trafiko	-11.1813
▁verkistoj	-11.1813
с	-11.1813
▁pend	-11.1814
▁ly	-11.1817
▁attractive	-11.1818
▁etikedoj	-11.1818
▁areon	-11.182
▁mario	-11.1821
▁decidas	-11.1822
oc	-11.1823
▁spirits	-11.1824
▁bono	-11.1826
▁arrested	-11.1828
▁marie	-11.183
ls	-11.183
▁montaro	-11.1832
▁indekso	-11.1834
▁jane	-11.1834
▁centoj	-11.1835
▁bin	-11.1835
kol	-11.1838
▁grup	-11.1839
▁klientojn	-11.1839
ii	-11.184
▁korto	-11.184
▁proceso	-11.184
▁paŝoj	-11.184
▁ombro	-11.1841
▁eva	-11.1842
▁1966	-11.1842
▁desegnita	-11.1844
▁desires	-11.1844
▁ŝton	-11.1845
iru	-11.1845
eb	-11.1847
▁sku	-11.1848
▁column	-11.1849
ette	-11.1849
▁klopodoj	-11.1849
▁bahá	-11.1852
▁rural	-11.1852
▁forgesis	-11.1852
▁frukto	-11.1853
▁25-	-11.1855
▁93	-11.1856
"),	-11.186
▁disko	-11.1861
▁fermita	-11.1863
▁lumon	-11.1869
▁fojoj	-11.1875
▁sinteno	-11.1879
9.	-11.188
▁1933	-11.1884
▁usage	-11.1887
pot	-11.1889
▁villages	-11.1891
▁regiona	-11.1898
ium	-11.1899
▁kontrol	-11.1901
▁ros	-11.1901
▁bele	-11.1901
▁kvina	-11.1904
antajn	-11.1905
▁perfekte	-11.1906
▁certigas	-11.1907
}{	-11.1909
▁oxygen	-11.191
▁organic	-11.1911
▁britaj	-11.1912
▁hearts	-11.1914
tag	-11.1914
▁viktimoj	-11.1915
▁practices	-11.1917
▁libere	-11.1917
▁gxis	-11.1919
▁yuan	-11.1919
ù	-11.192
▁regardless	-11.1926
▁collective	-11.1926
▁bath	-11.1927
eau	-11.1932
landa	-11.1933
▁rivers	-11.1938
▁aŭtomata	-11.194
▁haltis	-11.1941
▁trovitaj	-11.1941
▁spam	-11.1942
kor	-11.1944
american	-11.1944
▁obtained	-11.1944
▁premion	-11.1947
▁proven	-11.1948
▁registrita	-11.1949
▁wednesday	-11.195
▁sustainable	-11.1952
▁dokumento	-11.1952
▁sciencoj	-11.1952
▁orthodox	-11.1952
▁firme	-11.1953
▁sciu	-11.1953
▁egg	-11.1955
▁personality	-11.1955
▁elegant	-11.1955
▁sacred	-11.196
▁normale	-11.196
▁loĝejo	-11.1961
▁partoprenas	-11.1962
▁1946	-11.1964
▁kreski	-11.1965
▁contacts	-11.1966
▁rilata	-11.1966
sti	-11.1967
▁wash	-11.1968
▁affair	-11.1968
aĝ	-11.1969
▁detalojn	-11.1969
▁kred	-11.197
utc	-11.1973
why	-11.1978
▁nazi	-11.1978
tte	-11.1979
▁leono	-11.198
▁entertainment	-11.198
▁rondo	-11.1984
▁fundo	-11.1984
▁cur	-11.1984
▁hungario	-11.1985
▁pushed	-11.199
▁lanĉis	-11.199
▁commerce	-11.199
▁ĉeĥa	-11.1993
human	-11.1993
▁planko	-11.1996
▁(1)	-11.1998
▁happening	-11.1998
▁norma	-11.1998
▁arbaroj	-11.2
▁visiting	-11.2001
^2	-11.2005
▁item	-11.2007
▁sendita	-11.2008
▁procedure	-11.2008
▁societies	-11.201
▁conduct	-11.201
▁gabriel	-11.2015
▁votes	-11.2015
▁nervous	-11.2016
▁rigardo	-11.2022
▁specifaj	-11.2023
ade	-11.2024
▁plejparto	-11.2027
▁haroj	-11.2027
▁falling	-11.2029
▁somewhere	-11.203
▁republican	-11.2031
▁rust	-11.2033
▁svedio	-11.2035
▁1949	-11.2037
▁seeds	-11.2037
-12	-11.2039
▁senior	-11.204
lev	-11.2042
zia	-11.2043
mina	-11.2043
▁vido	-11.2044
▁prague	-11.2045
▁commune	-11.2047
▁implement	-11.2048
▁chocolate	-11.2049
▁rot	-11.2049
▁thursday	-11.205
▁facing	-11.2051
▁breath	-11.2053
▁avantaĝo	-11.2055
▁fronto	-11.2055
で	-11.2059
ele	-11.206
▁dividante	-11.2061
▁5%	-11.2061
▁universitatoj	-11.2063
▁listed	-11.2066
bone	-11.2067
▁corn	-11.2068
▁wedding	-11.207
▁behold	-11.207
▁malforta	-11.2071
▁malproksima	-11.2071
▁lerta	-11.2071
▁preĝo	-11.2072
▁instruas	-11.2074
els	-11.2075
▁kontinento	-11.2075
▁malsupre	-11.2078
▁tent	-11.208
▁fazo	-11.2081
▁kandidato	-11.2082
▁pipe	-11.2083
▁mg	-11.2086
▁bowl	-11.2087
▁eldonita	-11.209
▁ray	-11.2093
▁1936	-11.2095
enco	-11.2095
grade	-11.2096
caj	-11.2098
point	-11.2099
▁medieval	-11.21
▁remembered	-11.2102
iva	-11.2102
▁vojaĝ	-11.2102
▁printempo	-11.2103
▁prem	-11.2103
▁agentejo	-11.2104
yl	-11.2113
▁interrete	-11.2113
▁respekto	-11.2115
▁vend	-11.2116
▁turistoj	-11.2116
get	-11.2117
▁possess	-11.2118
life	-11.2118
mono	-11.2118
low	-11.2119
▁sleeping	-11.212
▁wilson	-11.2121
▁barcelona	-11.2121
▁(“	-11.2122
kial	-11.2126
py	-11.2128
▁frap	-11.2129
▁irako	-11.213
▁baterio	-11.2132
▁sk	-11.2133
▁efikeco	-11.2136
▁75%	-11.2137
sive	-11.2138
▁burned	-11.2138
▁dressed	-11.2139
▁beloved	-11.214
▁um	-11.214
▁sude	-11.2142
▁amis	-11.2142
▁gaze	-11.2146
▁veturiloj	-11.2147
▁postulojn	-11.2148
vok	-11.2149
▁lern	-11.2149
▁sections	-11.2156
ple	-11.2156
▁taksi	-11.2157
▁bonegan	-11.2159
▁interface	-11.216
▁transition	-11.2164
▁rakonti	-11.2172
cap	-11.2173
▁volonte	-11.2178
▁esp	-11.2179
▁princess	-11.218
▁reduction	-11.218
▁filmon	-11.2181
▁daŭra	-11.2186
▁editorial	-11.2186
▁loves	-11.2186
▁laser	-11.2189
▁continent	-11.2189
enberg	-11.2192
▁vag	-11.2193
▁konduk	-11.2195
▁database	-11.2196
▁navy	-11.2198
▁rational	-11.2198
▁sportoj	-11.22
▁separated	-11.2201
..."	-11.2201
ere	-11.2201
▁respektive	-11.2207
pc	-11.2207
uz	-11.2211
gri	-11.2216
▁scientist	-11.2217
jar	-11.2217
▁1971	-11.2218
▁reĝ	-11.2219
▁keyboard	-11.2222
industrio	-11.2223
▁bebo	-11.2223
▁survoje	-11.2223
▁beings	-11.2225
iĝintaj	-11.2225
▁vivantaj	-11.2228
cs	-11.223
▁regis	-11.223
▁genro	-11.2232
▁kuri	-11.2237
▁okazoj	-11.2237
▁[4]	-11.2237
▁proponi	-11.224
▁landscape	-11.2243
▁peto	-11.2245
8.	-11.2245
▁sentoj	-11.2245
▁funkcion	-11.2246
world	-11.2251
▁apartenis	-11.2256
▁moments	-11.2257
▁anstataŭigi	-11.2257
▁accurate	-11.2257
die	-11.2259
▁koni	-11.226
▁provoj	-11.2262
▁bri	-11.2262
▁phrase	-11.2263
▁rem	-11.2265
angle	-11.2266
sy	-11.2267
▁actively	-11.227
▁respectively	-11.227
▁define	-11.227
▁thinks	-11.2272
▁illegal	-11.2273
▁veturante	-11.2274
vy	-11.2277
▁informon	-11.2278
▁anywhere	-11.228
▁armea	-11.2282
▁eltrovi	-11.2282
▁belonged	-11.2283
▁memorial	-11.2283
▁consumer	-11.2283
ces	-11.2284
tech	-11.2284
▁diferencoj	-11.2286
4%	-11.2286
▁referred	-11.2288
▁gazetoj	-11.2288
▁atlantic	-11.2289
help	-11.2289
▁sukceson	-11.2291
▁mechanical	-11.2296
▁erarojn	-11.2297
▁ankau	-11.2299
▁taskon	-11.2299
▁normally	-11.2299
uo	-11.2299
▁1961	-11.2301
▁om	-11.2301
▁server	-11.2301
mmer	-11.2302
▁projekton	-11.2303
▁glasses	-11.2308
▁industries	-11.2309
▁survive	-11.2312
▁supozeble	-11.2313
▁sovetunio	-11.2313
cut	-11.2314
▁konsiderante	-11.2314
▁wordpress	-11.2317
▁malĝusta	-11.232
▁ĉambroj	-11.2322
ble	-11.2325
▁courage	-11.2328
▁1963	-11.2329
▁spektaklo	-11.233
▁malplena	-11.2332
▁af	-11.2332
▁distributed	-11.2333
▁700	-11.2333
▁aĉeto	-11.2337
ors	-11.2338
▁rigardante	-11.234
▁1914	-11.234
wo	-11.2341
also	-11.2343
cker	-11.2343
▁visa	-11.2344
▁amika	-11.2344
▁defeat	-11.2344
uto	-11.2345
▁fur	-11.2345
▁okazaĵoj	-11.2346
▁arrangement	-11.2347
▁savo	-11.2348
▁matt	-11.2348
▁sonĝoj	-11.2351
gs	-11.2354
▁1942	-11.2358
▁saving	-11.2359
▁lukto	-11.2359
▁pano	-11.2362
▁mol	-11.2362
ebleco	-11.2364
▁catalan	-11.2365
▁doors	-11.2368
▁kreo	-11.237
▁agas	-11.2373
▁kanada	-11.2374
▁buying	-11.2378
▁eliminate	-11.2378
▁freŝa	-11.2379
ĥo	-11.238
▁babil	-11.238
▁entering	-11.2381
uri	-11.2384
▁bla	-11.2384
▁diskuti	-11.2385
▁perdita	-11.2387
▁disponeblaj	-11.239
▁falas	-11.239
▁crowd	-11.2391
▁dormi	-11.2391
▁interesiĝas	-11.2391
▁interŝanĝo	-11.2392
▁beside	-11.2394
▁insist	-11.2394
▁forth	-11.2394
▁komforta	-11.2394
▁weekend	-11.2395
▁psychological	-11.2396
▁mastro	-11.2399
▁complicated	-11.2402
▁veturi	-11.2404
sing	-11.2405
▁motorcycle	-11.2406
▁alvenas	-11.2406
▁pruvi	-11.2406
▁okulo	-11.2408
tti	-11.241
hor	-11.241
▁kontrolon	-11.2412
▁laŭlonge	-11.2413
▁kompren	-11.2415
▁butonon	-11.2415
▁elektronika	-11.2416
sie	-11.2416
▁89	-11.2416
▁lasted	-11.2418
\	-11.2419
▁distingi	-11.2424
▁efficient	-11.2425
▁ticket	-11.2425
▁eblo	-11.2426
▁respondeco	-11.2426
▁episkopo	-11.2429
▁komercistoj	-11.2431
▁filter	-11.2431
▁ligna	-11.2432
▁bluetooth	-11.2433
▁civilization	-11.2437
app	-11.2437
▁viando	-11.2438
▁kantisto	-11.2439
▁claims	-11.244
▁difficulty	-11.2441
▁kuracado	-11.2441
▁swimming	-11.2442
▁deposit	-11.2443
▁stability	-11.2444
-4	-11.2445
▁aspect	-11.2446
▁cert	-11.2447
▁ŝipoj	-11.2449
▁departemento	-11.2449
▁komunista	-11.2452
▁akcidento	-11.2454
tie	-11.2454
gh	-11.2455
▁bezonojn	-11.2455
0.000	-11.2455
▁salon	-11.2456
▁fruktoj	-11.2457
enda	-11.2458
ane	-11.2459
▁copper	-11.2459
▁komentoj	-11.246
▁containing	-11.2461
fl	-11.2462
-17	-11.2462
▁carrying	-11.2462
▁bruo	-11.2462
▁stir	-11.2464
▁ac	-11.2465
▁1919	-11.2466
▁politikan	-11.2466
▁testament	-11.2467
▁forigo	-11.2468
▁obviously	-11.2469
▁reĝlando	-11.247
▁relief	-11.2471
▁finas	-11.2472
▁silk	-11.2473
▁miksaĵo	-11.2474
▁aŭdas	-11.2474
▁portugala	-11.2479
▁choosing	-11.2479
▁arthur	-11.2479
▁24-	-11.248
▁servis	-11.2482
▁modo	-11.2483
▁cave	-11.2483
▁1900	-11.2484
▁denote	-11.2484
▁firmly	-11.2486
▁ŝatata	-11.2486
▁misio	-11.2486
▁convert	-11.2486
▁pray	-11.2487
▁similan	-11.2487
▁toys	-11.249
▁94	-11.249
▁sendas	-11.2491
▁volunteers	-11.2493
▁orchestra	-11.2494
▁chicago	-11.2494
▁agrikulturo	-11.2495
▁programojn	-11.2495
▁konsistigas	-11.2495
▁functioning	-11.2497
▁pensado	-11.2499
▁sav	-11.25
▁kompleksa	-11.2503
part	-11.2503
▁forgotten	-11.2505
▁themes	-11.2506
▁devil	-11.2506
fel	-11.2508
▁bow	-11.2508
▁ŝanco	-11.2508
▁validas	-11.2508
▁punishment	-11.2511
▁jura	-11.2512
▁garantio	-11.2513
▁strike	-11.2514
▁password	-11.2515
▁donald	-11.2515
▁bieno	-11.2517
▁beleco	-11.2519
▁owners	-11.2519
▁cal	-11.252
▁activists	-11.2521
lor	-11.2521
▁finnlando	-11.2522
▁germanoj	-11.2523
▁pacon	-11.2524
▁violent	-11.2528
▁maljunulo	-11.2531
areo	-11.2531
▁zorgo	-11.2533
▁introduce	-11.2535
▁konkludo	-11.2535
▁manifest	-11.2535
▁cons	-11.2541
▁examination	-11.2542
▁causing	-11.2542
▁feast	-11.2542
▁continuous	-11.2543
ys	-11.2547
▁impressive	-11.2547
▁indiki	-11.255
▁skribu	-11.2553
spekt	-11.2554
▁rebellion	-11.2557
▁committed	-11.2558
▁calling	-11.2558
▁certigu	-11.2558
▁foriri	-11.2558
▁gravecon	-11.2559
ilojn	-11.256
cur	-11.256
▁simptomoj	-11.2562
▁ines	-11.2563
▁reaching	-11.2564
▁improvement	-11.2564
▁determined	-11.2564
▁zero	-11.2565
▁inc	-11.2567
▁apps	-11.2571
▁mouse	-11.2572
▁teritorioj	-11.2573
▁copies	-11.2573
▁dubai	-11.2575
▁soci	-11.2575
▁gazetaro	-11.2578
▁atentu	-11.258
▁rad	-11.258
▁97	-11.2581
▁slave	-11.2583
▁gaso	-11.2584
dato	-11.2585
▁apartaj	-11.2585
400	-11.2587
▁pasigi	-11.2587
▁preparation	-11.2589
pers	-11.2589
▁salono	-11.259
▁tubaro	-11.259
▁sekreta	-11.259
shan	-11.2591
▁proposals	-11.2592
▁tattoo	-11.2594
▁obvious	-11.2595
▁hang	-11.2598
▁linux	-11.2599
▁marry	-11.2599
▁explanation	-11.2599
▁feliĉaj	-11.26
pra	-11.2601
▁subjects	-11.2601
▁plezuro	-11.2604
▁attempts	-11.2605
▁engineer	-11.2606
▁povo	-11.2606
▁ekstreme	-11.2607
▁syria	-11.2607
▁gvidado	-11.2609
uch	-11.2609
▁calculation	-11.261
▁creates	-11.2613
▁intention	-11.2617
▁dense	-11.2618
▁alloga	-11.2619
▁2016,	-11.262
▁johann	-11.2621
▁norde	-11.2624
kso	-11.2624
▁urbestro	-11.2625
▁artikolojn	-11.2626
▁posta	-11.2627
«	-11.2627
pha	-11.263
▁gil	-11.263
▁novaĵo	-11.2631
▁instalado	-11.2631
▁channels	-11.2633
▁kvindek	-11.2633
▁(4	-11.2633
.[2]	-11.2633
▁slaves	-11.2634
▁fortunately	-11.2638
▁germans	-11.2638
▁personally	-11.264
▁lips	-11.2642
mic	-11.2644
▁organizita	-11.2644
stro	-11.2647
▁composition	-11.2647
′	-11.2648
▁donacita	-11.2649
▁corps	-11.265
▁arkitekturo	-11.2654
▁purigi	-11.2656
▁spot	-11.2658
▁struck	-11.2658
▁necesaj	-11.2659
punkto	-11.2659
ue	-11.2662
▁sought	-11.2664
▁expand	-11.2664
person	-11.2665
▁mah	-11.2668
▁reducing	-11.2668
▁texas	-11.267
▁invite	-11.2673
▁priests	-11.2673
▁composer	-11.2675
▁agrabla	-11.2677
nc	-11.268
▁restore	-11.268
▁gran	-11.2681
▁ripari	-11.2686
ds	-11.2695
▁spertoj	-11.2695
▁immediate	-11.2696
▁gast	-11.2696
▁kuba	-11.2697
▁malmultekosta	-11.2697
▁konsumantoj	-11.2699
▁reaches	-11.2699
▁oficialaj	-11.2701
▁haven	-11.2702
▁supposed	-11.2702
▁tera	-11.2704
▁bak	-11.2707
▁invado	-11.2708
▁multekosta	-11.2708
▁daŭri	-11.2709
▁falo	-11.2709
▁emotions	-11.2712
▁gap	-11.2713
▁gvidilo	-11.2715
▁kursoj	-11.2715
▁135	-11.2717
▁pag	-11.2718
▁guy	-11.2721
▁spending	-11.2723
▁responded	-11.2729
▁daŭro	-11.2731
▁specialized	-11.2733
▁persian	-11.2733
▁priskribi	-11.2733
▁merkatoj	-11.2734
▁malsana	-11.2734
▁doloron	-11.2734
▁eksa	-11.2734
▁adventure	-11.2735
▁ŝlosilo	-11.2738
▁paŝojn	-11.2739
▁aktive	-11.274
-8	-11.274
▁ark	-11.2742
▁adopt	-11.2743
▁sukero	-11.2743
▁plurfoje	-11.2744
▁rates	-11.2744
▁altar	-11.2745
▁shirt	-11.2747
tejo	-11.2748
▁instru	-11.2748
▁krono	-11.2751
▁aŭstra	-11.2754
ř	-11.2755
▁ending	-11.2755
▁parolantoj	-11.2755
▁kapitalo	-11.2757
▁stores	-11.2759
logio	-11.2759
antojn	-11.276
▁vigla	-11.2761
▁financaj	-11.2764
▁faithful	-11.2764
▁rising	-11.2766
▁serioze	-11.2766
ova	-11.2767
▁morton	-11.2771
è	-11.2772
▁komercon	-11.2772
▁virtuala	-11.2773
▁ĝuis	-11.2775
gram	-11.2776
▁ilei	-11.2777
▁tereno	-11.2777
▁proved	-11.2778
▁lesson	-11.2779
▁tries	-11.2779
▁kvartalo	-11.2782
▁indico	-11.2786
zen	-11.2788
▁forgesu	-11.2788
▁bot	-11.279
tim	-11.279
▁relate	-11.2793
▁strat	-11.2795
▁avo	-11.2796
▁equality	-11.2796
▁promesis	-11.2802
▁influon	-11.2803
ava	-11.2806
▁acting	-11.2806
▁fix	-11.2806
▁decade	-11.2806
▁interpreto	-11.2806
▁consumers	-11.2807
▁sort	-11.2808
▁socian	-11.2812
▁aperos	-11.2814
▁cash	-11.2817
▁notu	-11.2818
▁1959	-11.2818
▁2004,	-11.2819
ches	-11.2824
▁whoever	-11.2824
▁insurance	-11.2824
▁voĉ	-11.2828
▁→	-11.2832
▁roads	-11.2832
kg	-11.2832
tine	-11.2833
nur	-11.2834
▁juĝisto	-11.2838
▁olympics	-11.2842
▁kit	-11.2842
gre	-11.2843
▁kolegio	-11.2844
aci	-11.2845
▁abandoned	-11.2856
▁solvon	-11.2857
▁glaci	-11.2858
▁ĵetis	-11.2858
▁onklo	-11.2858
produktado	-11.2859
▁maso	-11.286
▁veraj	-11.286
▁lands	-11.2861
▁perdas	-11.2861
▁juĝo	-11.2862
state	-11.2866
▁unuiĝo	-11.2867
▁cart	-11.2867
type	-11.2868
▁flash	-11.2869
ological	-11.2869
▁statue	-11.287
▁wu	-11.2871
kojn	-11.2871
▁agent	-11.2875
▁flows	-11.2876
▁lying	-11.2877
▁2008.	-11.2877
wiki	-11.2877
france	-11.2879
▁killing	-11.2879
▁chemistry	-11.288
▁afiŝo	-11.2881
▁grekio	-11.2881
▁karakterizaĵoj	-11.2882
▁profesiaj	-11.2883
▁worship	-11.2884
▁identified	-11.2884
▁varias	-11.2884
monato	-11.2888
▁fundamento	-11.2888
▁secondary	-11.2889
▁elizabeth	-11.2889
▁golfo	-11.289
▁individua	-11.289
▁hay	-11.2892
gus	-11.2895
▁organizaĵoj	-11.2895
table	-11.2896
▁founding	-11.2898
▁publike	-11.2898
▁highway	-11.2901
▁1943	-11.2902
kt	-11.2903
▁sheet	-11.2903
▁mathematics	-11.2905
vivo	-11.2907
light	-11.2907
▁tem	-11.2908
dro	-11.2909
▁ruin	-11.2909
▁servants	-11.2909
kra	-11.291
▁memories	-11.2912
▁belega	-11.2913
▁baziĝas	-11.2913
▁improving	-11.2913
▁quietly	-11.2914
▁ŝanĝas	-11.2916
▁asocioj	-11.2916
▁traditions	-11.2918
▁barely	-11.2919
▁partneroj	-11.2922
▁sukcesas	-11.2926
skrib	-11.293
▁markoj	-11.293
▁decidon	-11.2931
▁script	-11.2931
▁produktita	-11.2931
▁maintenance	-11.2933
▁ŝarĝo	-11.2933
ola	-11.2934
▁halo	-11.2934
▁finger	-11.2936
▁spertas	-11.2937
ksa	-11.294
▁regarded	-11.2943
profit	-11.2943
bul	-11.2944
▁1962	-11.2948
▁belonging	-11.295
tv	-11.2951
▁philosophical	-11.2951
▁kamiono	-11.2952
fen	-11.2952
▁belt	-11.2954
▁aktiveco	-11.2956
▁losing	-11.2956
▁shops	-11.2956
▁rimarki	-11.2958
▁lit	-11.2959
ral	-11.2959
▁mus	-11.296
polo	-11.2963
▁nomojn	-11.2963
▁medal	-11.2963
▁salo	-11.2964
▁legend	-11.2965
▁expansion	-11.2965
▁kontrolu	-11.2966
▁ordon	-11.2966
▁eksterlande	-11.2967
▁steam	-11.2968
▁rezisto	-11.2969
▁integrated	-11.297
▁papa	-11.297
▁senĉese	-11.2971
▁mezlernejo	-11.2973
▁pic	-11.2974
▁font	-11.2975
mun	-11.2975
▁platforms	-11.2975
▁fifty	-11.2976
▁winning	-11.2977
ë	-11.298
▁fans	-11.2981
▁2020,	-11.2981
az	-11.2981
▁colorful	-11.2983
▁cats	-11.2984
▁earthquake	-11.2986
▁dankas	-11.2986
▁pecoj	-11.2988
▁concepts	-11.2989
gor	-11.2991
▁delonge	-11.2992
mur	-11.2992
▁bala	-11.2993
▁properly	-11.2994
▁walter	-11.2995
▁350	-11.2996
▁elektraj	-11.2999
▁contributions	-11.2999
▁karto	-11.3001
▁ebleco	-11.3001
ō	-11.3002
▁labels	-11.3002
ĝos	-11.3003
ekz	-11.3004
▁touched	-11.3007
7.	-11.301
▁tail	-11.3011
▁combat	-11.3012
▁founder	-11.3014
▁valoras	-11.3014
▁evangelio	-11.3014
▁scotland	-11.3015
mate	-11.3018
▁robot	-11.3019
▁tables	-11.3021
cip	-11.3022
lasta	-11.3023
▁morti	-11.3025
▁$3	-11.3026
ery	-11.3026
inde	-11.3027
▁flam	-11.3028
▁allowing	-11.3029
▁eksplodo	-11.3029
▁belgian	-11.3031
▁architect	-11.3037
▁teamoj	-11.3037
ware	-11.3039
▁fos	-11.304
▁haveblaj	-11.3041
▁11.	-11.3041
▁verkojn	-11.3042
▁fermi	-11.3045
▁silento	-11.3045
5,000	-11.3046
▁react	-11.3047
▁normoj	-11.3048
▁pace	-11.305
▁1934	-11.3053
▁tipa	-11.3053
▁brands	-11.3053
▁planoj	-11.3054
▁internaj	-11.3056
▁politicians	-11.3057
ín	-11.3057
▁konservado	-11.3057
▁sanon	-11.3058
▁fil	-11.3059
▁fewer	-11.306
▁preciza	-11.3062
▁seo	-11.3062
▁innovation	-11.3064
▁weekly	-11.3066
▁presidential	-11.3067
ía	-11.3067
▁generations	-11.3068
▁retpoŝto	-11.3068
▁amaso	-11.3069
▁equivalent	-11.307
▁fraŭlino	-11.3078
▁swim	-11.308
▁gifts	-11.308
▁temon	-11.308
▁signifa	-11.3081
▁hindu	-11.3081
▁functional	-11.3082
▁perspektivo	-11.3083
▁polaj	-11.3087
▁describes	-11.309
▁kaŭzita	-11.3091
▁reward	-11.3091
tch	-11.3093
▁vespermanĝo	-11.3093
hand	-11.3094
▁carlos	-11.3095
▁reciproka	-11.3095
▁blow	-11.3102
▁commonly	-11.3103
▁naci	-11.3104
kulturo	-11.3105
▁portugalio	-11.3108
taro	-11.311
2%	-11.311
etis	-11.311
igilo	-11.311
▁faktoro	-11.3111
▁wake	-11.3111
▁pagas	-11.3114
▁sklavoj	-11.3115
▁contributed	-11.3115
▁reprezentanto	-11.3115
▁ebloj	-11.3116
▁―	-11.3116
kion	-11.3116
▁cloth	-11.3117
#	-11.3121
▁sciencaj	-11.3122
▁fiction	-11.3123
▁kaŝi	-11.3126
▁pakistan	-11.3126
▁aŭtoroj	-11.3129
iso	-11.3129
▁guitar	-11.313
▁konverti	-11.313
▁neni	-11.3131
▁nivelon	-11.3132
▁pounds	-11.3132
▁definitive	-11.3132
sc	-11.3132
▁wings	-11.3141
where	-11.3142
los	-11.3143
▁versioj	-11.3143
▁vetur	-11.3148
rado	-11.3149
▁passengers	-11.3149
▁malhela	-11.3149
▁timis	-11.3149
▁physics	-11.3151
▁rapidan	-11.3151
general	-11.3152
▁fidinda	-11.3153
▁mateno	-11.3154
3)	-11.3156
"?	-11.3157
▁municipo	-11.3157
▁writes	-11.3158
hara	-11.3159
▁studado	-11.3159
▁consciousness	-11.316
▁nan	-11.3161
▁charging	-11.3161
▁redaktoro	-11.3163
▁rideto	-11.3167
▁sil	-11.3169
▁harvest	-11.317
▁ido	-11.3172
▁vojaĝis	-11.3173
▁napoleon	-11.3176
▁pig	-11.3178
▁brila	-11.3181
▁ĉevalo	-11.3184
▁propose	-11.3186
▁kvadrataj	-11.3186
▁forty	-11.3188
mod	-11.3188
▁ekzameno	-11.3188
▁homeland	-11.3193
▁dioj	-11.3193
▁load	-11.3193
▁technique	-11.3194
tage	-11.3194
▁domain	-11.3195
▁modifi	-11.3197
▁kin	-11.3197
▁kore	-11.3198
▁defendi	-11.3199
▁sekvante	-11.3199
▁riskon	-11.32
▁komerc	-11.3201
1,	-11.3204
▁tendenco	-11.3207
▁riveroj	-11.3209
mara	-11.321
▁serves	-11.3211
▁fiber	-11.3212
▁waters	-11.3212
▁virina	-11.3213
▁commons	-11.3218
▁ciklo	-11.3219
▁(15	-11.322
▁uae	-11.3222
link	-11.3222
▁absoluta	-11.3223
egis	-11.3224
▁privataj	-11.3226
▁terminal	-11.3229
▁1957	-11.3233
▁(16	-11.3235
▁bass	-11.3235
bb	-11.3235
▁tubo	-11.3237
power	-11.3239
▁deviga	-11.324
▁accused	-11.3241
▁stayed	-11.3242
▁contest	-11.3243
▁claimed	-11.3243
lli	-11.3244
cola	-11.3245
▁stacidomo	-11.3246
ike	-11.3249
▁ingredients	-11.3251
▁interretaj	-11.3251
▁frequency	-11.3252
▁finita	-11.3253
▁liberation	-11.3253
▁altajn	-11.3254
ions	-11.3256
▁grows	-11.3258
pet	-11.3259
▁malbon	-11.326
▁invented	-11.326
▁komando	-11.3261
▁michel	-11.3261
▁ŝpari	-11.3261
▁---	-11.3261
▁conflicts	-11.3262
▁ron	-11.3263
▁shouted	-11.3265
▁provinces	-11.3266
▁signife	-11.3268
▁fervojo	-11.3272
▁aktivaj	-11.3273
▁oneself	-11.3276
▁differently	-11.3276
umado	-11.3278
▁kolero	-11.3278
▁awareness	-11.328
▁moses	-11.3281
heim	-11.3282
▁kristnasko	-11.3283
▁familion	-11.3285
▁painted	-11.3286
bia	-11.3287
▁evident	-11.3288
▁shield	-11.3289
▁dragon	-11.3291
▁dezir	-11.3294
▁kristanismo	-11.3295
▁evidenta	-11.3296
programo	-11.3297
▁revenos	-11.3297
▁ĝeneralan	-11.3299
▁expedition	-11.3299
▁parolu	-11.33
▁ora	-11.3305
▁norman	-11.3307
▁flugo	-11.3307
▁revizio	-11.3308
▁seeking	-11.3308
▁nuklea	-11.3309
taga	-11.331
▁bud	-11.3312
▁discussions	-11.3314
▁malalt	-11.3314
▁fremda	-11.3314
▁constitutional	-11.3323
▁59	-11.3324
▁ceremonio	-11.3325
▁1922	-11.3326
▁aĵojn	-11.3326
meter	-11.3326
▁debato	-11.3327
▁funkciado	-11.3327
▁sab	-11.333
▁tone	-11.3331
▁1910	-11.3333
▁bou	-11.3334
▁aŭtoritato	-11.3335
▁elstaraj	-11.3336
▁popularity	-11.3336
▁clubs	-11.3336
▁awarded	-11.3337
▁manjo	-11.3338
▁cla	-11.334
komp	-11.3341
class	-11.3342
▁ber	-11.3346
▁diverseco	-11.3346
gos	-11.3347
dom	-11.335
▁1938	-11.335
▁relating	-11.3351
▁pretend	-11.3352
▁kuirejo	-11.3354
plan	-11.3356
zhou	-11.3358
▁fru	-11.3359
▁pour	-11.336
fero	-11.336
▁hate	-11.3361
▁kutimo	-11.3361
▁plenigi	-11.3362
▁volunteer	-11.3363
lay	-11.3364
▁romantic	-11.3364
▁institucio	-11.3365
▁willing	-11.3366
maŝino	-11.3368
gna	-11.3368
800	-11.3368
▁mill	-11.3372
▁alphabet	-11.3374
▁finiĝas	-11.3374
▁tradukis	-11.3375
▁poŝtelefono	-11.3376
▁devi	-11.3376
▁enables	-11.3378
▁mona	-11.3379
▁situated	-11.338
▁renkontiĝis	-11.3384
▁motorciklo	-11.3385
▁historiisto	-11.3387
▁odor	-11.3388
▁peru	-11.3388
▁atakoj	-11.3388
▁plie	-11.3393
kro	-11.3395
▁peco	-11.3396
▁oxford	-11.3397
▁flew	-11.3397
▁laborista	-11.3399
▁liberigo	-11.3403
▁pliiĝo	-11.3403
▁pandemio	-11.3404
▁saul	-11.3405
▁eroj	-11.3405
▁drove	-11.3405
▁pulled	-11.3406
▁konton	-11.3406
7%	-11.3408
▁sekurecon	-11.3408
▁flora	-11.3409
▁belgium	-11.341
▁malamikoj	-11.3411
▁atendu	-11.3413
▁transformation	-11.3414
▁rondiro	-11.3416
▁doctrine	-11.3416
▁fingers	-11.3417
▁qua	-11.3417
▁philosopher	-11.3418
vio	-11.3422
▁praktike	-11.3422
▁peninsula	-11.3425
▁gor	-11.3427
▁pagan	-11.3428
▁congresses	-11.3429
▁renkontiĝoj	-11.343
▁gra	-11.3432
м	-11.3433
▁plata	-11.3433
▁honoro	-11.3434
serio	-11.3438
oso	-11.3438
▁averaĝa	-11.3438
▁bags	-11.3439
▁regulojn	-11.344
national	-11.3442
▁kreskon	-11.3442
▁defeated	-11.3445
here	-11.3448
▁proksim	-11.3448
tm	-11.3451
▁competitive	-11.3454
klo	-11.3454
▁listened	-11.3454
▁differ	-11.3455
▁chapel	-11.3457
▁mam	-11.3459
▁individuaj	-11.3459
pola	-11.346
▁miguel	-11.346
▁efikojn	-11.3464
▁rab	-11.3464
▁ekscii	-11.3464
▁priskribis	-11.3465
town	-11.3465
▁malbono	-11.3466
▁forgive	-11.3467
▁imposto	-11.347
▁opposed	-11.3471
▁kosovo	-11.3471
ati	-11.3474
emon	-11.3478
▁gulf	-11.3479
▁identeco	-11.3482
▁semajnon	-11.3483
▁kresk	-11.3483
▁motion	-11.3487
▁2012.	-11.3488
と	-11.3488
▁socialism	-11.3492
▁pollution	-11.3494
▁facilities	-11.3495
▁veturilo	-11.35
▁solvoj	-11.3501
▁angeles	-11.3502
sci	-11.3503
▁taŭgan	-11.3504
gxis	-11.3504
▁politikistoj	-11.3505
▁incident	-11.3505
▁underground	-11.3507
▁paĝon	-11.3511
▁mood	-11.3511
▁mediterranean	-11.3512
▁plot	-11.3514
▁jazz	-11.3514
▁cannabis	-11.3518
▁rimarkinda	-11.3518
▁alfronti	-11.3519
tum	-11.352
ssa	-11.3522
good	-11.3522
▁gepatra	-11.3523
▁planon	-11.3524
▁gay	-11.3525
▁shift	-11.3525
▁label	-11.3527
▁conservative	-11.3528
▁historic	-11.3529
▁1905	-11.353
▁globe	-11.353
▁industriaj	-11.3533
▁schedule	-11.3534
▁ruled	-11.3536
▁apples	-11.3537
▁108	-11.3537
▁brave	-11.3537
▁ĉirkaŭaĵo	-11.3539
▁throne	-11.3541
▁integration	-11.3542
▁vendis	-11.3542
▁rob	-11.3543
▁restaurants	-11.3544
▁seats	-11.3549
▁nad	-11.355
▁justa	-11.3553
▁sendu	-11.3556
▁bezonata	-11.3558
▁stokado	-11.3558
▁vitamin	-11.3562
▁cord	-11.3563
▁medikamentoj	-11.3565
▁malkovro	-11.3567
cion	-11.3568
▁approached	-11.3568
hal	-11.3569
▁fero	-11.357
®	-11.357
▁flank	-11.357
▁juice	-11.3571
▁2010.	-11.3571
▁sisters	-11.3572
▁prov	-11.3572
ologio	-11.3572
▁aper	-11.3573
uf	-11.3573
▁terror	-11.3577
▁atenti	-11.3579
▁nacian	-11.358
▁kate	-11.358
▁nomitaj	-11.3582
▁sperta	-11.3584
▁sample	-11.3584
▁samajn	-11.3585
▁konscio	-11.3586
▁lingvaj	-11.3587
▁cheese	-11.3588
▁gentle	-11.3589
▁dare	-11.359
▁ŝtono	-11.359
▁urbeto	-11.3593
▁1929	-11.3593
▁danc	-11.3596
viva	-11.3598
▁neceso	-11.3598
▁reviews	-11.36
▁glad	-11.3601
▁kunsido	-11.3602
▁taskoj	-11.3604
salt	-11.3605
eŭ	-11.3605
▁13.	-11.3605
dorf	-11.3607
▁sendependaj	-11.3609
▁potencaj	-11.361
▁rus	-11.3611
▁pleased	-11.3612
aga	-11.3612
▁raportoj	-11.3614
▁esploroj	-11.3618
▁leo	-11.362
▁fundamenta	-11.3621
▁destination	-11.3621
▁rimarkas	-11.3621
▁14.	-11.3622
▁establis	-11.3623
▁112	-11.3624
lino	-11.3624
▁ŝanĝiĝas	-11.3625
▁coin	-11.3626
▁temperatures	-11.3628
▁attracted	-11.3631
▁favorable	-11.3632
▁mortintoj	-11.3632
▁cia	-11.3633
▁fail	-11.3633
▁visits	-11.3635
▁holidays	-11.3635
▁religions	-11.3636
iaj	-11.3636
▁pit	-11.3637
▁publicly	-11.3638
▁venezuela	-11.3639
▁lanĉita	-11.3639
-15	-11.364
▁partnership	-11.3641
uzi	-11.3641
▁futbala	-11.3642
▁kalendaro	-11.3642
▁preparing	-11.3644
kia	-11.3645
▁friedrich	-11.3646
▁ced	-11.3646
▁okupas	-11.3648
▁passes	-11.3648
▁piv	-11.3648
▁conducted	-11.3649
▁helen	-11.3649
▁akceptita	-11.365
▁orbit	-11.3651
igus	-11.3651
lé	-11.3653
yu	-11.3653
▁kaŭzoj	-11.3653
▁frat	-11.3655
llo	-11.3655
▁menciis	-11.3656
▁pointed	-11.3656
▁[5]	-11.3657
▁technological	-11.3658
wan	-11.3661
memor	-11.3661
lla	-11.3664
▁infanon	-11.3665
▁indas	-11.3665
▁finon	-11.3665
▁compare	-11.3666
▁blessed	-11.3668
▁klar	-11.3668
▁proportion	-11.3669
▁mallongaj	-11.3671
▁recording	-11.3672
▁kazino	-11.3672
▁keeping	-11.3674
▁poŝto	-11.3674
▁depression	-11.3675
▁resist	-11.3676
▁realo	-11.3678
▁kovri	-11.368
▁whenever	-11.368
ece	-11.368
▁enormous	-11.3681
▁1958	-11.3682
▁datada	-11.3684
▁mapo	-11.3686
mato	-11.3686
dik	-11.3686
▁nar	-11.3688
persona	-11.3689
▁detale	-11.369
▁damaĝo	-11.369
▁tam	-11.3691
▁kaf	-11.3692
▁ovoj	-11.3692
▁urb	-11.3694
▁kondiĉojn	-11.3695
т	-11.3704
▁plenumis	-11.3707
▁choices	-11.3707
chen	-11.3708
▁investo	-11.371
▁varmaj	-11.3712
▁kontinua	-11.3713
▁(5	-11.3714
▁exploration	-11.3716
▁ĝoj	-11.3719
ants	-11.372
▁geography	-11.3722
cat	-11.3722
▁multiplication	-11.3722
▁branĉo	-11.3726
hua	-11.3726
ー	-11.3728
▁vacation	-11.3728
▁laboroj	-11.3731
▁spegulo	-11.3731
~	-11.3731
▁komponisto	-11.3732
▁aperi	-11.3732
▁2020.	-11.3733
▁diego	-11.3733
▁comparison	-11.3734
▁surprizo	-11.3735
▁vilaĝoj	-11.3737
▁tavolo	-11.374
▁suna	-11.374
1%	-11.3741
oble	-11.3742
▁fleet	-11.3742
!...	-11.3743
▁postaj	-11.3744
▁farmers	-11.3744
▁foreigners	-11.3749
▁cbd	-11.3749
▁multiplikas	-11.3751
▁paying	-11.3751
▁fortress	-11.3752
▁1921	-11.3752
pac	-11.3752
▁leganto	-11.3757
▁victor	-11.376
▁pentristo	-11.376
▁sentojn	-11.3762
▁volumo	-11.3762
▁mejloj	-11.3763
▁influi	-11.3765
▁situacioj	-11.3767
▁kolektis	-11.3772
▁nelonge	-11.3773
▁canton	-11.3774
▁biological	-11.3774
▁confused	-11.3779
▁matematiko	-11.3782
▁rakonton	-11.3782
▁threatened	-11.3784
▁citaĵo	-11.3784
▁telling	-11.3785
8%	-11.3786
▁laŭleĝa	-11.3786
uc	-11.3786
▁climb	-11.3788
▁florida	-11.3789
▁establi	-11.3789
akvo	-11.3789
▁konstruitaj	-11.3791
▁konsumo	-11.3792
lot	-11.3792
▁nunaj	-11.3794
▁kontenta	-11.3796
▁manufacturers	-11.3796
▁cs	-11.3797
▁komputila	-11.3799
▁charming	-11.3799
▁requested	-11.3801
▁composed	-11.3801
▁drew	-11.3806
▁dosiero	-11.3809
▁owned	-11.3809
▁eksteren	-11.3809
▁analyze	-11.3809
▁ecological	-11.3812
▁1912	-11.3812
▁pordego	-11.3814
alo	-11.3814
▁informi	-11.3815
▁kontribuis	-11.3815
igoj	-11.3816
rid	-11.382
▁rocks	-11.382
▁coins	-11.3821
▁html	-11.3821
▁export	-11.3823
zono	-11.3824
▁lenin	-11.3825
▁equipped	-11.3825
▁scott	-11.3826
historio	-11.3827
▁ligi	-11.3828
▁armena	-11.3829
▁holds	-11.3831
▁egyptian	-11.3832
tta	-11.3832
▁eblecon	-11.3833
▁(2)	-11.3834
hon	-11.3838
▁humor	-11.3838
▁konvena	-11.3839
▁iniciato	-11.3839
▁butiko	-11.3841
▁opozicio	-11.3841
▁leon	-11.3841
▁jenaj	-11.3842
▁politikon	-11.3842
▁offices	-11.3843
▁komprenebla	-11.3844
▁monaĥejo	-11.3844
▁cer	-11.3847
▁debt	-11.3847
▁2017,	-11.3847
▁extent	-11.3848
▁curious	-11.3849
▁aviadiloj	-11.3854
phon	-11.3855
sx	-11.3856
▁taj	-11.3856
▁laboratory	-11.386
▁acido	-11.3862
▁kanaloj	-11.3865
▁scores	-11.3865
▁additionally	-11.3867
elle	-11.3869
▁poles	-11.3869
▁temis	-11.3869
▁pruvis	-11.3869
▁serving	-11.3871
▁celebration	-11.3873
▁koncerto	-11.3873
sin	-11.3875
▁asleep	-11.3875
hora	-11.3875
/2	-11.3876
▁aspektis	-11.3877
mac	-11.3878
ár	-11.3879
▁1937	-11.388
▁fiŝ	-11.388
▁relatives	-11.388
people	-11.3881
▁subskribis	-11.3881
▁stephen	-11.3884
▁logic	-11.3885
▁2007.	-11.3885
▁gender	-11.3887
▁maksimuma	-11.389
rina	-11.3891
▁skalo	-11.3891
▁kritika	-11.3892
▁kilometrojn	-11.3892
▁halt	-11.3894
kis	-11.3897
▁pensu	-11.3897
▁jumped	-11.3898
▁dc	-11.3898
▁valora	-11.3899
▁paciento	-11.39
▁pack	-11.3901
ora	-11.3906
▁ft	-11.3907
▁copyright	-11.3908
▁inches	-11.3908
▁esperantujo	-11.3908
▁manifesto	-11.3912
▁fees	-11.3912
▁manĝaĵojn	-11.3914
▁constructed	-11.3917
▁eventuale	-11.3918
elli	-11.3918
servo	-11.3918
may	-11.3922
▁sporta	-11.3922
▁superas	-11.3924
poj	-11.3925
ws	-11.3925
▁kamp	-11.3926
▁bike	-11.3926
▁unuo	-11.3929
▁beast	-11.3929
▁lists	-11.3929
▁columbia	-11.393
ankaŭ	-11.3933
▁plenaj	-11.3933
dir	-11.3934
▁ruĝaj	-11.3936
▁vizitas	-11.3937
ico	-11.3941
[2]	-11.3945
hy	-11.3946
turo	-11.3949
pren	-11.3949
▁smoking	-11.395
▁decrease	-11.395
even	-11.3951
▁gardens	-11.3951
▁kompari	-11.3953
▁helpful	-11.3953
▁liberigi	-11.3957
▁anglo	-11.3958
▁malrapida	-11.3959
paĝo	-11.3959
▁luck	-11.3959
▁decline	-11.396
uza	-11.3962
▁ny	-11.3963
▁ĝojas	-11.3965
▁sekureca	-11.3968
▁klienta	-11.3968
▁stamp	-11.3971
▁wal	-11.3971
super	-11.3972
▁murdo	-11.3975
▁refugees	-11.398
▁retain	-11.3982
▁suit	-11.3985
▁invitas	-11.3985
▁excessive	-11.3986
plen	-11.3987
▁kuŝis	-11.3988
▁laughed	-11.399
ĵa	-11.399
▁serion	-11.3991
▁sperti	-11.3992
ĉambro	-11.3992
▁bond	-11.3992
▁milan	-11.3993
▁malmola	-11.3994
▁ekzisti	-11.3994
▁atingo	-11.3995
▁hip	-11.3995
▁predict	-11.3996
▁koloron	-11.3997
▁encouraged	-11.3997
▁retumilo	-11.3998
▁injury	-11.3998
▁transdono	-11.3999
▁inteligentaj	-11.3999
aŭto	-11.4
gl	-11.4
я	-11.4001
▁irlanda	-11.4004
▁acquainted	-11.4004
▁kvardek	-11.4006
▁paroj	-11.4009
▁honora	-11.4009
▁parent	-11.401
ett	-11.401
6%	-11.4013
▁clouds	-11.4017
▁hunting	-11.4017
▁deveno	-11.4018
▁morta	-11.4018
▁lithuania	-11.402
▁kod	-11.4021
▁dam	-11.4021
▁branĉoj	-11.4021
egoj	-11.4023
▁angels	-11.4023
▁genetic	-11.4024
▁donac	-11.4024
▁assessment	-11.4024
▁tipe	-11.4025
▁diablo	-11.4025
▁fallen	-11.4025
sel	-11.4026
▁marx	-11.4028
人	-11.4029
▁traits	-11.403
▁vesper	-11.4033
▁vary	-11.4036
▁depth	-11.4037
dos	-11.404
▁buried	-11.4041
riko	-11.4041
▁wearing	-11.4041
▁split	-11.4042
▁colonial	-11.4043
▁plain	-11.4044
▁assume	-11.4045
▁civila	-11.4047
▁alianco	-11.4047
▁ŝtofo	-11.4048
▁ate	-11.405
▁10,000	-11.405
▁esperante	-11.405
▁golf	-11.405
▁programme	-11.4052
▁ligoj	-11.4054
▁interpret	-11.4054
kvanto	-11.4055
▁pentraĵoj	-11.4055
▁elekton	-11.4056
▁universitata	-11.4056
▁disappear	-11.4059
▁nafto	-11.4059
▁religioj	-11.406
▁pilot	-11.4061
▁milda	-11.4061
▁abilities	-11.4062
té	-11.4062
▁risks	-11.4063
ekzemple	-11.4063
▁iranian	-11.4063
▁symbols	-11.4064
▁obe	-11.4064
▁nenia	-11.4064
▁islamo	-11.4064
▁demokrata	-11.4066
▁scenejo	-11.4068
▁vieno	-11.4069
▁evolved	-11.407
▁lincoln	-11.4071
uzo	-11.4074
▁regionaj	-11.4075
▁kali	-11.4077
after	-11.4077
▁gru	-11.4079
▁grain	-11.4079
▁kgm	-11.4086
▁krimo	-11.4088
ugh	-11.4091
▁gene	-11.4092
▁arrange	-11.4094
▁duration	-11.4095
press	-11.4096
▁putting	-11.4097
2022	-11.4097
▁1954	-11.4103
▁styles	-11.4103
▁periods	-11.4106
▁bern	-11.4107
plo	-11.4111
▁energi	-11.4112
because	-11.4112
▁2009.	-11.4113
▁conversion	-11.4115
▁tablet	-11.4115
▁dvd	-11.4116
▁minority	-11.4116
▁altitude	-11.4116
▁favore	-11.4116
▁450	-11.4117
▁muscles	-11.4119
▁pie	-11.412
▁kam	-11.412
▁respondecas	-11.4122
▁trink	-11.4125
lit	-11.4128
▁biology	-11.413
▁substance	-11.4131
▁detrui	-11.4131
▁eo	-11.4132
▁invitation	-11.4134
▁kolegoj	-11.4135
▁gajnas	-11.4138
▁lighting	-11.4139
dado	-11.414
▁mencio	-11.414
▁egaleco	-11.414
▁maldika	-11.4142
▁elteni	-11.4146
▁ovo	-11.4149
gxo	-11.4152
▁neighbors	-11.4152
▁epidemio	-11.4153
▁finnish	-11.4153
▁estontaj	-11.4154
▁spite	-11.4154
▁deaths	-11.4155
▁sharing	-11.4156
▁volontuloj	-11.4156
phone	-11.4156
▁hejmaj	-11.4156
▁okazon	-11.416
▁vojaĝon	-11.4161
▁ĉiufoje	-11.4161
▁profession	-11.4161
ña	-11.4162
▁2003,	-11.4163
cus	-11.4164
▁elsewhere	-11.4164
▁estaĵoj	-11.4165
▁mechanism	-11.4166
▁hinda	-11.4168
▁integra	-11.4168
▁fled	-11.4169
י	-11.417
▁dig	-11.417
▁gloro	-11.4174
including	-11.4174
▁sekvu	-11.4175
▁varsovio	-11.4176
▁malsukceso	-11.4176
▁1955	-11.4177
▁guberniestro	-11.4177
▁malsato	-11.4179
▁ty	-11.4182
▁knab	-11.4183
▁ĉefo	-11.4184
▁analytics	-11.4184
▁plor	-11.4185
▁mesaĝojn	-11.4185
▁vendas	-11.4187
▁creator	-11.4187
ates	-11.4187
▁ĉeval	-11.4188
▁solo	-11.4189
▁malriĉeco	-11.419
▁rabato	-11.4191
▁portion	-11.4193
▁taksas	-11.4193
muziko	-11.4194
▁60%	-11.4195
▁membrojn	-11.4197
▁signals	-11.4197
▁statuso	-11.4197
room	-11.4199
▁sul	-11.4199
▁verb	-11.4199
▁monte	-11.4203
▁characterized	-11.4204
▁ŝajn	-11.4205
▁caribbean	-11.4207
▁zhang	-11.4207
▁svisa	-11.4208
▁1/2	-11.4209
▁counted	-11.4209
▁okupis	-11.4209
▁una	-11.4213
▁vesto	-11.4214
▁2019,	-11.4215
▁crimes	-11.4217
▁sensitive	-11.4218
▁fotilo	-11.4218
zoj	-11.4219
▁utiligi	-11.4219
▁aliloke	-11.422
▁skrib	-11.422
▁progressive	-11.4221
▁dinastio	-11.4222
▁meritas	-11.4222
▁expressions	-11.4224
aria	-11.4225
▁shell	-11.423
▁encyclopedia	-11.4231
▁formis	-11.4236
fonto	-11.4236
▁pretaj	-11.4238
▁oferti	-11.4238
▁subsequently	-11.424
▁investigation	-11.4243
▁argentine	-11.4244
pdf	-11.4246
ona	-11.4246
▁direkte	-11.4246
▁plibonigas	-11.4247
baj	-11.4249
▁advise	-11.4249
▁guess	-11.4249
zorg	-11.425
▁ĉesi	-11.4255
▁eduko	-11.4256
▁ttt	-11.4256
▁medit	-11.4258
?...	-11.4258
▁harbor	-11.4259
▁trains	-11.4259
▁mega	-11.426
▁1952	-11.4265
▁anonco	-11.4265
ludo	-11.4266
▁hyper	-11.4266
▁tegmento	-11.4267
▁begun	-11.427
▁voĉon	-11.427
▁paca	-11.4271
▁williams	-11.4272
▁plia	-11.4273
istaj	-11.4273
▁faciligi	-11.4274
▁monumento	-11.4274
▁sako	-11.4277
toro	-11.4279
▁laborejo	-11.4281
▁korpoj	-11.4283
▁crystal	-11.4283
▁kontribui	-11.4284
▁01	-11.4285
▁victoria	-11.4286
▁armenia	-11.4286
▁elect	-11.4287
▁infrastructure	-11.4288
enburg	-11.4289
▁seed	-11.429
▁bezon	-11.429
▁spiritoj	-11.4291
▁communications	-11.4291
▁aĝaj	-11.4295
ei	-11.4296
▁resumo	-11.4296
▁1,000	-11.4297
▁lewis	-11.4298
ø	-11.4299
ismon	-11.43
stat	-11.4301
▁strip	-11.4304
▁artefarita	-11.4306
▁tokyo	-11.4307
matic	-11.4308
▁pos	-11.4309
▁lots	-11.431
iu	-11.431
▁transdoni	-11.431
▁landa	-11.4312
▁premi	-11.4314
▁distinguish	-11.4316
▁fondinto	-11.4317
▁refers	-11.4317
▁enirejo	-11.4318
▁flanke	-11.4319
▁avenue	-11.432
▁stabila	-11.4321
naci	-11.4322
gita	-11.4322
▁malriĉaj	-11.4325
ets	-11.4328
▁absent	-11.4328
▁atente	-11.433
▁organizing	-11.433
▁kompletan	-11.4332
▁lanĉo	-11.4332
gal	-11.4333
manĝ	-11.4334
hai	-11.4334
||6	-11.4335
▁rom	-11.4337
▁cotton	-11.4338
▁rat	-11.4338
▁2014.	-11.4339
▁personnel	-11.434
▁filling	-11.434
▁fenestroj	-11.434
▁bongusta	-11.4342
▁publikigo	-11.4342
▁fernando	-11.4345
▁encounter	-11.4345
stone	-11.4347
▁filozofo	-11.435
▁franc	-11.4351
▁rent	-11.4351
▁gramatiko	-11.4351
▁activist	-11.4357
▁etoso	-11.4361
▁alternativo	-11.4362
▁pride	-11.4363
▁transiro	-11.4363
▁habit	-11.4364
ned	-11.4364
▁22-	-11.4365
▁mason	-11.4365
▁abundant	-11.4366
▁taiwan	-11.437
▁wiki	-11.4371
▁ekonomian	-11.4374
▁flame	-11.4375
komunumo	-11.4375
ties	-11.4376
▁rubber	-11.4377
▁persist	-11.4378
lian	-11.438
▁pedro	-11.438
til	-11.4382
▁etend	-11.4385
▁serĉado	-11.4386
▁materio	-11.4388
temp	-11.439
such	-11.439
▁autonomous	-11.439
▁settled	-11.4393
▁herbo	-11.4393
▁bringing	-11.4395
▁influences	-11.4401
▁formita	-11.4402
▁kutimis	-11.4402
▁agon	-11.4403
▁malbonan	-11.4404
▁tons	-11.4405
▁15%	-11.4407
lito	-11.4407
▁essence	-11.4408
▁movadoj	-11.4409
eron	-11.441
▁rilatum	-11.4413
▁shoot	-11.4413
▁tombo	-11.4414
▁amen	-11.4418
▁supraj	-11.442
▁deponejo	-11.4424
▁videblas	-11.4426
▁hungry	-11.4427
▁radi	-11.4428
ume	-11.4428
▁pezon	-11.4429
▁gla	-11.4429
▁hopes	-11.4433
hard	-11.4435
▁nomumita	-11.4436
▁massive	-11.4437
▁heating	-11.4438
▁18.	-11.4442
▁malamiko	-11.4443
▁mezuri	-11.4445
▁2015.	-11.4446
▁strategies	-11.4447
play	-11.4447
▁merkatado	-11.4448
▁naval	-11.445
▁ash	-11.4452
lt	-11.4453
▁kreitaj	-11.4454
▁ludoviko	-11.4458
▁aside	-11.4459
vetur	-11.4463
▁mystery	-11.4465
▁outer	-11.4465
▁kontrakto	-11.4469
▁solved	-11.4469
regiono	-11.4474
▁babili	-11.4476
▁emphasized	-11.4476
▁eduka	-11.4478
cra	-11.4478
▁oem	-11.4479
▁distinction	-11.448
▁wishes	-11.4481
▁masses	-11.4484
▁membr	-11.4484
▁engaged	-11.4485
▁gli	-11.4485
▁assess	-11.4486
▁pasi	-11.4487
▁diferencon	-11.4487
▁komunaj	-11.4488
▁muslims	-11.4491
▁tennis	-11.4491
tano	-11.4492
▁identigi	-11.4494
▁montros	-11.4495
å	-11.4495
▁fiziko	-11.4496
▁observi	-11.4498
▁dialect	-11.4499
▁paf	-11.4502
nask	-11.4503
▁unpleasant	-11.4503
hour	-11.4503
▁1953	-11.4503
ا	-11.4506
▁focused	-11.4506
▁ludado	-11.4507
have	-11.4509
▁sequence	-11.4509
▁ligilo	-11.451
▁sentences	-11.4514
kado	-11.4515
▁fifteen	-11.4516
▁jinping	-11.4516
▁arabaj	-11.4517
▁koler	-11.4517
▁archive	-11.4519
▁gather	-11.452
▁spray	-11.4521
imp	-11.4524
▁ligon	-11.4525
▁eldonejo	-11.4527
iras	-11.4527
▁nano	-11.4528
oli	-11.453
▁goodbye	-11.453
▁1932	-11.453
reco	-11.4531
sion	-11.4532
▁kru	-11.4533
▁ford	-11.4533
▁leĝ	-11.4535
▁enlanda	-11.4537
▁wil	-11.4537
▁kuŝ	-11.454
▁originalan	-11.4541
▁rifuĝintoj	-11.4541
▁eksperimento	-11.4541
▁deklaras	-11.4545
▁proponita	-11.4545
kaze	-11.4548
▁towns	-11.4548
▁priskribita	-11.4549
▁merit	-11.4549
▁vidita	-11.4549
▁dancing	-11.4551
str	-11.4556
eli	-11.4558
▁circuit	-11.4561
▁exciting	-11.4561
▁parolante	-11.4561
▁actors	-11.4562
▁eraron	-11.4562
his	-11.4562
▁loĝi	-11.4562
▁akra	-11.4562
▁23-	-11.4562
▁sekuraj	-11.4563
▁pagis	-11.4563
▁profundan	-11.4564
cht	-11.4564
▁kunlabori	-11.4565
▁coronavirus	-11.4567
▁neŭtrala	-11.4567
▁komenc	-11.4567
▁bazon	-11.4567
▁konscia	-11.4568
▁afrikaj	-11.4571
▁organizis	-11.4572
1)	-11.4574
▁suppose	-11.4574
ferm	-11.4575
▁oriente	-11.4577
▁saĝa	-11.4577
▁turka	-11.4578
▁detruo	-11.4579
▁ebl	-11.4581
▁professionals	-11.4584
kongreso	-11.4585
▁generacioj	-11.4588
▁opini	-11.4588
▁liu	-11.459
▁rim	-11.4592
▁malnovan	-11.4593
▁leteroj	-11.4594
▁ĉeestas	-11.4595
▁departure	-11.4599
▁sonas	-11.4605
sz	-11.4606
▁shakespeare	-11.4606
ntan	-11.4606
й	-11.4606
▁2006.	-11.4607
▁habits	-11.4607
▁reflect	-11.4608
▁pruvo	-11.4608
▁evoluis	-11.4611
▁purchased	-11.4612
blo	-11.4613
▁laŭdire	-11.4614
▁mistake	-11.4615
▁astro	-11.4617
distrikto	-11.4618
▁disvastigi	-11.4619
▁belgio	-11.4619
▁breeding	-11.462
▁producing	-11.4621
▁capabilities	-11.4625
▁vestaĵoj	-11.4626
▁kontraŭe	-11.4626
▁extension	-11.4628
▁momenton	-11.4629
itis	-11.4629
▁ador	-11.4629
▁comune	-11.4632
▁pret	-11.4633
▁plifortigi	-11.4634
▁fortikaĵo	-11.4634
-16	-11.4635
▁provincoj	-11.4637
▁summit	-11.4639
▁shoulder	-11.4639
▁intenco	-11.464
▁raso	-11.4641
▁administracio	-11.4641
▁stre	-11.4642
▁promotion	-11.4643
▁ads	-11.4644
▁appeal	-11.4645
ン	-11.4645
lingve	-11.4646
▁radiation	-11.4646
▁kruda	-11.4649
▁virginia	-11.4649
▁hunger	-11.4649
▁consisting	-11.4651
▁transmission	-11.4651
▁sem	-11.4652
▁fred	-11.4655
did	-11.4655
▁produktadon	-11.4662
plej	-11.4663
▁anymore	-11.4663
ml	-11.4665
▁ĵet	-11.4665
▁foiro	-11.4669
▁sving	-11.467
▁plaĉas	-11.467
▁housing	-11.4671
▁reago	-11.4672
▁specialist	-11.4673
▁privat	-11.4675
▁sto	-11.4676
▁poentaro	-11.4676
▁foolish	-11.4676
▁southeast	-11.4678
▁mortas	-11.4678
▁renaissance	-11.4678
▁1931	-11.4679
about	-11.4681
▁teknikaj	-11.4681
▁buĝeto	-11.4681
▁seks	-11.4681
▁sala	-11.4683
▁malsan	-11.4683
▁1928	-11.4686
aba	-11.4686
▁signifi	-11.4687
▁[6]	-11.4688
▁ŝip	-11.4689
▁meanings	-11.4689
vert	-11.469
▁sekure	-11.4691
▁diplomatic	-11.4696
▁aparaton	-11.4696
▁tradicie	-11.4697
▁temporary	-11.4698
▁celis	-11.4699
rah	-11.47
▁akiras	-11.4701
▁workshop	-11.4702
▁cambridge	-11.4703
▁hodiaŭa	-11.4703
▁karaj	-11.4708
▁donacoj	-11.4709
▁formato	-11.4711
bank	-11.4714
▁donitaj	-11.4716
▁issued	-11.4716
▁demokratia	-11.4716
▁tiama	-11.4717
▁sirio	-11.4718
▁forigita	-11.4721
bis	-11.4722
▁antau	-11.4722
▁sidi	-11.4722
▁stomach	-11.4723
▁huawei	-11.4723
▁prenita	-11.4723
▁morala	-11.4723
▁sc	-11.4724
▁denmark	-11.4726
▁prizorgado	-11.4727
ket	-11.4727
▁arkitekto	-11.4728
▁restado	-11.4729
pla	-11.4729
▁maj	-11.4733
▁kulpo	-11.4733
▁experiments	-11.4734
▁mysterious	-11.4736
sson	-11.4736
▁1935	-11.4737
▁2013.	-11.4738
▁demanded	-11.4739
▁aserto	-11.4739
▁funds	-11.4739
▁prelego	-11.474
▁alfrontas	-11.4742
▁turni	-11.4743
▁yan	-11.4743
▁wilhelm	-11.4749
▁kongruas	-11.4749
▁hejmon	-11.4751
▁resulted	-11.4751
▁bando	-11.4753
▁ondoj	-11.4754
▁paŝon	-11.4755
▁tang	-11.4756
▁kul	-11.4757
▁eterne	-11.4759
rak	-11.476
▁khan	-11.4763
▁forgesi	-11.4766
▁pasaĝeroj	-11.4766
▁esprimas	-11.4767
▁fortika	-11.4767
▁naĝi	-11.4771
▁endless	-11.4771
▁900	-11.4772
▁influis	-11.4774
▁wie	-11.4775
▁disney	-11.4775
▁shock	-11.4775
▁arc	-11.4776
ique	-11.4776
▁ŝanĝon	-11.4776
▁figuroj	-11.4776
ikoj	-11.4777
▁limigi	-11.4778
sil	-11.4779
▁registara	-11.4783
ér	-11.4783
▁alfred	-11.4783
▁excited	-11.4785
▁eldonis	-11.4788
viv	-11.4788
▁strictly	-11.4788
▁classification	-11.4789
▁recover	-11.4789
▁vizaĝ	-11.4789
▁footballer	-11.479
▁senato	-11.4792
▁fibro	-11.4794
ו	-11.4795
▁muhammad	-11.4795
▁parliamentary	-11.4796
▁ifsw	-11.4796
▁ekspedicio	-11.4798
▁tabulo	-11.4801
▁winner	-11.4801
▁commitment	-11.4802
▁publications	-11.4803
▁kantojn	-11.4803
▁sm	-11.4804
kto	-11.4806
▁presi	-11.4807
▁210	-11.4808
▁respondeca	-11.4809
front	-11.481
kal	-11.4811
▁kir	-11.4812
▁soldato	-11.4812
▁rival	-11.4813
▁titolon	-11.4814
▁crew	-11.4816
boj	-11.4816
▁jardeko	-11.4817
▁glacio	-11.4817
▁absurd	-11.4818
▁appearing	-11.482
ando	-11.482
ê	-11.4821
▁vicprezidanto	-11.4821
▁potencoj	-11.4823
▁dual	-11.4824
▁gut	-11.4827
▁ferioj	-11.4827
▁konsiloj	-11.4827
▁lernejon	-11.4829
▁chicken	-11.4831
▁telegram	-11.4833
▁instance	-11.4833
▁rang	-11.4833
▁saudi	-11.4837
▁pasas	-11.4837
▁kulturon	-11.484
▁streaming	-11.4841
▁therapy	-11.4841
▁menuo	-11.4842
▁av	-11.4843
▁gamon	-11.4843
▁15.	-11.4844
▁gvidi	-11.4847
▁implementation	-11.485
▁proporcio	-11.4851
▁cruel	-11.4851
chu	-11.4851
▁loud	-11.4852
▁qualities	-11.4854
gia	-11.4854
legu	-11.4854
mul	-11.4855
▁fak	-11.4856
▁reformo	-11.4859
▁castro	-11.486
▁historie	-11.4861
ová	-11.4861
▁nas	-11.4862
▁nask	-11.4863
▁waited	-11.4866
▁produces	-11.4866
▁pliigas	-11.4866
ded	-11.4866
▁arrest	-11.4867
▁flesh	-11.4868
▁adjust	-11.4868
▁tomaso	-11.4869
▁profundo	-11.4869
▁ras	-11.487
kom	-11.487
▁ami	-11.4871
▁vario	-11.4872
▁š	-11.4872
▁vain	-11.4872
▁regiment	-11.4872
▁escepte	-11.4874
▁budapest	-11.4876
▁poll	-11.4876
malpli	-11.4876
▁havante	-11.4877
▁najbaroj	-11.4878
mort	-11.4879
ici	-11.488
ib	-11.488
▁municipal	-11.4881
▁sony	-11.4882
▁mesaĝoj	-11.4886
▁jug	-11.4887
▁satisfied	-11.4888
▁ulo	-11.4888
▁geographical	-11.489
tina	-11.489
▁severa	-11.4892
▁approval	-11.4894
▁instrumentoj	-11.4895
▁apo	-11.4895
▁kanton	-11.4895
▁apk	-11.4895
▁chairs	-11.49
▁bach	-11.49
▁metropolitan	-11.4901
▁literoj	-11.4901
▁novels	-11.4902
▁pub	-11.4904
▁scion	-11.4905
-10	-11.4906
▁okup	-11.4908
▁jerusalemo	-11.4908
▁inkludis	-11.491
▁katoj	-11.4913
▁continuously	-11.4913
ual	-11.4913
▁berg	-11.4914
▁fremdaj	-11.4916
▁urbaj	-11.4917
▁mature	-11.4918
▁pejzaĝo	-11.4919
▁ibn	-11.4922
▁width	-11.4923
▁francan	-11.4925
antino	-11.4925
▁emerged	-11.4926
▁coalition	-11.4927
▁migration	-11.4927
▁moseo	-11.4928
▁vek	-11.4929
▁density	-11.4932
▁lucky	-11.4932
▁outdoor	-11.4933
▁batalis	-11.4933
▁hy	-11.4935
▁lang	-11.4935
eman	-11.4935
-7	-11.4936
▁malpermeso	-11.4937
▁diskut	-11.4937
▁sesa	-11.4937
▁patent	-11.4937
▁nutri	-11.494
▁employment	-11.4941
tipo	-11.4942
▁hebrea	-11.4942
▁hook	-11.4943
”)	-11.4944
kap	-11.4945
▁adoleskantoj	-11.4947
▁litovio	-11.4948
▁eric	-11.4948
▁mankis	-11.4951
▁tir	-11.4952
▁distinct	-11.4952
▁tunnel	-11.4954
▁testoj	-11.4955
▁fra	-11.4956
dal	-11.4957
▁horizon	-11.4957
zel	-11.4957
▁\).	-11.4958
▁wounded	-11.496
▁sociajn	-11.496
▁grafo	-11.4963
▁smiled	-11.4963
▁egala	-11.4963
▁unuoj	-11.4964
▁traditionally	-11.4967
▁haŭton	-11.4967
una	-11.4968
▁otto	-11.4968
▁certan	-11.4969
▁vane	-11.497
▁aunt	-11.4972
▁horloĝo	-11.4972
▁kiss	-11.4972
▁guidance	-11.4974
▁buso	-11.4974
▁bankoj	-11.4975
roman	-11.4977
▁harmony	-11.4977
▁plug	-11.4979
trov	-11.4979
▁modify	-11.498
▁polvo	-11.4983
▁rail	-11.4989
▁moviĝi	-11.4989
▁viruso	-11.499
▁trian	-11.499
▁traduki	-11.499
▁circles	-11.499
▁griza	-11.4993
▁prezentado	-11.4993
▁rejected	-11.4994
▁konsideris	-11.4994
▁mezepoko	-11.4994
▁kunvenoj	-11.4995
▁katastrofo	-11.4996
▁exercises	-11.4996
▁deziron	-11.4997
▁170	-11.4998
▁sovet	-11.4999
sim	-11.5001
▁representation	-11.5001
▁verkado	-11.5001
▁factories	-11.5002
▁discipline	-11.5003
▁pasigas	-11.5005
▁davis	-11.5006
atory	-11.5007
spir	-11.5007
▁ambassador	-11.5008
▁vendredo	-11.5008
▁1908	-11.5012
ised	-11.5013
kl	-11.5014
▁subscription	-11.5014
▁deputy	-11.5014
▁worst	-11.5014
nombro	-11.5014
▁sovaĝa	-11.5015
▁pliigita	-11.5015
▁poemo	-11.5016
▁malriĉa	-11.5017
▁pine	-11.5019
▁liberigita	-11.5021
ked	-11.5021
▁inspection	-11.5022
▁steve	-11.5022
▁desegni	-11.5028
▁disaster	-11.5028
▁ampleksan	-11.503
▁baron	-11.503
▁anĝelo	-11.503
▁fum	-11.5032
▁correction	-11.5033
▁adds	-11.5033
▁gang	-11.5037
▁lokojn	-11.5037
logia	-11.5037
▁coal	-11.5039
ija	-11.504
▁covering	-11.504
rev	-11.5042
▁educated	-11.5043
▁90%	-11.5043
▁sponsor	-11.5043
row	-11.5045
▁sonĝi	-11.5047
▁grupojn	-11.5048
loĝ	-11.5048
▁informis	-11.5048
▁tromp	-11.5051
▁info	-11.5053
▁neighbor	-11.5054
gho	-11.5054
▁madrido	-11.5055
▁cp	-11.5056
▁medion	-11.5056
leĝo	-11.5057
▁mess	-11.5058
▁konservu	-11.5058
▁fond	-11.5061
▁kantis	-11.5061
▁nepal	-11.5062
▁valuto	-11.5064
▁blame	-11.5064
▁meksika	-11.5066
nica	-11.5067
.“	-11.5067
▁ludojn	-11.5068
▁applies	-11.5068
map	-11.5069
▁fondaĵo	-11.5071
▁grav	-11.5074
being	-11.5074
▁egiptujo	-11.5075
▁muslim	-11.5078
▁vpn	-11.5079
kodo	-11.5081
▁apartan	-11.5083
▁fest	-11.5085
▁minimuma	-11.5086
▁doktrino	-11.5086
▁kunlaboron	-11.5086
▁yield	-11.5088
▁retropasi	-11.5089
▁sciigi	-11.5089
р	-11.5089
▁honey	-11.5091
klin	-11.5091
atoj	-11.5092
▁ilojn	-11.5093
▁titles	-11.5093
▁occupy	-11.5094
▁movo	-11.5095
▁medicinaj	-11.5096
▁unhappy	-11.5096
▁tenu	-11.5097
making	-11.5097
▁informa	-11.5099
▁belga	-11.51
▁terapio	-11.51
▁injuries	-11.5102
▁sufero	-11.5103
▁acceptance	-11.5103
▁rusia	-11.5104
و	-11.5105
▁horn	-11.5106
▁vikimedia	-11.5107
▁principal	-11.5108
▁isolated	-11.5111
▁ein	-11.5112
▁26-	-11.5113
▁kutimaj	-11.5113
▁monteto	-11.5115
▁spo	-11.5118
fully	-11.5119
unio	-11.512
▁followers	-11.5124
▁conservation	-11.5124
▁(...)	-11.5124
▁klo	-11.5125
▁spr	-11.5125
ŝipo	-11.5125
▁pastroj	-11.5125
▁jene	-11.5128
▁eve	-11.5128
▁agordoj	-11.5131
▁confirm	-11.5133
▁dirty	-11.5133
▁tribe	-11.5137
solv	-11.514
▁atomic	-11.514
▁rusaj	-11.5142
▁pressed	-11.5143
▁datreveno	-11.5144
▁kolekt	-11.5145
▁korp	-11.5147
▁journalists	-11.5147
▁$4	-11.5149
▁akceli	-11.5149
▁kostoj	-11.5151
▁extend	-11.5156
▁rev	-11.5158
gla	-11.5158
▁kalkulis	-11.5159
!!!	-11.5161
▁vok	-11.5162
▁ordinaraj	-11.5163
▁kelka	-11.5163
▁guardian	-11.5164
▁negoco	-11.5164
dd	-11.5164
bed	-11.5165
▁efektivigi	-11.5165
▁registaron	-11.5166
igata	-11.5169
▁lg	-11.517
▁afabla	-11.517
gate	-11.5171
▁geografio	-11.5175
▁1913	-11.5177
▁pes	-11.5178
▁minaco	-11.5179
ori	-11.518
ude	-11.518
▁ozma	-11.5183
▁ted	-11.5183
▁venue	-11.5183
▁kata	-11.5183
▁clay	-11.5185
▁eksciis	-11.5188
▁provizanto	-11.5188
▁ŝancojn	-11.5192
▁distribuo	-11.5194
▁edz	-11.5195
▁transformed	-11.5198
▁situo	-11.5199
▁agents	-11.5204
▁stored	-11.5204
▁regulation	-11.5204
▁grandmother	-11.5205
▁opero	-11.5206
▁neighborhood	-11.5206
▁programming	-11.5207
▁taxes	-11.5207
▁lovers	-11.5207
▁ekkriis	-11.5209
▁neuro	-11.521
▁[+]	-11.5211
▁verŝ	-11.5213
▁maljunuloj	-11.5214
▁solidareco	-11.5215
▁eksterlanda	-11.5218
▁provincial	-11.5218
irante	-11.5219
▁companion	-11.522
▁mistakes	-11.5222
▁ple	-11.5222
▁slovak	-11.5224
▁bacteria	-11.5225
▁significance	-11.5225
▁lip	-11.5227
▁feared	-11.5228
▁greetings	-11.523
▁machinery	-11.5231
▁malfeliĉa	-11.5232
▁poŝtelefonoj	-11.5232
wer	-11.5232
ved	-11.5233
▁brakoj	-11.5233
▁konservis	-11.5234
▁cc	-11.5236
rang	-11.5237
phe	-11.5237
▁santiago	-11.5239
▁flexible	-11.5239
▁dividu	-11.5239
ologist	-11.524
▁liberan	-11.524
▁falsa	-11.5241
▁prelegoj	-11.5242
▁organo	-11.5243
▁reactions	-11.5245
▁norway	-11.5248
▁substanco	-11.5248
▁barrier	-11.5248
▁1911	-11.5248
periodo	-11.5249
pes	-11.5252
▁dosierojn	-11.5252
▁verk	-11.5252
▁reveal	-11.5253
▁cirklo	-11.5253
▁ecx	-11.5253
な	-11.5253
▁hotels	-11.5254
▁raporton	-11.5255
▁similajn	-11.5256
▁montriĝis	-11.5257
▁pripensi	-11.5261
▁reduktas	-11.5261
▁theories	-11.5262
▁cabin	-11.5265
▁vendoj	-11.5265
▁afghanistan	-11.5266
▁trained	-11.5267
grupoj	-11.5268
▁graf	-11.5269
ы	-11.5269
ht	-11.5272
ball	-11.5272
▁deceased	-11.5273
▁profiti	-11.5274
gxu	-11.5277
▁intensa	-11.5278
▁japanaj	-11.528
▁string	-11.5281
▁compatible	-11.5284
▁apartment	-11.5284
intoj	-11.5286
▁sv	-11.5287
▁utilaj	-11.5287
▁rear	-11.5288
▁campaigns	-11.5289
▁colony	-11.529
▁mining	-11.5293
lang	-11.5295
▁platformoj	-11.5295
▁rapidecon	-11.5296
▁ekiris	-11.5297
av	-11.5297
▁carlo	-11.5297
▁possession	-11.5298
▁tr	-11.5298
9%	-11.5299
▁sciigis	-11.53
leg	-11.53
stri	-11.5301
ther	-11.5304
▁avino	-11.5304
▁scienc	-11.5307
gui	-11.5307
enko	-11.5308
▁2016.	-11.5309
bie	-11.531
▁industrioj	-11.531
▁centr	-11.5311
▁freneza	-11.5311
▁statuo	-11.5312
ν	-11.5312
▁dying	-11.5312
▁intencis	-11.5312
▁scholars	-11.5314
▁skotlando	-11.5315
▁suggestions	-11.5317
▁kolera	-11.5317
▁tradukita	-11.5317
▁[7]	-11.5318
▁basin	-11.5321
▁margaret	-11.5322
▁conversations	-11.5322
jaro	-11.5323
▁capitalism	-11.5324
▁kortumo	-11.5324
▁sencon	-11.5324
▁kontentigi	-11.5326
▁fuŝ	-11.5327
▁mensa	-11.5328
▁bureau	-11.5329
▁drogoj	-11.533
▁tear	-11.533
lf	-11.5332
▁spaces	-11.5333
▁karno	-11.5334
▁rigid	-11.5335
▁ky	-11.5337
▁economics	-11.5341
mor	-11.5342
▁asertoj	-11.5347
▁repeatedly	-11.5349
▁malfermas	-11.535
▁1500	-11.5351
▁leviĝis	-11.5352
▁esencaj	-11.5353
▁benjamin	-11.5356
▁restoracioj	-11.5359
▁opinioj	-11.5361
ów	-11.5363
▁ripozi	-11.5363
ids	-11.5363
▁anxiety	-11.5363
key	-11.5364
▁ry	-11.5364
ving	-11.537
▁treasure	-11.5371
▁yang	-11.5371
▁decidoj	-11.5372
▁brilliant	-11.5373
▁testamento	-11.5375
milito	-11.5375
high	-11.5376
▁1980-	-11.5376
▁aaron	-11.5377
▁beliefs	-11.5377
▁redukto	-11.5378
kvalito	-11.5378
▁peko	-11.5379
▁rado	-11.538
▁televid	-11.538
▁menciitaj	-11.5381
▁tertremo	-11.5383
watch	-11.5384
▁(6	-11.5385
▁cake	-11.5386
serv	-11.5386
▁2011.	-11.5387
clock	-11.5388
▁hunt	-11.5388
▁lover	-11.5391
▁paypal	-11.5392
▁vira	-11.5398
▁humil	-11.5398
▁thermal	-11.54
▁tram	-11.5401
▁agordo	-11.5402
▁komputilon	-11.5403
▁kanti	-11.5404
▁funkcia	-11.5404
▁enhavis	-11.5404
▁epidemic	-11.5405
▁url	-11.5406
tom	-11.5406
▁heroo	-11.5407
▁reĝoj	-11.5407
▁mortinta	-11.5408
600	-11.5412
2-	-11.5412
▁laŭte	-11.5413
▁anton	-11.5414
▁fiksita	-11.5414
ioj	-11.5416
2]	-11.5417
▁henri	-11.5418
▁till	-11.5418
▁280	-11.5418
▁balot	-11.5419
▁aeron	-11.5419
▁ekzercado	-11.542
▁uzebla	-11.542
▁disponigas	-11.542
▁estaĵo	-11.5422
▁recipe	-11.5424
▁totally	-11.5424
▁klas	-11.5425
▁aktivuloj	-11.5425
▁1924	-11.5428
▁spur	-11.5433
▁(7	-11.5434
▁1923	-11.5434
▁joke	-11.5435
▁petr	-11.5435
pm	-11.5435
▁koncernas	-11.5436
iza	-11.5437
▁rizo	-11.544
dri	-11.5441
▁sink	-11.5442
▁inspiration	-11.5443
▁pakistano	-11.5443
▁3)	-11.5443
▁specifications	-11.5444
▁sudden	-11.5444
▁tranĉi	-11.5445
▁drinks	-11.5445
▁engage	-11.5446
▁lasting	-11.5446
▁formado	-11.5449
glo	-11.545
▁musicians	-11.545
▁floro	-11.545
▁ekvidis	-11.545
▁implemented	-11.5451
▁stel	-11.5452
▁satellite	-11.5452
▁beans	-11.5452
▁tendaro	-11.5454
▁admir	-11.5454
▁polo	-11.5454
▁exception	-11.5455
▁cheerful	-11.5455
▁uv	-11.5459
▁duonon	-11.5461
▁sinjor	-11.5463
▁passport	-11.5463
▁riĉeco	-11.5466
dojn	-11.5466
▁generi	-11.5468
▁malfacilaj	-11.5473
▁allies	-11.5475
▁diplomat	-11.5476
▁brusto	-11.5478
▁supplement	-11.548
▁lively	-11.548
▁ska	-11.5485
▁mallonge	-11.5487
▁2.5	-11.5488
▁translator	-11.5489
▁invitis	-11.549
▁dishes	-11.5493
▁diskutoj	-11.5493
▁firstly	-11.5496
▁%1	-11.5496
▁correspondence	-11.5497
plant	-11.5497
qua	-11.5498
▁gel	-11.5499
▁icon	-11.5499
▁1925	-11.55
▁klimata	-11.55
▁facil	-11.5502
icia	-11.5502
▁dispon	-11.5503
▁referenco	-11.5504
▁arise	-11.5507
▁parencoj	-11.5508
ée	-11.5508
▁asserted	-11.551
▁ejoj	-11.551
▁sak	-11.551
▁cemetery	-11.5511
▁murdered	-11.5511
▁kristanaj	-11.5512
▁pairs	-11.5512
tita	-11.5513
▁esperantaj	-11.5514
▁novaĵojn	-11.5515
▁kartoj	-11.5515
▁operacioj	-11.5515
▁dra	-11.5515
http	-11.5516
bil	-11.5516
▁scenes	-11.5519
▁5:	-11.5522
▁intervention	-11.5523
▁kaŝita	-11.5525
▁ekstra	-11.5525
▁diameter	-11.5525
▁jin	-11.5526
▁krim	-11.5526
▁liveri	-11.5527
▁dana	-11.5528
▁konstitucia	-11.553
landoj	-11.553
▁malgrand	-11.553
▁ŝpar	-11.553
▁loudly	-11.553
taks	-11.553
uli	-11.5531
▁fab	-11.5531
▁continuing	-11.5532
▁ĉeno	-11.5532
▁publik	-11.5533
▁strukturon	-11.5534
▁resume	-11.5537
▁imagination	-11.5539
▁routine	-11.5539
fino	-11.554
▁movadon	-11.5541
cioj	-11.5542
▁akv	-11.5542
▁delikata	-11.5542
▁zoom	-11.5542
▁ĉeesti	-11.5543
▁trankvile	-11.5546
▁chile	-11.5547
ging	-11.5547
▁kurac	-11.5547
▁interno	-11.5548
▁rompi	-11.5548
▁simpl	-11.5549
▁kuir	-11.555
▁hills	-11.5551
▁ordono	-11.5552
▁restanta	-11.5552
cie	-11.5552
▁premier	-11.5553
▁tape	-11.5553
▁participating	-11.5553
▁procezoj	-11.5555
▁altkvalita	-11.5555
▁instrumento	-11.5557
▁intertempe	-11.5557
krom	-11.556
▁fakultato	-11.556
familio	-11.5562
▁ĉirkaŭe	-11.5562
metro	-11.5562
▁harmful	-11.5563
▁esper	-11.5564
▁bigger	-11.5564
ule	-11.5565
unua	-11.5565
▁komercisto	-11.5566
fak	-11.5567
ink	-11.5569
teamo	-11.5569
▁firma	-11.557
▁1970-	-11.557
bl	-11.557
▁loose	-11.5571
▁random	-11.5571
▁examine	-11.5572
▁grandioza	-11.5575
▁consume	-11.5575
granda	-11.5576
gr	-11.5576
▁disvastiĝo	-11.5576
▁solvojn	-11.5577
lingvaj	-11.5581
▁victim	-11.5582
▁removal	-11.5582
▁grandegan	-11.5582
tata	-11.5582
▁1960-	-11.5586
▁fiŝo	-11.5586
▁starigo	-11.5587
▁gin	-11.5587
▁romanoj	-11.5587
▁rekoni	-11.5588
▁deals	-11.559
hold	-11.5593
▁clo	-11.5593
cing	-11.5594
meto	-11.5595
▁fabrikanto	-11.5596
▁unuopaj	-11.5596
scale	-11.5596
▁aĝoj	-11.5597
▁metala	-11.5598
▁{	-11.5598
first	-11.5599
▁alfabeto	-11.5599
▁specojn	-11.56
▁beginners	-11.5601
▁independently	-11.5603
▁enterprises	-11.5605
▁utilas	-11.5605
▁decid	-11.5606
▁substances	-11.5606
▁reply	-11.5607
▁2001,	-11.5607
▁104	-11.5608
trud	-11.5609
▁verses	-11.5609
ify	-11.561
▁hydro	-11.5611
▁animon	-11.5611
▁dosieroj	-11.5612
▁organs	-11.5612
▁consult	-11.5614
▁dish	-11.5614
▁koreio	-11.5614
▁kler	-11.5615
▁simboloj	-11.5616
konduk	-11.5617
▁harvard	-11.5618
▁arguments	-11.5618
▁pretty	-11.5618
sar	-11.5619
▁grande	-11.5619
▁grandfather	-11.562
regul	-11.5621
▁rhythm	-11.5622
▁opcio	-11.5622
▁yard	-11.5623
▁rolling	-11.5624
▁buses	-11.5626
▁matenon	-11.5626
▁fathers	-11.5627
▁aŭskultu	-11.5628
glu	-11.563
▁stadium	-11.5632
▁bakterioj	-11.5633
▁adapted	-11.5634
pal	-11.5636
▁backwards	-11.5637
▁2017.	-11.5637
▁hath	-11.5637
▁tutmondaj	-11.5638
stoj	-11.5639
▁edited	-11.5639
▁ĉiujara	-11.5639
▁semajnojn	-11.564
▁konservita	-11.5641
▁surprising	-11.5641
▁instalaĵoj	-11.5642
▁2002,	-11.5645
▁rezolucio	-11.5646
▁relativa	-11.5646
iel	-11.5647
▁homan	-11.5649
▁stranger	-11.5652
tain	-11.5653
▁emergency	-11.5653
▁portable	-11.5653
▁unuiĝinta	-11.5654
▁protective	-11.5655
▁cape	-11.5657
}}	-11.5659
▁parks	-11.566
▁opens	-11.5661
▁danco	-11.5661
▁extract	-11.5661
▁kompletigi	-11.5662
▁gaming	-11.5663
▁viron	-11.5664
▁ordeno	-11.5664
▁brush	-11.5664
▁drivers	-11.5665
tuko	-11.5665
▁spe	-11.5667
▁digest	-11.5667
▁explosion	-11.5668
▁faculty	-11.5668
▁strukturoj	-11.5668
▁bis	-11.5668
▁supporters	-11.5669
▁organizado	-11.5669
pol	-11.567
eti	-11.567
▁1907	-11.567
▁herb	-11.567
▁solaj	-11.5671
▁pasintan	-11.5672
▁klopodas	-11.5672
▁ŝpruc	-11.5673
aĝo	-11.5674
▁kritiko	-11.5675
▁seminar	-11.5675
▁gathering	-11.5676
word	-11.5677
▁futbalisto	-11.5677
▁fizikaj	-11.5679
bad	-11.568
gard	-11.5681
▁salvation	-11.5682
▁duoble	-11.5682
▁kis	-11.5685
▁pensojn	-11.5686
▁analizi	-11.5687
▁asociita	-11.5688
▁komunuma	-11.5689
▁datumbazo	-11.5689
▁butter	-11.569
made	-11.569
down	-11.5691
▁requests	-11.5691
▁mos	-11.5692
hen	-11.5694
▁boss	-11.5694
▁klopodis	-11.5694
gil	-11.5695
▁removing	-11.5696
▁forgot	-11.5696
alta	-11.5699
▁junularo	-11.57
▁atmosfero	-11.5701
premi	-11.5703
code	-11.5703
▁2021,	-11.5703
▁popolon	-11.5703
▁trajto	-11.5705
▁expanded	-11.5706
▁navigation	-11.5706
▁beautifully	-11.5708
▁ringo	-11.5708
▁rec	-11.5709
▁28-	-11.5709
▁unite	-11.571
▁dekstre	-11.5716
ction	-11.5716
▁container	-11.5717
▁considerable	-11.5717
▁josef	-11.5719
ston	-11.572
▁inteligenteco	-11.5721
▁seĝoj	-11.5723
▁kad	-11.5723
▁eaten	-11.5726
▁rikolto	-11.5726
▁fleg	-11.5728
▁kategorioj	-11.5728
▁oven	-11.5729
▁temojn	-11.573
▁wider	-11.573
▁kid	-11.5732
▁skill	-11.5733
▁desk	-11.5733
vir	-11.5734
▁chrome	-11.5734
patro	-11.5735
▁duko	-11.5736
▁rezulton	-11.5738
▁census	-11.574
▁keys	-11.5741
-14	-11.5742
▁boris	-11.5742
▁esprimoj	-11.5743
▁insects	-11.5746
kred	-11.5746
▁voyage	-11.5747
▁2018,	-11.5747
▁separation	-11.5748
▁premu	-11.5748
▁giorgio	-11.5749
▁compute	-11.575
▁deklaracio	-11.5754
▁amikino	-11.5754
tera	-11.5755
▁acted	-11.5755
▁salut	-11.5756
▁frazoj	-11.5757
▁kde	-11.5758
cel	-11.576
▁inkluzivi	-11.576
eri	-11.576
▁lithuanian	-11.5761
▁sierra	-11.5761
▁senditaj	-11.5762
▁ideologio	-11.5762
▁reduces	-11.5763
▁plat	-11.5765
▁dubo	-11.5767
▁kontribuo	-11.5767
▁ĉevaloj	-11.5768
▁excursion	-11.5769
elekt	-11.577
libroj	-11.5771
▁basketball	-11.5772
▁konsento	-11.5774
▁lanĉi	-11.5777
▁ruler	-11.5779
▁raz	-11.5781
▁amikon	-11.5782
▁aera	-11.5783
tiva	-11.5784
▁posttagmeze	-11.5785
two	-11.5785
▁civito	-11.5786
▁kok	-11.5787
▁aŭtuno	-11.5787
1-	-11.5788
▁daŭr	-11.5789
▁accelerate	-11.579
▁kunlabora	-11.579
▁accuracy	-11.579
▁filmojn	-11.5791
procezo	-11.5792
active	-11.5792
xo	-11.5793
▁simplan	-11.5793
▁confess	-11.5794
mit	-11.5795
▁komercan	-11.5796
istojn	-11.5796
▁kontribuas	-11.5796
▁eksperimentoj	-11.5797
▁reklamado	-11.5797
▁malamo	-11.5798
▁roles	-11.5799
teknologio	-11.5799
sol	-11.5799
▁estanta	-11.5799
▁sesio	-11.5799
▁kablo	-11.58
▁minuto	-11.5802
rov	-11.5803
▁tested	-11.5805
chy	-11.5805
▁aldonita	-11.5805
▁longdaŭra	-11.5806
▁mezuro	-11.5807
▁konsidero	-11.5808
▁amerikaj	-11.5808
▁centroj	-11.5808
▁respondoj	-11.5809
▁sho	-11.5809
▁stan	-11.5809
test	-11.5809
▁britoj	-11.5812
▁staton	-11.5813
dl	-11.5814
▁1951	-11.5814
▁minimume	-11.5816
▁widespread	-11.5819
▁provizora	-11.582
▁phil	-11.5821
▁maljunaj	-11.5821
▁prizorgi	-11.5822
klubo	-11.5822
▁masko	-11.5822
▁hoped	-11.5822
▁briefly	-11.5824
▁ebligis	-11.5824
eblan	-11.5828
▁applying	-11.5828
▁ottoman	-11.5829
▁samo	-11.5831
▁warned	-11.5832
▁neĝ	-11.5832
▁comp	-11.5837
▁produktitaj	-11.5839
▁engines	-11.5841
▁eg	-11.5841
▁scottish	-11.5842
▁farus	-11.5842
▁kruroj	-11.5843
numero	-11.5843
▁serĉu	-11.5843
▁brun	-11.5844
▁kongresoj	-11.5844
▁voting	-11.5845
▁kurson	-11.5846
▁moneroj	-11.5847
▁ligas	-11.5847
pres	-11.5847
▁butikoj	-11.5849
heko	-11.5849
▁ovojn	-11.5849
volv	-11.5851
▁prisoners	-11.5852
▁chen	-11.5852
▁spino	-11.5852
nton	-11.5853
▁engineers	-11.5853
||8	-11.5854
▁crossed	-11.5856
▁ease	-11.5856
▁familianoj	-11.5857
▁permesos	-11.5858
▁certificate	-11.5859
▁loving	-11.5859
▁trunk	-11.586
▁ev	-11.586
▁mai	-11.586
▁2005.	-11.5861
▁instigas	-11.5862
▁writings	-11.5863
▁bronze	-11.5863
cri	-11.5864
▁adaptation	-11.5864
aya	-11.5864
▁dose	-11.5864
▁poŝt	-11.5865
respond	-11.5867
▁testi	-11.587
▁obey	-11.5871
▁sendo	-11.5872
▁willingly	-11.5874
к	-11.5875
▁portrait	-11.5875
▁statements	-11.5877
▁misfortune	-11.5878
▁sekvanta	-11.5879
▁amsterdam	-11.588
▁cele	-11.5881
▁dialogo	-11.5881
▁168	-11.5882
▁bai	-11.5883
▁accessories	-11.5885
▁certification	-11.5886
▁sarah	-11.5886
▁ekzistanta	-11.5886
▁norwegian	-11.5887
▁imago	-11.5887
wil	-11.5889
▁invent	-11.5889
▁radikoj	-11.589
▁futbalo	-11.5892
▁posedantoj	-11.5892
▁fm	-11.5892
▁gates	-11.5892
▁broadcasting	-11.5893
▁27-	-11.5894
▁komprenon	-11.5895
▁metalo	-11.5897
tablo	-11.5898
▁phenomena	-11.59
▁worried	-11.59
▁demo	-11.59
▁assist	-11.5901
3,	-11.5906
▁collapse	-11.5907
▁forming	-11.5907
▁spektantaro	-11.5907
▁plian	-11.5909
valo	-11.591
з	-11.5911
▁lasts	-11.5912
▁(10	-11.5913
▁sufer	-11.5914
▁juĝ	-11.5914
▁cease	-11.5915
▁vikimedio	-11.5915
▁kamparo	-11.5916
bak	-11.5916
▁100,000	-11.5916
▁ĉa	-11.5916
一	-11.5916
▁materialojn	-11.5917
▁episode	-11.5917
▁necesajn	-11.5918
▁bezonatas	-11.5918
▁prophet	-11.5918
▁devoted	-11.5919
▁substancoj	-11.592
▁matcha	-11.592
▁gvidas	-11.592
tono	-11.592
mut	-11.5921
▁tombejo	-11.5923
▁komplete	-11.5924
▁akademia	-11.5925
▁ss	-11.5926
uff	-11.5927
▁studas	-11.5927
▁anoj	-11.5928
▁mak	-11.5929
▁monero	-11.5931
▁seal	-11.5931
▁dispute	-11.5932
▁ranking	-11.5932
▁masters	-11.5935
▁ritmo	-11.5935
▁bril	-11.5935
▁exact	-11.5936
tem	-11.5936
▁fairy	-11.5937
▁fragment	-11.5937
kontrolo	-11.5937
▁cafe	-11.5938
yer	-11.5939
▁sixth	-11.5941
▁komparo	-11.5944
▁nokta	-11.5946
▁rosa	-11.5946
▁infanaĝo	-11.5947
▁claude	-11.5949
▁edzinon	-11.5949
▁subtenis	-11.5949
▁compete	-11.595
▁socialismo	-11.5951
▁averto	-11.5951
nivelo	-11.5951
▁144	-11.5952
▁hont	-11.5953
▁konscias	-11.5956
ل	-11.5956
▁gaja	-11.5956
▁ĥ	-11.5956
▁attached	-11.5956
▁dealing	-11.5957
▁talks	-11.5957
▁heavily	-11.5959
▁sorrow	-11.5961
▁stages	-11.5961
▁roger	-11.5961
▁temperaturoj	-11.5961
▁bestojn	-11.5963
▁fervoja	-11.5963
▁riding	-11.5964
▁generate	-11.5964
▁romp	-11.5965
▁municipalities	-11.5967
▁konsideru	-11.5968
▁tradukoj	-11.5968
plano	-11.5968
▁breaking	-11.5969
▁60.	-11.597
▁instalita	-11.5972
▁bataloj	-11.5972
▁crazy	-11.5974
uso	-11.5975
▁magnetic	-11.5976
▁restarigi	-11.5977
▁175	-11.5977
place	-11.5979
▁tuŝ	-11.598
▁donante	-11.5982
▁shouldn	-11.5984
▁telefona	-11.5984
▁ou	-11.5987
▁hollywood	-11.5989
▁mathematical	-11.5989
▁senfina	-11.5989
▁telefonon	-11.5989
varm	-11.599
▁exclusive	-11.5991
▁crypto	-11.5991
lam	-11.5993
▁nekonatan	-11.5994
▁eliras	-11.5994
▁ecoj	-11.5995
▁eagle	-11.5996
▁amounts	-11.5996
▁skriba	-11.5997
ра	-11.5999
longa	-11.6
▁achievements	-11.6002
▁indiana	-11.6002
▁ministers	-11.6004
▁negotiations	-11.6005
▁thi	-11.6008
▁evoluigis	-11.6008
▁matĉo	-11.6008
▁reich	-11.6008
▁agadojn	-11.6009
▁320	-11.6009
▁biletoj	-11.6009
▁marc	-11.6009
▁difini	-11.601
▁telefonoj	-11.6011
▁della	-11.6011
▁rush	-11.6014
▁input	-11.6014
▁eŭ	-11.6014
▁ukraina	-11.6015
rad	-11.6015
▁eniro	-11.6019
▁apog	-11.602
▁facilitate	-11.6021
iĝus	-11.6022
▁politikoj	-11.6024
▁materialon	-11.6024
▁bos	-11.6025
▁dislike	-11.6026
atic	-11.6026
▁delegation	-11.6026
▁2000,	-11.6026
ß	-11.6026
act	-11.6028
▁limojn	-11.6028
organ	-11.6029
▁stereo	-11.6029
▁lifetime	-11.603
▁1906	-11.6031
▁depresio	-11.6034
в	-11.6034
▁ĥa	-11.6035
ikaj	-11.6035
rika	-11.6036
▁prezentitaj	-11.6036
▁wheels	-11.6037
▁esperantan	-11.604
lk	-11.604
▁formulo	-11.604
▁israela	-11.6041
▁critics	-11.6042
▁aprobita	-11.6043
▁alkoholo	-11.6045
▁kla	-11.6045
▁fortune	-11.6045
▁daughters	-11.6046
▁evoluigi	-11.6048
▁consisted	-11.6048
▁desktop	-11.6048
▁plural	-11.605
▁1927	-11.6051
▁retaj	-11.6052
||19	-11.6052
▁rakontojn	-11.6053
▁kvarono	-11.6054
▁raportas	-11.6054
▁kapt	-11.6054
▁cow	-11.6057
rna	-11.6057
wikipedia	-11.6057
▁bien	-11.6057
▁burden	-11.6058
▁considers	-11.606
▁battles	-11.606
▁okcidente	-11.606
▁ŝoforo	-11.606
▁planita	-11.6063
▁malsukcesis	-11.6064
▁kaptita	-11.6064
▁kombinita	-11.6064
ní	-11.6065
▁hus	-11.6065
▁naskiĝtago	-11.6065
▁profesio	-11.6066
▁fremduloj	-11.6066
▁proponoj	-11.6067
▁drawn	-11.6067
lip	-11.6072
▁hil	-11.6074
▁ebligi	-11.6075
▁poemoj	-11.6075
four	-11.6075
▁rejoice	-11.6077
▁paso	-11.6078
▁evoluon	-11.6079
▁spir	-11.6079
▁coloj	-11.608
tik	-11.608
▁princino	-11.6081
▁posed	-11.6081
▁carries	-11.6082
▁famo	-11.6083
▁realeco	-11.6084
▁taskojn	-11.6085
site	-11.6086
▁danish	-11.6086
▁bottles	-11.6088
▁pip	-11.609
▁olive	-11.6092
since	-11.6093
von	-11.6093
▁plasta	-11.6094
▁designs	-11.6094
▁spertaj	-11.6098
▁compassion	-11.61
lim	-11.61
▁ŝtonoj	-11.6101
▁wo	-11.6102
▁kataluna	-11.6103
3-	-11.6106
▁ŝtuparo	-11.6108
▁sincerely	-11.6109
▁komplika	-11.6111
▁gr	-11.6114
▁agojn	-11.6114
▁vitamino	-11.6115
▁corridor	-11.6115
zaj	-11.6116
kano	-11.6117
▁novaĵ	-11.6119
▁troa	-11.6119
▁leĝon	-11.612
▁hub	-11.612
▁panon	-11.6121
▁bonegaj	-11.6122
▁ml	-11.6123
▁argumento	-11.6123
metas	-11.6123
▁kongreson	-11.6123
▁ekskurso	-11.6124
▁konvinki	-11.6124
▁à	-11.6125
▁sz	-11.6126
▁asteroida	-11.6129
▁household	-11.6129
grad	-11.613
▁brussels	-11.613
▁malfermu	-11.613
▁chess	-11.6131
tron	-11.6133
white	-11.6133
▁vertical	-11.6134
▁alto	-11.6135
▁slot	-11.6136
▁holes	-11.6136
▁valorojn	-11.6136
vojaĝo	-11.6136
▁islamanoj	-11.6137
▁paradise	-11.6138
▁leather	-11.6138
▁structural	-11.614
▁dirite	-11.6141
▁ĵ	-11.6142
▁bezonon	-11.6143
▁sekcioj	-11.6144
▁convince	-11.6145
bona	-11.6146
▁organizers	-11.6146
▁prago	-11.6149
koreio	-11.615
varo	-11.6152
▁kovrilo	-11.6156
▁aged	-11.6156
anton	-11.6157
▁rum	-11.6157
▁consist	-11.6157
sekcio	-11.6157
▁jacques	-11.6158
▁smartphone	-11.6158
▁puno	-11.6159
▁slovakia	-11.6159
▁reciproke	-11.6161
uda	-11.6162
▁efektiv	-11.6163
▁leĝojn	-11.6163
▁numeron	-11.6164
▁interfaco	-11.6164
sam	-11.6167
▁tribes	-11.6167
▁etaj	-11.6167
▁comedy	-11.6168
▁combine	-11.6168
▁konsiderataj	-11.6168
▁70%	-11.6169
▁editing	-11.6169
▁teks	-11.6171
▁dormas	-11.6171
▁lightning	-11.6172
▁coach	-11.6172
▁kuko	-11.6172
▁chris	-11.6173
kolora	-11.6173
▁aktorino	-11.6174
▁planis	-11.6174
▁elementojn	-11.6174
▁konsilo	-11.6176
▁vatican	-11.6176
▁pak	-11.6177
▁fidi	-11.6178
▁moviĝis	-11.6178
▁elite	-11.6179
▁faced	-11.6179
▁travelers	-11.618
▁protektas	-11.6181
▁interese	-11.6181
▁vocabulary	-11.6183
▁jena	-11.6184
▁gard	-11.6184
▁vivojn	-11.6185
▁saints	-11.6187
stre	-11.619
▁eduk	-11.619
▁interes	-11.6191
ub	-11.6191
▁ceased	-11.6191
▁fluas	-11.6192
▁220	-11.6192
ño	-11.6193
qu	-11.6194
▁komandanto	-11.6194
▁pepper	-11.6195
▁weapon	-11.6196
▁papers	-11.6198
▁landing	-11.6199
politiko	-11.62
▁kd	-11.62
▁miller	-11.6201
▁grafika	-11.6201
▁ŝtataj	-11.6202
▁legebla	-11.6203
cast	-11.6204
▁essay	-11.6204
iĝoj	-11.6206
mult	-11.6207
gante	-11.6207
▁hinder	-11.6207
▁sceno	-11.6207
▁sovaĝaj	-11.6209
▁submit	-11.621
▁rap	-11.621
▁strikte	-11.6212
▁evolu	-11.6212
▁updates	-11.6212
▁panelo	-11.6213
▁estontecon	-11.6213
▁120.	-11.6214
ope	-11.6216
kultura	-11.6217
▁dokumenta	-11.6218
shire	-11.6219
▁championship	-11.6219
----------------	-11.6221
▁konstatis	-11.6222
▁cab	-11.6222
▁provizantoj	-11.6225
▁atakis	-11.6225
▁aktiv	-11.6225
▁searched	-11.6227
▁brit	-11.6227
▁korpa	-11.6228
▁palestinian	-11.6229
▁devo	-11.6229
fri	-11.623
い	-11.623
▁ekstrema	-11.623
▁plenty	-11.623
▁lernanto	-11.6232
▁consistent	-11.6232
▁rely	-11.6233
▁ekestis	-11.6234
▁oficiroj	-11.6234
▁enabled	-11.6235
region	-11.6237
▁courts	-11.6237
▁brief	-11.624
▁zen	-11.624
estis	-11.6241
▁hr	-11.6241
▁lor	-11.6242
cle	-11.6242
▁muskola	-11.6243
info	-11.6243
▁balta	-11.6244
▁kompat	-11.6244
▁armenio	-11.6244
▁hence	-11.6244
▁glata	-11.6246
▁fiasko	-11.6247
path	-11.6249
▁permesu	-11.6249
▁refuse	-11.625
▁mineral	-11.625
▁klopodo	-11.6252
pio	-11.6253
▁kolektas	-11.6253
▁mate	-11.6255
▁tony	-11.6256
▁maps	-11.6258
▁unikan	-11.6259
▁influential	-11.6259
▁1909	-11.626
▁wondered	-11.626
mr	-11.6261
▁nenian	-11.6261
▁volumeno	-11.6262
▁concluded	-11.6264
▁murmur	-11.6265
▁kreskigi	-11.6265
▁horizontal	-11.6265
▁calculated	-11.6266
▁automobile	-11.6267
eng	-11.6268
▁decree	-11.6269
▁semajne	-11.6273
▁verse	-11.6273
▁aliancanoj	-11.6274
▁duoninsulo	-11.6275
rka	-11.6275
▁multnombraj	-11.6275
▁nuboj	-11.6276
▁andreo	-11.6277
▁tech	-11.6277
َ	-11.6278
gur	-11.6279
▁fokus	-11.6279
▁az	-11.628
▁tiele	-11.628
▁ĝustatempe	-11.6283
▁fulfilled	-11.6284
▁seminario	-11.6284
▁oksigeno	-11.6285
ture	-11.6285
radio	-11.6287
▁akva	-11.6287
▁belajn	-11.6287
sun	-11.6289
▁sukcesaj	-11.6289
▁ŝatataj	-11.629
▁jet	-11.6291
▁bones	-11.6291
▁raporti	-11.6294
▁okazinta	-11.6295
▁ekzistantaj	-11.6296
▁pil	-11.6296
kura	-11.6296
▁sekvo	-11.6296
▁pulvoro	-11.6297
▁kontraste	-11.6297
▁pasintjare	-11.6297
▁permitted	-11.6298
▁2018.	-11.6298
▁fidon	-11.6299
▁revenue	-11.6301
▁galerio	-11.6302
▁rekonis	-11.6302
trakt	-11.6303
▁ferio	-11.6304
▁$5	-11.6304
▁surroundings	-11.6304
▁prizorgo	-11.6306
▁definitely	-11.6307
▁tale	-11.6308
▁hid	-11.6309
intaj	-11.6309
▁silently	-11.631
▁ĝeneralaj	-11.6311
▁trace	-11.6311
▁pastor	-11.6311
▁diferencas	-11.6312
▁reporting	-11.6312
▁streso	-11.6312
▁pr	-11.6313
▁douglas	-11.6313
▁aŭskultis	-11.6315
according	-11.6315
▁konsistis	-11.6316
▁ambasadoro	-11.6318
▁taxi	-11.6319
▁tus	-11.6319
▁invisible	-11.632
▁luxury	-11.632
▁earliest	-11.632
▁announcement	-11.6321
▁kle	-11.6321
▁unueco	-11.6323
▁crossing	-11.6324
note	-11.6325
▁vundo	-11.6327
▁solida	-11.6328
▁azia	-11.6328
limo	-11.6328
hava	-11.6331
▁rond	-11.6331
▁carriage	-11.6336
▁quantities	-11.6336
▁ideology	-11.6336
▁vizio	-11.6337
rik	-11.6337
rek	-11.6338
bet	-11.6338
▁florojn	-11.6338
▁predik	-11.634
iĝantaj	-11.6341
▁georgia	-11.6342
▁administranto	-11.6342
▁bark	-11.6342
▁veturado	-11.6342
ense	-11.6343
▁shelter	-11.6344
▁amata	-11.6347
▁legendo	-11.6348
eh	-11.6348
▁farbo	-11.6351
▁dropped	-11.6352
▁ren	-11.6352
▁posedis	-11.6353
▁terminoj	-11.6354
▁dynamic	-11.6354
▁magazines	-11.6354
▁etaĝo	-11.6355
▁alongside	-11.636
▁barb	-11.6362
▁initiated	-11.6362
▁mov	-11.6364
▁bonege	-11.6364
▁malaltan	-11.6364
ñ	-11.6365
▁reserved	-11.6366
romp	-11.6366
▁argued	-11.6367
▁multiplikante	-11.6367
▁bedroom	-11.6367
▁vundoj	-11.6367
klar	-11.6367
▁24.	-11.6369
▁ruling	-11.637
▁gaza	-11.6373
▁publikan	-11.6374
▁produkt	-11.6375
▁karieron	-11.6378
▁akcepto	-11.6379
▁shares	-11.638
▁din	-11.6381
▁output	-11.6381
▁dimension	-11.6382
▁postuli	-11.6382
▁courtyard	-11.6382
▁legomoj	-11.6383
▁posedaĵo	-11.6384
▁procedures	-11.6384
▁tai	-11.6385
▁hosts	-11.6385
▁vintra	-11.6387
posed	-11.6387
▁stu	-11.6388
▁driven	-11.6388
▁francoj	-11.639
▁earned	-11.639
▁kono	-11.639
▁likvaĵo	-11.6391
▁ŝancoj	-11.6392
▁klarigo	-11.6395
▁arabia	-11.6396
▁kluboj	-11.6398
▁momentoj	-11.6398
▁mortigitaj	-11.6398
ŝat	-11.6398
▁kuras	-11.6399
▁virinojn	-11.64
▁observation	-11.64
▁practically	-11.6403
ged	-11.6403
▁healing	-11.6404
frap	-11.6404
α	-11.6408
▁najbaraj	-11.6409
▁balkan	-11.6409
▁protekta	-11.641
▁yahweh	-11.6413
▁proprieto	-11.6413
▁malpliigi	-11.6414
▁socialisma	-11.6415
rick	-11.6416
▁bedaŭras	-11.6417
▁siavice	-11.6417
▁sudan	-11.6418
▁portal	-11.6418
▁fidas	-11.6419
▁meals	-11.6419
bc	-11.6419
▁restart	-11.642
▁duties	-11.642
▁pattern	-11.642
▁brigade	-11.6421
pag	-11.6422
▁inĝeniero	-11.6423
five	-11.6423
▁cas	-11.6423
zan	-11.6424
▁stadio	-11.6424
media	-11.6424
cr	-11.6425
▁nazo	-11.6428
▁habitat	-11.6429
video	-11.6429
▁anim	-11.643
▁koston	-11.6432
▁tradicioj	-11.6432
▁pardon	-11.6433
▁th	-11.6435
▁devigis	-11.6436
▁aron	-11.6436
▁racia	-11.6437
▁addressed	-11.6438
▁replacement	-11.6439
▁vitra	-11.644
/3	-11.6441
your	-11.6442
sistemoj	-11.6443
▁sepa	-11.6446
▁plates	-11.6447
then	-11.6449
▁retail	-11.6449
scen	-11.6449
▁catalog	-11.645
▁genus	-11.6452
▁thread	-11.6453
▁medioj	-11.6454
ür	-11.6458
▁drogo	-11.6459
▁kutimoj	-11.646
▁registritaj	-11.6463
pov	-11.6464
▁efikecon	-11.6464
▁painful	-11.6466
▁jenajn	-11.6466
band	-11.6467
л	-11.6468
▁tub	-11.647
▁litero	-11.647
valoro	-11.6472
▁striking	-11.6472
▁voko	-11.6474
▁miliono	-11.6478
▁vegan	-11.6479
▁stacioj	-11.648
und	-11.648
▁shu	-11.6482
▁kiajn	-11.6483
▁closing	-11.6483
▁modified	-11.6486
▁mun	-11.6486
▁interkonsenton	-11.6486
▁romans	-11.6487
▁statuto	-11.6489
▁likva	-11.6489
▁ŝuoj	-11.6489
▁promen	-11.6493
iya	-11.6494
▁immigrants	-11.6495
▁pek	-11.6496
▁oscar	-11.65
▁elstaras	-11.65
coj	-11.6501
▁etapo	-11.6501
ş	-11.6502
▁hararo	-11.6503
▁monetary	-11.6506
▁instrukciojn	-11.6507
▁126	-11.6507
kvar	-11.6508
▁christopher	-11.6509
▁kab	-11.6511
oro	-11.6514
proksim	-11.6514
vor	-11.6514
▁franz	-11.6514
▁pez	-11.6515
▁1990-	-11.6516
▁dining	-11.6517
▁mencii	-11.6519
sid	-11.6519
▁messenger	-11.6522
▁genre	-11.6522
▁formojn	-11.6523
▁hum	-11.6523
▁trud	-11.6525
▁toilet	-11.6525
▁compact	-11.6526
▁oficiro	-11.6526
▁dim	-11.6526
▁shame	-11.6526
▁cad	-11.6527
▁kuiri	-11.6527
▁oficistoj	-11.6527
▁decoration	-11.653
▁stainless	-11.653
ened	-11.653
lling	-11.653
▁shake	-11.6531
▁vestoj	-11.6534
▁delta	-11.6536
▁nutrado	-11.6536
▁migrado	-11.6539
▁promises	-11.6539
ult	-11.654
vast	-11.654
▁timiga	-11.6542
▁chart	-11.6543
esto	-11.6543
▁exit	-11.6546
▁transferred	-11.6546
▁impona	-11.6547
▁decidojn	-11.6547
▁satisfy	-11.6547
▁defio	-11.6548
ute	-11.6548
▁purigado	-11.6549
▁lifted	-11.6549
▁ciferecaj	-11.655
▁stepped	-11.655
...)	-11.655
▁signifis	-11.6552
▁measured	-11.6554
▁sunlight	-11.6554
▁sounded	-11.6555
oka	-11.6556
▁teknologioj	-11.6557
▁sacrifice	-11.6557
▁jur	-11.6559
▁conscious	-11.656
▁aĝon	-11.6561
▁delete	-11.6562
▁alvoko	-11.6562
▁strikta	-11.6564
eblas	-11.6566
jon	-11.6566
▁favora	-11.6567
▁philippines	-11.6567
▁slip	-11.6568
▁pregnancy	-11.6569
centra	-11.6569
▁merchant	-11.657
▁harojn	-11.6571
▁noto	-11.6574
wald	-11.6574
demand	-11.6576
▁soup	-11.6577
▁aranĝi	-11.6578
▁slavery	-11.6578
latin	-11.6579
▁1200	-11.658
▁posteno	-11.658
▁limigoj	-11.658
▁konsulti	-11.658
logy	-11.6581
konto	-11.6581
▁twin	-11.6582
▁konsilojn	-11.6583
▁veter	-11.6583
▁provos	-11.6584
cul	-11.6585
▁ghost	-11.6585
ludoj	-11.6587
▁dominant	-11.6587
0%	-11.6587
▁komp	-11.6588
avi	-11.6588
▁profilo	-11.6588
▁rezulte	-11.6589
uni	-11.659
▁stilon	-11.659
ör	-11.6591
σ	-11.6591
▁approaching	-11.6592
▁sfero	-11.6594
▁blankan	-11.6596
▁govern	-11.6596
▁reforms	-11.6597
▁praktiki	-11.6598
▁baha	-11.6598
▁ĉesigi	-11.66
▁igante	-11.6601
rojn	-11.6602
▁ekzemplon	-11.6602
ró	-11.6603
▁publisher	-11.6605
▁bearing	-11.6606
▁jonathan	-11.6608
gz	-11.6608
▁aŭtovojo	-11.6609
eva	-11.6609
▁substitute	-11.661
▁sufiĉa	-11.661
▁armeaj	-11.661
▁realaj	-11.6611
▁ut	-11.6611
▁hua	-11.6613
▁liberecon	-11.6614
formaj	-11.6615
▁vida	-11.6615
▁provizo	-11.6615
▁instigo	-11.6617
▁distinguished	-11.6618
ajxo	-11.6618
▁plasto	-11.6618
▁rubo	-11.6619
▁partially	-11.6619
erojn	-11.6619
ell	-11.6621
▁suspekt	-11.6621
▁organoj	-11.6621
▁spy	-11.6621
dona	-11.6622
fari	-11.6622
▁tal	-11.6623
▁immune	-11.6624
▁supplies	-11.6624
facil	-11.6624
▁akso	-11.6625
▁sklav	-11.6626
▁elderly	-11.6627
▁konfirmis	-11.6627
▁lakes	-11.6631
▁fiera	-11.6633
▁kudr	-11.6633
venu	-11.6633
▁1926	-11.6634
▁rezerva	-11.6635
▁nubo	-11.6636
▁teknologia	-11.6637
▁seemingly	-11.664
space	-11.664
vita	-11.6641
▁vojaĝado	-11.6641
▁ĉiel	-11.6642
▁31-	-11.6643
cp	-11.6645
▁komand	-11.6647
▁malhel	-11.6647
▁eblis	-11.6647
▁interact	-11.6649
▁joining	-11.6649
▁senpagaj	-11.665
iki	-11.6651
▁mb	-11.6653
onia	-11.6653
▁steal	-11.6654
▁penis	-11.6655
▁fruktojn	-11.6655
▁appreciate	-11.6655
▁virgulino	-11.6656
▁publikigitaj	-11.6656
▁useless	-11.6657
▁maldekstre	-11.6657
▁memorigas	-11.6658
▁respondecon	-11.6658
▁idoj	-11.6659
▁komencos	-11.6659
▁od	-11.666
▁amaskomunikilar	-11.666
▁trakt	-11.666
▁shone	-11.666
▁fiksa	-11.6662
dam	-11.6662
▁pont	-11.6663
▁thunder	-11.6664
▁bil	-11.6664
▁kha	-11.6664
▁gan	-11.6666
▁breed	-11.6667
▁multo	-11.6667
3]	-11.6667
▁draft	-11.6667
▁instigis	-11.6669
▁pravas	-11.6669
▁concerts	-11.6671
versio	-11.6671
▁klavaro	-11.6672
▁egiptio	-11.6672
▁generated	-11.6673
▁interesas	-11.6674
▁maron	-11.6674
▁silenta	-11.6674
▁granted	-11.6678
▁ricevu	-11.6678
▁nesto	-11.6679
▁leaf	-11.6684
▁2019.	-11.6684
▁geneva	-11.6685
▁norvegio	-11.6687
▁processor	-11.6688
▁coup	-11.6689
▁parish	-11.669
color	-11.6691
▁gem	-11.6695
▁toronto	-11.6696
▁successor	-11.6697
▁populations	-11.6699
▁horror	-11.6703
vere	-11.6705
▁bonvenon	-11.6706
▁piedo	-11.6707
feld	-11.6708
▁abuse	-11.6708
▁poloj	-11.6708
▁saga	-11.671
1]	-11.671
▁(=	-11.671
▁invert	-11.6711
▁finan	-11.6711
▁suicide	-11.6714
▁varme	-11.6714
kvankam	-11.6714
▁merc	-11.6715
▁haveblas	-11.6718
▁innocent	-11.6719
▁referendum	-11.6719
▁aroma	-11.6719
ingen	-11.672
▁bred	-11.6721
▁gps	-11.6722
▁akcept	-11.6723
kapablo	-11.6723
firm	-11.6724
▁monta	-11.6725
▁tavoloj	-11.6726
▁delay	-11.6726
▁sorry	-11.6728
lock	-11.6728
▁akord	-11.6729
cos	-11.6729
tribu	-11.6731
▁konfliktoj	-11.6732
▁protests	-11.6732
▁difinas	-11.6733
▁ruĝan	-11.6734
▁jr	-11.6734
▁default	-11.6735
▁plezur	-11.6737
▁impreson	-11.6737
▁naive	-11.6738
▁françois	-11.6738
iĝa	-11.6739
▁rings	-11.6739
▁stri	-11.674
▁sauce	-11.674
stilo	-11.674
▁conquered	-11.6741
▁kares	-11.6741
▁operated	-11.6743
▁115	-11.6743
▁scratch	-11.6743
take	-11.6743
▁etikedo	-11.6744
▁deeper	-11.6744
▁caesar	-11.6745
▁havana	-11.6745
ŝtato	-11.6746
▁artoj	-11.6747
pied	-11.6748
mie	-11.6749
radi	-11.675
▁1.6	-11.6751
▁roz	-11.6756
stadt	-11.6757
kapt	-11.6757
▁uzos	-11.6758
▁monitoring	-11.6758
▁doroteo	-11.6759
▁provider	-11.6759
▁silfer	-11.676
kara	-11.6761
▁scheme	-11.6761
▁480	-11.6762
▁bulletin	-11.6762
rat	-11.6763
▁guards	-11.6765
▁pruvas	-11.6766
blog	-11.6767
▁epizodo	-11.6768
▁subskribi	-11.6768
▁fault	-11.6768
▁observis	-11.6769
▁konstruas	-11.6771
▁fortojn	-11.6771
▁persa	-11.6772
istan	-11.6773
ي	-11.6775
hak	-11.6775
▁hidro	-11.6776
▁2004.	-11.6777
▁kamparanoj	-11.6777
▁frakcio	-11.6777
▁decreased	-11.6778
▁quin	-11.6779
▁flee	-11.6779
▁integriĝo	-11.6781
▁merkata	-11.6781
▁fatal	-11.6782
▁stefan	-11.6783
source	-11.6784
▁dimensions	-11.6784
▁ujo	-11.6785
▁lingv	-11.6786
▁sonon	-11.6786
▁financoj	-11.6788
▁ped	-11.6788
▁aktuale	-11.6792
▁16.	-11.6793
▁inversigi	-11.6795
▁3000	-11.6796
▁multekostaj	-11.6797
▁reject	-11.6799
▁precizeco	-11.6799
▁enspezoj	-11.68
▁sel	-11.68
▁specon	-11.6801
▁senlima	-11.6802
▁julian	-11.6803
▁tuko	-11.6805
▁rekonas	-11.6806
sat	-11.6807
▁environments	-11.6807
dp	-11.6807
▁entitled	-11.6807
▁malfermitaj	-11.6808
▁uzanta	-11.6808
▁hardware	-11.6808
▁unuajn	-11.6809
▁fakoj	-11.6809
▁helpu	-11.6811
[...]
