#version: 0.2
Ġ â
Ġâ Ĺ
ĠâĹ Ī
Ġ o
Ġ a
Ġ e
Ġ i
Ġ l
Ġ j
Ġ k
Ġ d
Ġl a
Ġ n
s t
Ġ p
Ġd e
e r
Ġ s
Ġ m
a n
e n
o n
a r
Ġ t
o r
Ġi s
Ġe n
Ġa s
Ġ u
Ġ f
t a
Ġk a
Ä Ŀ
r e
i n
a l
o m
r i
Ġka j
Ġ 1
Ġe st
Ġ v
Ġ b
u n
Ġ (
c i
l i
Ġ h
Å Ń
Ġa n
Ġ g
e l
Ġi n
r a
r o
Ġl i
Ä ī
u r
o l
Ġ re
Ġa l
Ġk i
Ġi ta
k t
a t
en t
Ġ1 9
Ġ Äī
a m
i l
i k
e m
Ġ c
o v
e s
i st
e t
i s
u l
Ġk on
Ġa r
Ġt i
i d
Ġ ÄĿ
Ġ 2
r u
Å Ŀ
Ġe k
Ġe l
r an
i t
k a
Ġp ro
Ġk om
Ġi ÄĿ
Ġp o
Ġm al
e d
Ġi st
Ġa d
c h
t er
i v
ar t
0 0
Ġu n
Ġs u
Ġ st
a s
Ġi g
Ġk un
i r
e k
u m
a v
Ġp or
Ġan t
Ä µ
o g
Ġp l
ĠÄĿ i
ĠÄī e
u t
p er
an t
Ġa ta
o k
i m
Ã ¡
in g
ka ÅŃ
Ġ ÅĿ
Ġu m
Ġp ri
Ġn om
u d
a ci
Ġn e
Ġp re
a d
Ġp er
en c
Ġj ar
or i
Ġa ÅŃ
Ġe j
Ġi l
Ġt er
i g
Ġin ter
Ã ©
or t
Ġkom un
e kt
o t
Ġa Äµ
a k
an d
Ġ |
Ġu r
b r
Ġ ri
Ġu s
Ġm on
) .
Ġun u
e j
Ġki el
i c
o s
Ġo r
Ġan kaÅŃ
a g
un g
e z
Ġpo st
Ġan ta
Ġki u
o d
1 9
Ġ1 8
) ,
a j
Ġur b
Ġv er
p l
ul t
b l
Ġs i
Ġ w
Ġo n
i li
Ġek s
Ġh av
i ci
Ġ "
Ġl o
a p
g i
m an
Ġd u
Ġ z
Ġe s
i z
ung ar
Ġ -
o j
Ġ r
o p
a ÅŃ
Ġa p
Ġli g
Ġo f
ĠÄī i
Ġ2 00
ran d
Ġp art
a c
Ġe c
Ġt ra
Ġh ungar
Ġd i
Ġa m
Ġp li
or m
or d
s i
Ġ2 0
Ġa st
Ġlo ÄĿ
a ÄĿ
Ġm ar
en d
er n
u b
Ġ ra
Ġa t
ing v
Ġ 3
u s
Ġâ Ģ
e st
e g
Ġf ran
Ġg rand
Ġs p
Ġs ur
a z
ĠÄīe f
d u
Ġa li
Ġp ar
Ġla ÅŃ
Ġe t
Ġd um
Ġla n
â Ģ
Ġd ist
r on
st ru
f i
a b
Ġn ov
ta t
Ġl ingv
e v
b er
Ġv id
f er
on d
Ġ ro
Ġpl ej
u z
Ġf l
Ġk e
Ġti u
Ġ19 9
er man
on t
Ġa k
Ġh ist
Ġu l
Ġt h
Ġo s
Ġo k
e p
ri kt
og ra
Ġ ru
Ġsu b
Ġf ar
s k
Ġf in
Ġlan d
Ġe r
Ġv en
Ġk ov
Ã ³
Ġ| |
Ä ¥
ta l
Ġhist ori
l a
Ġb i
it u
ĠÅĿ i
Ġdist rikt
Ġk v
Ġi li
er v
Ġkov r
ĠÄĿ is
ci d
Ġg erman
li k
an k
Ġver k
iv er
Ġes per
ar d
Ġt ro
l and
Ġon i
Ġs ed
Ġkon s
Ġs k
Ġf il
er o
Ġk l
as k
ol og
Ġt e
gi on
Ġ1 7
e c
Ġv il
Ġg ra
ogra fi
Ġv iv
Ġl in
Ġ 4
Ġs an
Ġd on
Ġo ri
Ġl ok
Ġm em
Ġg e
b or
Ġs itu
Ġkon t
an i
Ġt em
ent r
v er
ri b
Ġesper ant
Ġe bl
Ġc h
s p
Ġm ult
Ġm ort
Ġj e
Ġs ek
Ġ 5
o ci
at ur
a st
Ã Ń
t ik
Ġf er
o z
Ġi t
in c
1 8
Ġre gion
p r
Ġo b
ero id
Ġm un
Ġast eroid
Ġm ili
om i
Ġek z
Ġs en
on g
Ġa g
Ġn aci
Ġus on
Ġpro v
k l
m p
Ġmon t
Ġin d
Ġap art
Ã ¶
Ġs am
Ġal t
u g
ar i
Ġin t
Ġ1 6
Ġ19 8
o h
Ġk ol
Ġla bor
Ġl e
in t
Ġt ran
o b
Ġu z
Ġk re
Ġf orm
Ġd is
Ġn ord
Ġp ov
Ġkon stru
Ġsu d
Ġre g
c ent
Ġmun ici
Ġ20 1
un d
fer enc
Ġvil aÄĿ
Ġre ÄĿ
Ġi d
e ci
k s
Ġmunici p
Ġm et
Ġv oj
Ġsi a
ist r
Ġpre z
ka z
Ġi r
Ġanta ÅŃ
Ġtro v
Ġin f
Ġfran c
ro p
Ġm in
Ġant e
Ġ19 7
Ġtran s
Ġb al
Ġd a
at r
Ġ 6
ĠâĢ ĵ
u st
Ġt ri
Ġ ci
an c
m in
Ġk ant
Ġm uz
Ġun iver
Ġan d
Ġmon d
ur g
Ã ¼
2 0
Ġf am
Ġd om
Ġek d
en s
Ġo kaz
olog i
r om
Ġl ern
er i
Ġmili t
Ġh om
Ġo l
o f
Ġjar cent
Ġk ar
Ġe d
Ġ1 5
Ġ19 4
Ġin ta
Ġk ri
Ġf or
Ġ19 6
Ġli a
Ġs ci
el l
n i
Ġar t
âĢ ĵ
ri k
ra t
ra ÅŃ
Ġpo li
q u
cid ent
Ġn ur
Ġn ask
Ġl ong
ek s
Ġz on
an ÄĿ
Ġapart en
kt or
Ġm ez
Ġast ron
an g
Ġprov inc
Ġre ferenc
ub lik
Ġori ent
Ġkom enc
Ġ .
j ekt
e b
Ġe p
Ġs im
Ġ [
e f
Ġ19 5
Ġv al
Ġe g
r en
Ġt re
u p
Ġb l
Ġa re
i on
il l
d i
Ġp ol
Ġka p
ep t
Ġsp eci
em i
er t
ÅĿ t
Ġok cident
em ent
Ġ 7
Ġ y
Ġh el
Ġ 9
Ġ19 3
i ÄĿ
Ġis m
Ġr om
Ġti o
Ġ 8
Ġt ur
Ġt ut
Ġs oci
Ġk m
Ġar m
Ġan g
em br
Ġk el
Ġb o
ed er
is m
Ġe m
on i
Ġgra v
Ġkont raÅŃ
ru p
Ġkom p
ir kaÅŃ
Ġe ÅŃ
Ġv ol
Ġb a
Ġl ud
Ġn un
Ġp i
Ġs ol
Ġd o
Ġfil m
- -
du k
Ġsk rib
Ġf ond
Ġv i
Ġpo p
Ġst aci
ĠÄī irkaÅŃ
Ġb on
Ġc entr
Ġst ud
re s
o st
ks im
Ġe v
Ġki am
Ġk or
Ġj u
Ġj un
a f
l e
Ġi m
Ġka t
Ġpro ksim
is p
Ġb ar
du kt
m i
a y
Ġs in
Ġkel k
g an
Ġv ir
Ġmuz ik
Ġpoli tik
Ġpor t
ult ur
Ġs ch
Ġki e
Ġli ter
Ġf ont
Ġest r
Ġs ig
Ġin stru
Ġj am
Ġsci enc
Ġa per
ĠaÅŃ t
s on
1 0
in i
st r
Ġm i
en i
Ġsan kt
Ġtem p
Ġor d
Ġre t
i p
1 5
o c
aj n
et r
a kt
Ġ19 2
s z
Ġfran ci
1 7
Ġs v
2 00
si tat
Ġof t
Ġs e
Ġde p
t i
Ġti e
ĠÄĿi a
c es
Ġbi ografi
Ġa b
Ġre z
Ġk u
am en
Ġ :
Ġre sp
Ġm at
Ġuniver sitat
Ġb r
Ġh isp
Ġb ud
it ori
Ġg en
Ġri c
Ġel ekt
ir d
Ġri ver
o li
Ġpro dukt
k i
en ci
Ġli m
Ġob jekt
Ġj oh
ed i
Ġ1 2
Ġb az
Ġ1 3
al i
Ġp as
Ã¡ r
Ġfam ili
em pl
Ġ1 4
Ã¡ n
t h
Ġor gan
1 6
Ġsek v
Ġf ort
il d
em p
Ġf i
Ġak v
b urg
a bl
ĠeÅŃ rop
k v
Ġter itori
f ik
b li
u j
Ġar b
Ġric ev
Ġad min
s ul
Ġl u
Ġ1 0
s erv
Ġ Â
Ġpl u
re t
Ġg rup
Ġastron omi
Ġpro f
Ġm a
Ġs z
Ġprez ent
s ch
1 4
Ġde k
Ġp ublik
Ġli br
l ov
Ġ( )
er al
om b
Ġpre ÄĿ
art ement
s s
Ġst ar
or g
Ġli ber
Ġb ird
Ġed z
Ġc ol
Ã ¤
g in
Ġk rom
Ġliter atur
Ġm an
l at
Ġre st
Ġa v
Ġ Äµ
ra m
at ori
Ġdep artement
Ġk an
Ġn ot
p ar
un k
Ġm od
Ġka mp
Ġs al
ĠÄī ar
Ġof ici
j n
Ġj ap
Ġekz empl
Ġp al
e li
Ġh er
m ar
Ġob serv
a ch
Ġnom br
Ġadmin istr
iver s
Ġg re
Ġb er
" .
Ġb el
Ġb ra
u k
ĠÄĿ in
1 3
Ġis b
Ġm ag
Ġt ek
1 2
Å ¡
Ġpl ur
Ġlin i
Ġs erv
Ġv ort
Ġar k
ol u
o w
ez i
l in
Ġf ru
Ġp atr
Ġk ut
Ġti am
Ġbud ap
Ġc el
Ġm aj
" ,
aÅŃ r
Ġn atur
Ġde v
Ġ19 0
Ġp r
per i
e y
Ġang l
Ġp ra
Ġmem br
c ept
Ġt amen
Ġv ar
a Äµ
Ġkant on
Ġkut im
Ġst at
a h
b i
ig r
Ġper son
e ÅĿt
t t
Ġd ivers
st ri
Ġti es
ri l
ĠÄīe Ä¥
Ġsu k
ci p
Ġori gin
ni f
Ġro l
Ġgerman i
Ġep ok
st el
Ġm art
Ġ| -
er s
Ġofici al
Ġt ag
Ġki o
Ġ 0
Å ĳ
Ġekz ist
Ġde r
Ġsig nif
ber g
Ġo p
Ġf ot
Ġin st
ist em
Ġti el
d e
Ġkri st
Ġg al
Ġpl en
ri d
unk ci
l am
Ġre v
Ġkv ar
Ġim peri
Ġt el
Ġsu per
re d
19 9
ĠÅĿ t
Ġk ultur
p t
Ġj an
Ġf unkci
um ent
Ġde s
e ar
Ġbi bli
00 0
st er
t e
Ġm enci
Ġf ut
Ġa ktor
Ġa kt
ka d
Ġpart i
k ont
v id
Ġpop ol
Â ²
Ġel d
Ġin sul
Ġte atr
Ġa ÄĿ
ĠÄĿ en
Ġde n
Ä į
on or
b ar
c k
Ġla st
Ġsu pr
Ġorgan iz
Ġs er
. ,
Ġfer m
Ġbudap eÅĿt
Ġp a
Ġ ,
ber t
Ġa f
Ġl eg
Ġn i
ĠÅĿ tat
Ġc ar
Ġm ed
Ġt en
Ġinf orm
g c
Ġm ov
u ri
Ġ18 9
z i
Ġs a
Ġs istem
Ġla g
Ġp entr
5 0
Ġge ografi
Ġde l
ĠâĢ Ķ
Ġka l
Ġju li
Ġra p
Ð °
7 8
Ġarm e
Ġli st
Ġla t
ak ci
Ġf eder
Ġru man
at i
lov ak
Ġo v
l av
Ġpre s
Ġpar ol
Ġki l
Ġf oj
Ġuniver s
Ġp end
er c
id er
Ġm il
ta ÅŃ
Ġobserv atori
Ġf al
Ã ¨
Ġre akci
e in
Ġhel p
tal og
Ġpre mi
Ġpl an
ur n
Ġm or
Ġsuk ces
Ġde m
Ġk ur
Ġhisp an
Ġrez ult
d r
Ġita li
. .
Ġjap an
Ġek on
) :
Ġkon k
k or
Ġjoh an
Ġsv is
| |
Ġfl u
u ar
Ġt o
Ġh ar
Ġp un
Ġesperant o
Ġd aÅŃr
z il
om etr
Ġ Ã©
Ġb en
am p
Ã¡ l
Ġit e
Ġprof es
Ġba tal
j t
Ġm e
Ġki es
a Ä¥
is k
Ġp et
t en
Ġb ord
pl or
w w
Ġkons ist
Ġ Ð
o Äī
19 8
1 1
v i
Ġfeder aci
Ã º
Ġr en
Ġinf an
Ġu j
Ġde c
l u
Ġastron om
Ġok up
al l
Ġkil ometr
Ġa ra
ĠÄīi u
m ent
Ġap ud
Ġkomp on
Ġn o
Ġpre par
Ġdu k
o lik
Ġsu p
Ġb ild
Ġa cid
Ġh onor
Ġ18 8
Ġkons ider
ov i
is ch
ro l
ri st
s m
Ġs h
Ġfl ank
n y
k on
Ġkl as
Ġe Äī
2 2
ĠÅĿ anÄĿ
er ik
Ġm ik
Ġat ing
Ġkre sk
Ġb ri
s h
Ġes plor
Ġat e
r y
op ren
Ġun d
n e
3 0
p on
el d
Ġa kad
m es
Ġinter n
Ġf re
Ġs ov
on c
od i
p h
Ġ =
Ġprez id
Ġpart opren
Ġmar i
at ion
Ġpar iz
Ġg l
= "
Ġm ur
Ġi om
Ġresp ublik
in d
Ġsim il
) ;
Ġo li
t emp
a u
Ġita l
l es
u el
ir m
Ð ¾
Ġla s
Ġak ir
Ġakad emi
ak s
Ġam b
ra c
pr en
ĠÄĿen eral
et t
Ġfl ug
Ġti t
Ġg vid
Ġhungar i
ank am
Ġb e
n er
Ġre li
ak si
Ã¶ r
Ġtra d
Ġid ent
4 0
Ġmont r
i ch
l er
Ã¡ s
Ġk ru
Ġru si
Ġs c
iv id
eks ik
v al
o br
Ġg u
Ġmin istr
Ġbl ank
Ġekon omi
Ġj en
ĠâĢ ŀ
Ġ200 0
Ġh or
p ri
i er
al t
Ġj ud
et er
Ġbra zil
Ġw il
ol d
2 1
Å Ļ
Ġkon f
Ġp aÄĿ
] ,
Ġkv ankam
d or
6 0
Ġpro pr
eder land
19 7
Ġd at
Ġkon st
Ġtek st
Ġrom an
as s
Ġdi re
f in
Ġc om
Ġra jt
Ġdu on
Ġk o
Ġdec embr
Ð ¸
Ġ200 5
Ġs eri
Ġjan uar
Ġv on
Ġv iz
Ġ18 7
Ġru s
Ġpro t
Ġmuz e
Ġf iz
Ġakt iv
Ġs et
at ik
h e
Ġk emi
Ġsov et
Ġs ept
n ik
ra d
Ġs om
Ġpop ul
Ġp h
ol f
Ġj ur
Ġn eni
s ed
ĠaÅŃ g
âĢ ľ
2 3
Ġri lat
rib u
Ġo kt
i f
Ġin v
Ġm ad
j ar
âĢ Ŀ
Ġ )
Ġkol ekt
Ġo per
Ġc on
Ġc ent
Ġtrad ici
Ġn orm
Ġu k
or k
Ġv ari
f ran
2 5
Ġreli gi
ri g
Ġm anÄĿ
u c
Ġkon c
Ġper i
h el
int ez
Ġf ak
Ġv ic
Ġ qu
Ġp at
Ġs id
Ġm es
ĠaÅŃg ust
g en
it ut
ri ch
Ġv ast
Ġ &
Ġpre cip
Ġp ap
Ġpun kt
Ġsept embr
an j
pl om
Ġk od
Ġg az
Ġh a
ĠaÅŃ str
Ġan kor
Ġpl ant
Ġre al
Ġankor aÅŃ
ka talog
Ġb urg
ri c
Ġtra kt
Ġmar k
Ġs on
Ġhisp ani
Å Ĥ
Ġ18 6
Ġi am
Ġev olu
Ġkons erv
Ġs lovak
urn al
Ġ1 1
Ġar tik
ur s
Ġd ir
an n
Ġek l
Ġ200 2
Ġpo et
Ġm os
Ġdi plom
Ġnun temp
f l
Ġs intez
s e
Ġap ril
ot ek
h t
Ġm it
Ġver si
Ġf est
al d
Ġset l
Ġj os
Ġtra duk
Ġp ren
Ð µ
Ġc o
an s
Ġaf rik
Ġjun i
Ġfl or
Ġ200 6
Ġokt obr
Ġs em
4 8
Ġekl ezi
Ġperi od
ri t
Ġ201 0
Ã ±
Ġti p
Ġkon duk
Ġka ÅŃ
Ġn ederland
Ġrap id
Ġv oÄī
Ġre d
p re
du stri
Ġind ik
Ġprofes or
Ġgen r
ac k
ĠÂ «
Ġden s
Ġek ster
Ġpro g
Ġun i
p ro
Ġ3 0
Ġh id
Ġkom erc
m en
Ġpar k
Ġb ru
n ask
Ġv an
Ġpo sed
Ġtit ol
19 6
Ġn aj
Ġb u
er k
en z
c s
Ġkat olik
Ġh o
Ġle ÄĿ
b in
Ġruman i
Ġla r
l o
Ġ x
ed r
Ġka stel
4 5
or n
Ġfil oz
Ñ Ģ
3 9
Ġamb aÅŃ
Ġs end
n ov
Ġh ej
Ġ Ä¥
Ġven k
Ġfiz ik
2 8
Ġru ÄĿ
Ġf rat
es k
Ġa c
ĠÅĿi a
Ġper mes
Ġartik ol
Ġ ran
st a
Ġ200 7
Ġn igr
Ġh en
in k
Ġ200 1
y le
Ġm is
Ġh um
d ik
ast r
Ġi z
ĠÅĿ ajn
Ġkol or
Ġak cept
Ġm ani
Ġg r
m al
Ġnov embr
Ġi mp
h er
Ñ ģ
ta g
Ġpres kaÅŃ
Ġen t
Ġas oci
Ġmod ern
Ġ2 5
Ġmet r
ur b
Ġ200 8
Ġf ra
ĠâĢ ľ
Ġsol v
g y
Ġuk ra
2 4
Å ¾
Ġkom pl
Ġ199 9
s ik
Ġra di
di Äī
olu ci
az i
Ã¼ r
b el
Ġ200 4
Ġinst itut
h a
Ġam erik
e w
y ar
Ġoli mp
Ġsvis land
Ã §
Ġgre k
Ð ½
/ /
Ã© s
Ġreg ul
Ġm us
Ġku rac
n es
Ġam ik
Ġant ik
Ġin dustri
Ġper d
Ġg y
Ġeks p
2 6
Ġkv in
z s
Ġnaj bar
Ġka dr
ation al
Ġci v
2 7
ur t
Ġh e
8 0
9 0
Ġv et
Ġm igr
Ġf akt
Ġkv ad
Ġmili on
Ġu t
Ä Ľ
sta taÅŃ
k om
i an
Ġil in
u al
is or
ev id
iv el
f or
aci l
Ġ18 5
ez on
Ġ199 3
ĠÅĿi p
Ġhej m
uz iv
it ekt
tt p
Ġinf lu
a w
Ġkor p
isk op
Ġs il
3 6
Ġf ab
is s
Ġg ri
Ġantik v
ok s
kl uziv
Ġdek str
Ġf acil
Ġon ta
19 5
3 5
Ġorigin al
lam ent
Ġan stataÅŃ
Ġin g
Ġid e
Ġ /
Ġpo z
: //
b ol
Ġra kont
eb ru
Ġsetl ej
m at
Ġl ond
Ġkap t
Ġd ok
2 9
Ġge org
odi aÅŃ
Ġch ar
Ġk ari
ebru ar
Ġm as
ot t
Ġkon g
Ġc l
7 0
Ġe duk
Ġpar lament
3 8
Ġt omb
Ġpo t
Ġ200 9
Ġrev oluci
Ġal b
Ġgaz et
Ġar g
ĠÄµ urnal
Ġf ebruar
ÅĿ tat
Ġli t
and r
Ġr omi
âĢ Ļ
Ġ199 2
at iv
Ġ199 8
Ġspeci al
Ġst rat
Ã ¢
Ġki r
ĠreÄĿ isor
Ġmon aÄ¥
h r
Ġg i
Ġmag yar
Ġep iskop
Ġh ttp
Ġpol land
Ġa zi
Ġka z
Ã ½
Ġn ivel
m er
Ġri Äī
Ġ6 0
ĠaÅŃt or
ob el
h i
Ġde cid
Ġal f
est r
ĠkaÅŃ z
Ġsek s
4 4
it y
stel aci
e gi
-- --
o fi
Ġpr inc
3 3
ekt iv
ern i
Ġkl ar
Ġpro jekt
k ol
b en
Ġn gc
Ġm o
Ġsa int
f f
Ġk os
e x
Ġo ta
Ġkru c
Ġvar m
4 9
Ã© l
Ġsom er
Ġgra f
li c
4 7
or y
u ch
Ġ199 0
Ġviz it
c l
er r
ĠaÅŃ stri
Ġdok ument
Ġj o
Ġa z
Ġp en
Ġne w
b o
Ġd ol
Ã© r
d ek
oz ici
Ġmet ro
i tat
Ġt r
Ġb as
Ġ| ----
es s
Ġmal pl
Ġ|---- -
Ġm edi
in s
Ã Ł
Ġtel evid
3 7
Ġet end
Ġs ant
Ġde kl
Ġata k
Ġsoci al
ar k
Ġag rik
4 6
Ġb ro
Ġv in
Ġreg istr
Ġn obel
Ġolimp ik
Â »
Ġri g
Ġs at
Ġs av
Ġvol v
a ÅĿ
on s
u ÅĿ
Ġkl or
Ġn ag
Ġara b
Ġa fer
Ġp il
Ġs ep
Ñ Ĥ
Ġo d
Ġv end
Ġin kluziv
Ġ( "
Ġher ed
y s
l Ã³
Ġdi fin
Ġvoj aÄĿ
h ungar
Ġor b
Ġd ivid
am b
el ekt
Ġf ri
Ġde t
un t
c e
kt ur
Ġkamp anj
Ġ2 6
Ġark itekt
un i
Ġt om
Ġb est
Ġ18 0
Ġgal aksi
Ġkvad r
Ġok s
st aci
Ġof ic
Ġmat eri
Ġkre d
Ġl es
it h
akt er
Ġagrik ultur
Ġsp ort
Ġev ent
Ġprot ekt
Ġb ern
Ġpopul ar
Ġm ap
Ġp ens
ig n
Ġkompon ist
Ġl um
Ð º
Ġs un
v Ã¡
. )
Ġk ul
Ġ201 1
a ktor
Ġti r
Ġti al
ab et
f orm
ec t
Ġmed ic
Ġkari er
Ġde z
Ġsub ten
Ġbibli otek
Ġri l
Ġm ol
Ġ( ,
Ġst ru
u re
Ġ9 78
Ġ200 3
Ġkar akter
s ur
Ġp ru
am ent
n et
ĠÄīeÄ¥ i
ond ism
9 5
y l
Ã ´
ĠÄī in
ondism ent
Ġ2 1
Ġci r
Ġst il
av i
8 5
Ġt ru
Ġdekl ar
Ġar ondisment
Ġ2 4
Ġlar ÄĿ
Ġch rist
Ġt uri
Ġt a
Ġh odiaÅŃ
l d
Ġg ar
m e
Ġsub ÅĿtat
Ġsoci et
Ġf en
y n
Ġp an
Ġmon ument
g ar
t p
Ġbr un
Ġm el
in at
Ġin k
Ġval or
3 2
b ach
Ġkri tik
s a
t r
Ġro k
Ġm ot
af t
Ġber lin
3 1
Ġp ac
ec k
Ġc ert
Ġver d
d am
Ġ '
Ġal k
Ġpo ÅĿt
3 4
Ġt or
Ġf irm
Ġg ajn
u f
Ġk li
Ġm eksik
Ġter min
Ġg o
Ġsu m
Ġvi en
ub erni
d at
Ġk ron
9 6
' s
ron onc
Ġte ori
Ġprog ram
ist ik
Ġmi ch
Ġvet ur
Ġl os
ra k
Ġkom pren
Ġ !
Ġkap abl
Ġt ab
Ġf e
g er
c ol
Ġ199 7
Ġde f
Ġro bert
Ġst el
em atik
im n
ĠÅĿt on
Ġkom bin
Ġdis k
Ġk n
Ġe x
Ġp ag
Ġ199 5
g u
Ġk in
Ġs es
Ġ196 0
Ġen d
Ġinter es
ic al
Ġan n
Ġsim pl
Ġ2 7
Ġm ak
Ġ2 8
Ġ198 0
m et
ter n
Ġp ont
Ġkong res
k m
itu ci
Ġka li
Ã¡ z
pri m
Ġran g
Ġpro pon
19 0
Ð¾ Ð
Ġ19 10
Ġpo em
Ġmedic in
Ġdi ferenc
Ġa er
Ġs o
it r
u ÄĿ
Ġi uj
ep h
Ġp int
Ġas p
i b
Ġfran k
Ġsc en
Ġ199 1
b on
art h
Ġkar l
Ġmos kv
9 8
Ġ q
Ġili a
ww w
Ġti m
Ġfi ÅĿ
p i
Ġb at
Ġst yle
Ġc a
Ġmem or
Ġdire kt
el s
e h
Ġre kt
Ġti g
pl eks
Ġo st
os k
ĠÄīi am
Ġmad rid
bl em
Ġpre ss
Ġo m
Ġmat ematik
Ã¡ sz
Ġsig n
Ġg ro
Ġli p
Ġarm en
Ġre jn
Ġ2 3
c om
Ġf o
Ġn av
Ġm c
Ġmar s
ard en
Ġ201 2
c z
Ġhav en
n am
Ġv ik
Ġ( *
Ġre s
Ġp ur
k un
Ġv ok
a el
Ġ2 2
Ã¼ n
È Ļ
Ġj es
per t
Ġ194 5
Ġ199 6
l et
Ġan im
Ġc er
k ul
Ġb or
Ġsek ret
Ġpa ul
Ġis lam
Ġw e
j or
Ġel ement
Ġj Ã³
Ġt on
Ġresp ond
Ġport ug
Ġes prim
Ġ197 0
fran c
8 6
x t
Ġk tp
Ġd av
Ġf ik
i ad
ĠÄī u
" )
f ac
Ġkonk er
Ġe li
Ġh ol
Ġreg n
Ġdef end
Ġb and
k ov
Ġne st
Ġk ro
Ġc s
Ġk r
Ġstru ktur
Ġb re
Ã¡ g
v in
Ġo t
Ġtur k
Ġg ad
Ġjap ani
Ġam pleks
Ġ199 4
ap t
Ġwil li
Ã¡n y
Ġg ast
Ġsim bol
ch t
Ġc or
g ro
4 3
9 9
Ġslovak i
Ġfin n
Ġan al
Ġ198 9
Ġd in
Ġklas ik
Ġser Äī
Ġe in
Ġi u
Ġdist ing
Ġl ev
Ġg er
Ġbibli ografi
4 2
Ġg uberni
Ġkl ub
p ol
s c
Ġd am
ul pt
Ġlond on
l y
7 5
Ġe fik
ast i
Ġukra ini
Ġt ol
Ġfiloz ofi
Ġkan ad
Ġvol um
Ġn a
Ġt est
um er
Ġasp ekt
4 1
Ġp astr
or e
ok rat
Ġro s
Ġf os
oh ol
Ġfort ik
v ar
Ġf und
Ġc al
Ġri f
Ġtek nik
8 8
g erman
Ġw ar
n ic
Ġpi ed
Ġ1 00
Ġ5 0
Ġdet ru
es per
h am
Ġturi sm
Ġn u
Ġh ab
Ġent re
int r
m il
p an
ar y
f oj
Ä ĥ
Ġkol oni
e a
Ġ3 1
Ġl og
kt ik
Ġci t
Ġkont ribu
Ġpro blem
Ġe ben
Ġt aks
es p
Ġpost en
Ġz org
Ġmon at
Ġf oli
x ik
Ġk ort
Ġpost ul
Ġmateri al
Ġh al
w e
Ġwilli am
Ġb ul
Ġri bel
ĠaÅŃstr ali
Ġs ul
Ġ195 0
8 7
im ent
Ġrev u
Ġalk ohol
b ro
d is
n om
it z
Ġstud ent
u x
ka j
Ġfl av
Ġint e
Ġpl at
k at
o ÅĿ
p li
Ġn ik
Ġlig n
8 4
9 7
Ġb ad
Ġs el
Ġju ÄĿ
ĠÄī ini
Ġ4 0
Ġkompl et
Ġ19 19
Ġpro c
Ġper s
Ġc m
p al
Ã© t
Ġat om
ÄĿ eni
Ġok ul
Ġin s
Ġ %
Ġsol dat
Ġfab rik
Ġentre pren
Ġp el
Ġsk ulpt
Ġav iad
c t
iv al
Ġle on
Ġor t
Ġpra ktik
6 5
Ġm er
Ġunu iÄĿ
on om
Ġf ig
ĠÄī am
Ġj ac
ang l
Ġt uj
Ġbl u
Ġpri v
Ġtra k
ent in
Ġh am
mar k
Ġunivers ity
ut h
n a
Ġn at
op h
Ġeg al
Ġp e
en k
Ð »
at or
Ġv intr
Ġkat edr
9 3
Ġkont ra
v ad
in ar
hel m
Ġkom is
Ġtra fik
Ġsovet uni
Ġeksp ozici
Ã¡ t
Ġj a
Ġ194 4
Ġw al
l l
en n
ol t
Ġkomun ik
Ġs ev
Ġka s
Ġw h
Ġet n
ÄĿeni er
Ġmur d
Ġar anÄĿ
9 2
Ġest abl
Ġkv ant
u v
an taÅŃ
Ġbal d
Ġgra m
Ġp ez
Ġ4 5
ef on
k an
Ġgr und
Ġsp ac
Ġbal ot
Ġch em
or f
Ġlabor atori
6 6
8 9
li g
m a
Ġali ÄĿ
Ġ201 5
Ġd an
er ic
Ġ 000
an ik
un u
Ġk ub
Ġd ik
Ġ201 3
v Ã¡r
Ġ194 0
sp eci
k y
Ġpre t
for ni
Ġfirm a
Ġk Ã¶
Ġut il
Ġkons ent
ĠÂ »
Ġrig ard
Ġgen eral
f urt
Ġ198 8
ing t
op i
st e
et ri
Ġsur fac
b a
Ġkont rol
en burg
Ġ201 4
ta d
il v
or r
Ġtel efon
Äī i
Ġb ran
Ġtur n
7 6
Ġne ces
Ġt al
ov oj
Ġf r
Ġri ch
ci t
ro b
aÅŃ g
Ġcent er
n o
Ġak r
b ur
5 5
p or
ut sch
Ġe gi
Ġsu fi
Ġlin ear
Ġcar l
Ġh i
Ġp ut
Ġgri z
. "
Ġb an
Ġkom itat
sk rib
Å į
zs ef
Ġbri ti
Ġa ri
er gi
ra s
Ġpre m
ot el
Ã ł
Ġin ÄĿenier
Ġpoz ici
p s
on j
Ġren kont
ĠÄĿ arden
Ġper f
Ã¡ d
iz i
Ġp u
Ġb ek
Ġka ÅĿ
Ġ2 9
Ġp rononc
Ġc ens
Ġ198 1
Ã© k
Ġol e
Ġs ar
Ġkos m
Ġ198 7
Ġp af
ĠloÄĿ ant
Ġb av
Ġmod el
Â °
Ġde b
ra el
Ġh ip
os lovak
k ar
s ovi
Ġmet od
Ġp etr
Ġdire ktor
Ġsufi Äī
Ġp sik
it i
Ġtem per
o Ä¥
Ġk ult
Ġn ut
7 7
Ġdo ktor
Ġg as
Ġtra jn
er m
op edi
Ġsup oz
ore gion
or s
h ol
Ġd ram
} }
Ġa Äī
Ġn ad
Ġpot enc
an ta
Ġth e
8 3
Ġkap el
it iv
9 4
h l
h ar
es ch
Ġ19 20
ad t
Ġal eks
Ġj ust
Ġk ost
Ġn umer
Ġne g
v an
Ġg imn
Ġkon diÄī
Ġkonk urs
en g
Ġkvar tal
p a
ag og
Ġvar sovi
f ord
Ġn or
Ġ197 7
ĠÃ© s
Ġra dik
Ġ Äį
Ġpl ac
Ġfri ed
Ġde diÄī
Ġbald aÅŃ
t it
Ġa jn
ta li
Ġkon v
Ġkont in
l eg
it er
oc k
or ld
Ġne ar
{ {
Ġh in
ĠÄīeÄ¥ oslovak
Ġ198 6
ĠloÄĿant oj
of orm
Ġpi an
Ġpal ac
Ġg ot
le y
Ġkomp ut
op od
Ġb ezon
Ġm ask
Ġra d
ron t
Ġang li
5 6
ro d
Ġver s
Ġa ver
Ġdav id
Ġs m
Ġs aksi
re m
ĠjÃ³ zsef
Ġp Ã©
Ġt an
Ġv el
Ġfin anc
Ġtrak tat
; "
Ġf a
s ol
Ġfru kt
ear ch
Ġind iÄĿ
Ġ198 3
t el
ĠindiÄĿ en
Ġmik s
Ġsp i
Ġbi en
Ġen ergi
Ġw i
t z
qu es
d en
Ġ196 8
Ġp ub
Ġno kt
Ġkomp ani
Ġ198 5
he im
es c
Ġkir k
Ġand r
ori g
Ġn ap
Ġtemper atur
Ġth om
Ġ193 0
e bl
Ġs ent
Ġfran Ã§
e i
Ġri p
Ġres earch
Ġm u
Ġka talog
Ġkons il
Ġj ak
Ġdem okrat
Ġj Ã¡n
8 2
Ġp ed
Ġst ri
Ġ197 9
n s
Ġ201 6
Ġi i
Ġt un
Ġsv ed
Ġ ;
ogra ph
Ġrom p
Ġpoli c
Ġkonc ern
Ġha ut
Ġb ol
Ġkomp ar
Ġsu fer
200 4
o u
Ġk art
os e
us k
Ġhid ro
Å Ħ
9 1
es z
Ġd ank
Ġ Î
in sul
Ġmez ur
Ġpr in
Ġkli mat
6 7
h of
m eksik
ov ic
Ġvil l
Ġelekt r
Ġt rup
Ġintern ational
Ġg ard
Ġ198 2
ci z
Ġbr ul
Ġoks id
Ġa u
Ã¡ k
Ġ197 5
6 8
Ġkon cept
Ġam as
ra ci
Ġord en
Ġt aj
Ġv it
Ġdi al
Ġc an
g e
Ġp in
Ġorb it
Ġfer enc
Ġre c
Ġord inar
ip edi
Ġn ational
Ġm ek
Ġfig ur
Ġ Å¡
Ġt rib
ant ik
Ġdist anc
Ġm ank
Ġv est
Ġ198 4
ilv ani
Ġre lat
Ġkon stelaci
m ont
Ġkl opod
p p
ru s
Ġb us
Ġ197 6
Ġfre kv
as h
eg n
Ġrap ort
m ed
Ġgra d
Ġplan ed
5 7
el t
ro v
b ri
ru man
Ġon t
ki el
ĠÄīam br
Ġ16 0
land o
Ġ197 3
Ġmis i
Ġkur s
Ġkon ekt
6 4
dor f
Ġs pert
5 8
Ġal bert
te xt
s er
sp an
Ġf id
7 4
Ġd anc
Ġf ront
ogra f
y m
Ã¡sz lÃ³
f t
k al
is h
Ã© ny
l aÅŃ
Ġresp ektiv
Ġb ank
li ch
Ġfl ag
Ġs oc
re l
Ġf aj
Ġm ir
Ġher b
Ġv ul
at t
Ġprofes i
m on
Ġm ac
al ig
Ġtem pl
Ġ Ñ
Ġb ur
Ã© n
aÅŃ l
ĠÄĿ ust
Ġst re
Ġ197 8
Ġkal kul
Ġe u
l ingv
o y
Ġn ek
on n
Ġb ot
Ġ197 4
Ġpra g
Ġl un
Ġsp ec
f al
ro s
ic k
Ġbav ari
c y
Ġind ivid
7 2
en berg
Ġsub st
Ġci kl
Ġinstru ment
Ġs Ã¡n
Ġt end
Ġeks pl
u li
ul d
Ġri mark
ic s
Ġ193 9
Ġri t
Ġr ond
Ġkarakter iz
Ã £
Ġp ec
5 1
Ġap lik
uz i
si er
Ġkons ili
ar ki
Ġm erk
ĠÂ °
g rand
Ġk and
Ġist vÃ¡
Ġ193 8
Ġnag y
Ġas ert
rop ol
Ġs ak
ek z
Ġag n
Ġneni am
Ġakt ual
Ġfiloz of
Ġs ezon
Ã¨ r
Ġ195 6
and er
Ġde utsch
Ġz u
Ġap og
7 3
Ġh alt
Ġti a
Ġprin cip
Ġf av
r h
Ġ195 9
e arth
Ġen g
Ġprof und
Ġciv it
em bl
Ġw orld
Ġ197 1
Ġand re
c er
at h
Ġop ini
Ġvik ipedi
Ġindivid u
Ġis rael
in ter
ek ut
ard i
ver s
Ġra b
Ġchar les
Ġbran Äī
ĠaÄī et
Ġd r
ro f
Ġj ork
an e
anÄĿ er
l ag
6 3
t or
Ġ197 2
Ġ196 9
Ġjes u
Ġred aktor
5 3
li kt
ĠÄī as
kon stelaci
Ġer n
o ur
Ġgimn azi
d er
Ġsekret ari
Ġk ra
.. .
Ġalb um
6 1
Ð ²
Ġ194 8
Ġvi ol
id at
Ġm ent
pl ay
m or
Ġkan al
Ġb y
ist rikt
ĠÅĿ in
5 2
8 1
Ġc ont
Ġc ast
Ġs or
Ġv ent
Ġpopul aci
Ġf on
as ad
Ġvir g
Ä ģ
re g
Ġ196 6
7 1
5 4
s en
it ud
Ġpre ciz
Ġz e
p o
an o
Ġin eg
Ġm am
Ġsoc orr
ab il
h id
tit l
Ġpo ezi
f eld
v ir
Ġarkitekt ur
b ack
Ġj er
on es
est er
kl am
Ġfried rich
Ġg ust
Ġfav or
al p
n gc
fik s
Ġrelat iv
Ġo ce
ta ci
w ald
Ġkom and
m l
u er
Ġf Ã¼r
ri v
6 9
Ġmin ac
col span
Ġkn ab
z on
Ġd ani
ut emp
im um
Ġinv ent
Ġn ic
Ġ17 0
Ġunivers al
Ġprov iz
Ġarg entin
Ġom aÄĿ
an y
Ġar d
Ġdin asti
z el
Ġd as
Ġv und
Ġv ost
Ġje an
Ġkatedr al
Ġor k
j en
l ing
Ġd ar
Ġku ir
ap i
ta kt
Ġ196 7
Ġa ug
j an
Ġd anÄĿer
Ġ196 4
Ġnask iÄĿ
Ġal l
Ġdemokrat i
Ġp rom
Ġl Ã¡szlÃ³
it ar
ri s
Ġpru v
pal at
Ġf orig
Ġsem ajn
dis play
s u
w ell
z y
olog y
Ġare st
Ġmani er
a Äī
j ap
Ġ195 8
Ġred akt
6 2
l ad
Ġper e
Ġ195 7
7 9
Ġi ran
' '
n un
Ġra s
Ġ196 5
à ¤
ĠÄī es
al m
li v
Ġ( ).
ĠaÅŃ d
k en
Ġc eter
Ġc orn
amp ion
Ġ rand
Ġkri m
ri m
Ġg am
Ġmal g
display titl
Ġdes egn
ra g
Ġp om
Ġ20 20
h o
Ġg olf
Ġti om
w il
Å ±
ci enc
Ġ201 7
Ġl eter
Ġek v
Ġarm eni
kat olik
5 9
Ġlo u
Ġsek ur
b e
v ill
Ġe f
Ġ196 2
Ġt am
Ġmed al
s ud
es i
Ġorgan ik
Ġ20 21
Ġbar ok
gro und
on im
Ġalf abet
Ġc la
Ġ20 18
Ġti utemp
Ġc am
s an
Ġrich ard
ac e
b al
Î ±
ro g
ĠÄµ az
Ġdem and
Ġb ut
Ġpre fer
Ġy ork
Ġord on
Ġnat ri
Ġsp ir
h or
Ġin sp
ĠÅĿ at
Ġagn osk
c o
Ġan onc
Ġrez erv
Ġbudap est
m ad
Ġk ern
Ġp aci
Ġsan g
Ġ192 9
Ġinv ad
e ologi
Ġn azi
Ġ194 1
Ġli kv
Ġh ein
Ġ194 7
Ġfund ament
Ġmask l
i j
ĠÄī el
Ġ Ãº
Ġukra in
Ġc as
Ġam eric
Ġwil helm
palat inat
o bl
Ġsch w
Ġnut r
ok ol
Ġplu v
Ġn y
Ġb ron
Ġjam es
Ġfest ival
pre mi
n ÃŃ
Ġ20 19
o pl
ka p
um b
Ġmes sier
g es
n ologi
re ÄĿ
Ġb oh
o od
st ra
Ġang ul
Ġc amp
ust r
eg y
Ġrez ist
ĠsÃ¡n dor
Ġat l
us on
Ġ196 3
Ġy o
w ard
Ġm Ã©
Ġdu b
Ġme tal
Ġjos Ã©
Ġaver aÄĿ
Ġjos eph
Ġet ik
Ġrejn lando
op ol
Ġ193 6
Ġkon takt
Ġkonf likt
Ġad v
Ġmalg raÅŃ
Å Ľ
Ġro z
ÃŃ n
Ġm ul
Ġ19 18
Ġant oni
Ġra m
Ġr ing
Ġkol omb
Ġma ÅĿ
ĠbudapeÅĿt an
Ġdis pon
Ġportug al
back ground
Ġir land
Ġfik ci
d istrikt
it t
Ġ194 9
Ġ195 3
ren k
ri pt
ol a
au x
h ard
Ġk er
Ġsek ci
Ġt ak
af oj
Ġb ret
Ġpor d
Ñ ĥ
Ġe bli
an ol
end i
b y
ag n
Ġ194 6
m os
Ġg a
Ġst an
Ġtrans ilvani
Ġdez ir
Ġbru t
Ġsub skrib
Ġhid r
Ġ +
od or
v el
ro k
Ġebli g
us s
ver t
Ġ193 3
e ch
Ġfinn land
Ġform al
ar ag
el y
Ġh and
Ġon d
e ÅĿ
Ġb ak
Ġspeci f
Ġara g
re z
Ã© p
Ġho ut
Ġkon d
Ġjohan nes
Ġok cit
ÅŃ d
Ġd ung
Ġspi rit
Ġm m
Ġro d
Ġ195 5
c al
Ġ7 0
Ġz w
Ġp ic
Ġ8 0
ich t
Ġkonc entr
Ġh ig
Ġd im
Ġlan g
Ġnor v
o ol
Ġr h
Ġku ÅĿ
c ar
Ġma x
Ġproc ez
. :
men aÅŃ
Ġal p
Ġal ex
Ġf uÄĿ
Ġpar oÄ¥
Ġtro p
Ġork estr
d in
Ġt ok
et h
Ġkonst ituci
Ġh ans
Ġ196 1
Ġstat istik
Ġtra m
Ġat ent
Ġtre jn
Ġn ul
Ġt ron
Ġka m
az on
Ġ193 4
Ġ192 8
Ġciv il
Ġka st
Ã¶ n
Ġv eg
Ġinst ituci
a ta
Ã¡l y
Ġpro ces
aÅŃ t
Ġ3 8
Ġv ad
ci li
Ġw olf
Ġbri t
Ã¤ n
Ġm y
Ġp gc
at emp
Ġne ÅŃ
Ġleg end
z e
Ã³ w
Ġgal eri
Ġmet ropol
Ġti li
Ġev ang
Ġinst al
Ġb omb
Ã© g
Ġph il
Ġs eg
Ġrom katolik
j u
Ġl or
Ġg ru
Î ¿
Ġor nam
Ġi b
ori ent
Ġh u
ĠÅĿ ose
Ġ194 3
Ġ195 4
Ð ´
Ġal menaÅŃ
Ġ192 1
Ġaleks andr
z ig
Ġkontin ent
os p
uj ar
Ã¶r gy
Ġped agog
of f
Ġ195 2
st adt
Ġmich ael
Ġh eb
Ġ9 0
y t
ing er
Ġru in
Ġsub speci
Ġ15 0
Ġpat ri
m o
or aci
re c
ĠÄī ili
Ġ. ..
er d
Å Ł
Ñ ı
Ġm oz
Ġ192 5
Ġmot or
Ġfrekv ent
Ġlu kt
Ġen ci
ion s
w ig
Ġb ril
Ġc ap
as oci
Ġstud i
Ġ194 2
Ġmc g
Ġis land
ro t
Ġ193 2
Ġf rom
ili o
Ġstat u
Ġni a
Ġki al
Ġbel g
eg ori
Ġkand idat
Ġaug ust
Ġak om
Ġru d
Ġmin ist
Ä ĩ
Ġunu afoj
l os
ori tat
Ġsitu aci
Ġwal ter
s ub
Ġj ug
ar at
Ġka v
ut i
Ġ5 9
Ġtab ul
c in
Ġanal iz
Ġn et
Ġv as
Ġkonc ert
per iment
Ġes cept
Ġsp ekt
Ġ193 7
Ġhist ory
Ġkompl eks
eg r
ation s
Ġoce an
Ġ192 7
Ġak uz
Ġk en
Ġle xik
Ġpat ron
c el
k e
Ġin ici
ow sk
Ġs lov
Ġt ask
Ġev it
Ġg or
Ġpo d
Ġp p
Ġte ologi
j et
Ġ Å¾
al ingv
am ik
Ġat est
f il
Ġp s
ĠÄī ampion
Ġvi kt
Ġsul f
m it
ar ch
Ġneni u
Ġ192 6
i ta
Ġh ero
ĠÄīeÄ¥oslovak i
Ġakom pan
b ul
ord inat
lin ear
Ġh und
ĠaÅŃt oritat
ort h
ber i
Ġn aft
Ġp ul
ra v
k et
y r
Ġat ribu
Ġekon om
s burg
p ti
Ġla j
Ġ192 2
id ent
Ġali anc
ĠÄīi el
Ġevang eli
Ġn ig
Ġto tal
Ġkonst ant
Ġunu op
Ġde riv
Ġast r
Ġt av
Ġal tern
os lav
Ġf az
Ġprot est
Ġhum an
ar g
Ġg ran
em oni
Ġhel en
Ġab at
Ġ19 12
Ã¡ m
ĠÄīi ujar
Ġ193 5
Ġekspl od
esch icht
a x
ob red
Ġ195 1
j o
ru m
Ġ193 1
y d
Ġu e
us z
Ġmaj or
ÃŃ t
ĠeÅŃ r
Ġsch ool
Ġprog res
ĠaÅŃt onom
Ġint enc
s oci
Ġm ens
ok cident
Ġkar bon
Ġ19 14
h u
u Äµ
Ġp ej
Ġm om
it im
Ġad apt
Ġgre g
Ġhen ry
Ġkali forni
h Ã¡z
Ġor n
Ġ192 4
ĠÂ ½
Ã© z
Ġbron z
Ġtrop ik
Ġs ab
Ġkun ig
o id
ĠâĢ ¢
Ġoli v
v iv
ÄĿ ent
ing i
Ġtek nologi
ch er
Ġro j
i i
m ov
Ġi v
op t
Ġdek liv
Ġdial ekt
al es
Ġm en
an a
Ġjar dek
Ġnorm al
Ġmag net
Ġt eks
Ġstat us
Ġkult iv
Ġminist eri
Ġekonom ik
p ort
Ġmal antaÅŃ
p ost
on y
om en
Ġc ed
Ġk ok
Ġko ordinat
Ġs onor
Ġf red
Ġpi err
l or
Ġ Ã¶
Ġm atur
Ġne p
Ġsz ab
Ġt ar
Ġchrist i
h ist
o at
Ġb et
n c
ot h
f est
t ra
Ġin c
Ġek ologi
Ġ192 3
g est
h isp
o ch
Ġkonk ur
Ġgot ik
] )
Ã¤ r
Ġpub li
Ġd ud
Ã© sz
Ġdist ribu
Ġkap it
Ġs ec
Ġokcit an
Ġmal pli
Ġpre leg
ÅĤ aw
Ġla m
Ġde tal
Ġf eli
Ġbi ologi
Ġgre ki
Ġ #
en si
ad i
Ġab und
Ġkomis ion
ã ĥ
on al
Ġgl aci
Ġp est
ul tat
200 6
Ï Ħ
Ġek st
Ġeks periment
Ġmar c
Ġgra fik
ug h
Ġhen rik
Ġf u
obred ad
Ġe du
az z
ĠaÅŃt om
o per
Ġm aks
Ġg ab
og i
Ġtur ki
Ġ190 7
Ġdem ografi
i tal
Ġf ac
ra j
m ond
Ġd ig
Ġd ors
ul l
Ġlan Äī
v il
ok at
b ut
k ci
v ol
es anc
ant i
Ġport ret
Å¡ t
ÅĦ sk
Ġf ern
Ġc re
Ã¼ l
Ġlu ter
f ekt
ta Äµ
ha us
Ġ19 00
Ġ3 00
Å Ī
ing s
end ar
l as
Ġm and
Ġre in
Ġpre fiks
Ġph ili
dam n
ĠÄīe val
Ġ3 5
Ġins ekt
d el
Ġm ig
Ġb os
aci Ã³
Ġsk lav
Ġadmin ist
Ġfik s
b et
i fik
s g
Ġc in
Ġun un
Ġfranci sk
amen hof
z aÄĿ
Ġa us
Ġv ag
200 0
Ġt aÅŃg
Ġor gen
Ġal ud
k ant
n ord
Ġvul kan
Ġp aÅŃl
Äī ef
Ġkon damn
Ġpar al
Ġ19 11
" ).
Ġg itar
i Äī
p art
Ġb iz
Ġfra p
Ġkontra st
Ġs ag
Ġm eg
Ð ¼
e br
ekt or
Ġsk ol
is i
re gion
Ġfran z
Ġser b
esp ond
m un
Ġfar m
Ġfak ultat
Ġegi pt
g l
Â «
Ġh otel
Ġpej zaÄĿ
m d
Ġsin jor
Ġbel or
isch er
Ġk ot
Ġn aÅŃ
Ġt eg
ud i
t y
Ġjak ob
b an
Ġl en
Ġne u
Ġdon ac
Ġsubst anc
Ġla d
Ġofici r
Ġ190 8
Ġbot anik
ter i
Ġpar enc
Ġme ta
Ã³ r
Ġba ch
Ġst ef
Ġz amenhof
Ġmit ologi
Ġk up
Ġki s
200 5
Ġmaj str
Ġri med
Ð¾Ð ²
] .
c a
in e
ov sk
d f
t em
Ï Ĥ
Ġka val
Ġ19 13
ov Ã¡
Ġpa ÅĿ
Ġo ber
ĠÄī ap
cl opedi
h al
Ġh os
Ġw at
Ġfranci sc
Ġbel gi
Ġhab itat
i ri
oli d
e ÅŃ
p k
Ġru b
Ġkl in
Ġkol on
ĠfranÃ§ a
x ic
Ġkompon aÄµ
e al
i x
Ġar ÄĿent
im ologi
ĠÄīirkaÅŃ aÄµ
v en
Ø §
g n
st in
Ġh all
Ġ19 17
Ġ5 00
Ġark eologi
Ð ¹
ul ar
Ġj r
ol l
Ã© m
Ġz ur
Ġm ay
Ġg ant
Ġkl uÄµ
b ra
Ġ( =
ĠÄµ et
Ġkond ut
Ġn it
et il
Ġsv edi
Ġren esanc
Ġgy Ã¶rgy
Ġhein rich
ar z
op s
r in
Î ¹
Ġs y
Ġv o
Ġter en
Ġber l
Ġekst rem
Ġsu gest
Ġben z
Ġkonf irm
a in
Ġl ov
Ġn an
Ġheb re
et ik
ÅĻ ÃŃ
Ġp ak
Ġpro b
Ġet imologi
Ġval id
Ġlit ovi
d an
m uz
Ġw est
Ġkri z
Î ½
Ġd un
Ġh an
Ġkom edi
Ã¡ rol
Ġ190 6
Ġtol ed
Ġb ell
og en
Ġekz amen
Ġsovet i
Ġinsp ir
p ut
Ġand al
f r
m ort
Ã ª
Ġgl ob
Ġportug ali
d o
Ġte olog
ob i
Ġd os
Ġkon vert
Ġpr int
p ag
Ġun ik
Ġbird s
Ġmor al
Ġbrut obredad
" ),
Å «
Ã¡ cs
az aÅŃ
Ġtran Äī
e u
Ġl ep
ĠÅĿ ak
Ġ Ã¼
Ġk opi
Ġs lav
Ã© d
Ġri o
Ġeu rop
af f
Ġgy ul
Ġt u
Ġt ub
Ġar n
f am
Ġh ind
Ã¶ s
ip zig
Ġegi pti
embl e
Ġal d
âĢĿ ,
Ã¡rol y
t ur
Ġf ur
Ġag l
Ġinici at
h om
200 7
m ez
Ġap ost
Ġbl azon
200 3
ĠÄµ us
e ÄĿ
Ġs ing
Ġbud h
rid g
Ġadminist raci
Ġunun ur
p en
Ġlu c
ey er
Ġmet i
Ġduon insul
Ġrif uÄĿ
Ġpl um
Ġpri m
Ġon te
Ġr ur
g r
er b
Ġz s
Ġtro j
ĠreÄĿ im
ali forni
lÃ³ s
et s
Ġz o
Ġvid e
Ġ190 5
v ig
Ġe ric
Ġkl av
Ġsen at
arag oz
Ġk ard
Ġp ad
Ñ ĭ
Ġf el
Ġtur ingi
Ġangl alingv
nc f
v ey
Ġp se
Ġm end
jap an
e um
an kaÅŃ
al em
Ġkat egori
Ġestr ar
Ġas emble
Ġb rand
Ġb apt
ej n
iz od
fl ank
en tal
Ï ģ
Ġo tt
Ġs op
Ġst ra
ĠÄ¥ or
ĠnaskiÄĿ urb
ĠÄīi o
p u
re k
ra ÄĿ
ĠÄĿ em
Ġnov el
Ġkons ci
Ġhaut e
Ġviol on
Ġa rist
an z
f at
Ġn ar
200 1
mov ad
e ul
Ġar ch
Ġro b
Ġprof it
Ġlast atemp
pro v
ili z
Åĳ r
Ġdisk ut
j e
Ġd al
Ġla kt
Ġka d
og n
Ġkri me
sch aft
Ġdez ert
0 5
Ġh it
ur gi
Ġkast ilio
Ġs enc
Ġkl er
hel y
Ġkor espond
Ġtav ol
Ġv is
Ġst abil
Ġburg onj
Ġ Ã
Ġe ta
Ġpro klam
ed ici
m ir
Ġst ein
Ġev ident
Ġark iv
Ġkr ur
aÅŃ n
Ġmin ut
mar itim
Ġkal vin
âĢĿ .
Ġef ektiv
Ġc at
id a
ut t
Ġprob abl
i h
p res
Ġs abl
Ġb ed
Ġd iv
ri ed
Ġg il
ĠÅĿ uld
Ġkv azaÅŃ
Ġkol egi
Ġ8 4
Ġmar ÅĿ
Ġrif uz
Ġt uÅĿ
Ġli v
usk ript
ĠÄīiu tag
v aj
Ġ3 2
Ġsen jor
iter ane
ic z
Ġfrank furt
Ġvikt im
e ir
Ī Ĵ
li t
ov ik
Ã¡ bor
Ġci fer
Ġkan on
Ġpa per
Ġdol ar
Ġbern ard
pi tal
Ġo mar
as z
Ġap rob
Ġed ward
ĠmaÅĿ in
Ġb Ã©l
d al
in o
Ġer furt
Ġmun ken
200 2
i at
in al
Ġan arki
Ġst al
Ġ18 48
ob il
Ġadv okat
Ġc u
Ġra j
hungar i
Ġ190 3
g art
n ey
Ġun esk
Ġag ent
Ġbl ack
Ġkolomb i
ok r
Ġep izod
Ġmom ent
a ir
Ġ Ñģ
kl e
Ġfre md
ta k
Ġmil an
Ġs eb
Ġb it
am etr
Ġsp ez
up t
Ġ190 9
j a
ran s
Ġw ith
kl or
d a
Ä Ļ
om etri
Ġgu id
Ġperf ort
aj s
Ġes e
ÃŃ r
Ġdi et
Ġim r
Ġfaj r
b as
Ġs w
Ġad opt
Ġman uskript
m s
n Ã¡
Ġf un
os s
Ġes enc
Ġcon s
Ġhum id
Å ¼
Ġd ur
Ġal un
and i
Ġpart ner
od oks
o ir
Ġe ra
Ġad res
oli tik
Ã¨ s
esper ant
Ġsev il
ĠÄµ ur
sa int
f ort
s ek
ik l
Ġz aragoz
Ġmed iterane
Ġinv it
jet nam
d om
Ġro y
Ġkons ek
ster dam
Ġj up
Ġs l
Ġar Ä¥
Ġtra f
Ġlud wig
Ġo x
Ġk Ã¡roly
Ġ Ãł
Ġm old
o i
ÄĿ er
li f
ron ik
Ñģ Ðº
g el
k u
Ġf ili
Ġiz ol
m id
Ġf em
Ġmar Äī
Ġarag on
Ġj on
an at
Ġb ov
ro w
ig en
á ĥ
Ġp Ã¡l
aÅŃ d
Ġle ipzig
ang ul
Ġven eci
Ã¼ ck
Ġlud ovik
Ġden t
sk Ã¡
Ġmin eral
199 9
b uch
Ġv e
Ġan at
Ġam ator
Ġtre m
la st
eli er
Ġkal endar
ek ul
eli t
Ġmerk at
an h
Ġen cy
al ist
ic t
Ġtal ent
Ġd or
Ġp ion
Ġb il
Ġb red
Ġat end
Ġmag n
Ġmich el
Ġ19 15
Ġmar ÃŃ
eg ed
bi bli
Ġmak ul
Ġli ver
Ġst ok
Ġekz ekut
Ġoper aci
0 1
Ã¶ l
Ġkor e
Ġpaci fik
t s
Ġcentr al
Ġarg ument
Ġlat in
Ġh on
Ġc amb
Ġra v
Ġint elekt
Ġ190 4
s im
z an
Ã «
al it
Ġekz il
Ġvir t
is lav
f ar
Ġm Ã¼n
on omi
Ġt ed
Ġr y
Ġsen s
Ġeksp edici
ace tat
k urs
s v
Ġa ut
it s
us alem
Ġch i
Å ¯
ru d
Ġtend enc
Ġv aj
et z
ez uel
Ġanim al
Ġzw g
Ġprint emp
g ang
Ġpil k
Ã©t Ã©
Ġhig h
f oni
kl ud
Ġf asad
Ġg v
Ġpar ad
ron d
Äī e
Ġsk al
Ġkaval ir
h em
Ġort odoks
Ġham burg
Ġki m
Ġv jetnam
Ġkon ferenc
Ġpre d
Ġ20 22
e ur
19 45
t v
Ġtr ink
0 6
p ur
Ã¡n d
Ġjac ques
Ġboh emi
Ġjug oslav
g al
ir ch
Ġint ens
Ġimp ost
Ġtest ament
k od
Ġb uk
Ġg old
Ġ189 9
ovi Äī
Ġf and
t ek
p ret
Ġzu rik
Ñ Į
ens ch
Ġapost ol
Ġam sterdam
Ġdel l
hisp an
ah r
Ġhin di
Ġhos pital
p rononc
Ġ3 3
lo ÄĿ
Ġrip oz
Ġjer usalem
. ).
s o
Ñ ĩ
Ġg ent
. ):
n ig
od end
Ġgen er
p ent
Ġ <
is z
20 20
Ġp av
Ġsur vey
Ġform ul
k er
Ġper u
red r
ĠfranÃ§ o
m oni
Ġver b
Ġ190 2
Ġkomis i
Ġparal el
Ġk ob
Ġil ustr
Ġtra g
ÑĢ Ð°
Ġkontra kt
o ter
199 7
. ),
j un
s am
Ġbad en
Ġ Ï
Ġl omb
Ġp ek
Ġg Ã¶
ov er
200 8
in es
ra f
om er
Ġg ren
ĠÄį esk
kom un
Ġb is
ist er
os h
ĠaÅŃt ovoj
oli br
n Ã©
Ġge h
Ġbas en
Ġdani el
ra p
ab el
Ġcol l
ht ml
Ġsi ri
ill er
Ġmani fest
Ġfra z
Ġalf red
Ġj oz
ol in
ĠÅĿ ar
Ġhen r
. ;
m el
Ġm ild
Ġt ank
Ġber g
k el
Ġa j
Ġg eschicht
ro st
bur gi
Ġatl antik
Ñ ĸ
Ġal g
ran g
Ġfen omen
Ġf end
ĠÄī en
Ġint el
Ġbru st
n g
Ġw ill
jar a
Ġgram atik
Ġedu ard
j on
k ong
om uz
li br
Ġsi err
Ġ5 2
Ġklas ifik
Ġpion ir
Ġes s
Ġ3 6
aÅŃg ur
s al
ã Ĥ
Ġs ac
Ġ1 20
Ġv lad
li m
Ġku raÄĿ
in st
Ã¨ res
olt Ã¡
a il
Ġt op
Ġad am
Ġsim etri
Ġn as
Ġbar b
Ġmod er
199 8
Ġaltern ativ
v es
ro c
Ġet il
ÃŃ k
âĢľ .
Ġp ast
Ġre m
ek d
Ġer d
Ġfal k
Ġing rid
Ġ ).
Ġm ure
om o
Ġh ug
Ġint egr
Ġsoci Ã©tÃ©
g rim
Ġo dor
Ġb art
Ġan as
ra st
Ġer ar
0 3
m Ã¡
Ġf ol
Ġliber al
199 5
h m
h n
Ġpro s
ac et
Ġat en
th er
Ġpse ÅŃd
a i
Ġf ok
Ġv at
Ġv esper
am i
Ġtri an
Ġflank ovoj
Ġrip et
Ġf aÅŃn
in er
Ġin aÅŃgur
Ġra ci
Ġjo urnal
0 8
b ud
Ġm ang
Ġh end
Ġge ologi
yle xik
Ġfra g
Ġnag ylexik
din and
ar ab
Ġh aj
Ġg ir
ru z
ter s
ap or
Ġro t
Ġkar n
Ġcorn el
f ic
ã ģ
Ġm id
Ġv ig
Ġven ezuel
Ġ190 1
Ġmars renk
ĠpÃ© ter
0 7
Ġv eter
Ġ4 6
kont e
Â» ,
ta m
Ġre son
Ã¢ r
Ġszab Ã³
Ġdud ek
c c
k o
Ġf anta
Ġal m
ent i
Ġiom et
Ġnu kle
0 4
m y
Ġba y
Ġmus ic
pa Ã±
rel s
en h
pl ej
zel and
Ġb ag
Ġ3 4
Ġreson anc
' ,
0 9
g rup
Ġde stin
ist an
im ir
Ġpost eul
Ġap arat
kl opedi
Ġand ers
199 0
Ġ189 6
Ġjoz ef
Ġen ket
Ġh az
ki u
p om
Ġm astr
z er
h Ã¡ly
Ġk op
Ġunu ig
Ġpar d
Ġsk ot
ĠÃ© let
Ġt at
Ġh ay
Ġg ott
il e
em ein
0 2
h en
v ju
Ġinter pret
Ġmon g
Ġnorm andi
Ġpru si
Ġn aÄĿ
aÅŃ li
Ġinst ig
jar aÄĿ
Ġtrib un
om an
Ġr ar
Ġim ag
Ë Ī
Ġt abl
ok on
Ġg ol
Ġli f
Ġfen il
d y
Äī konte
Ġ3 7
Ġ189 8
e ta
s id
Ġre dukt
Ġ189 0
Ġkur b
Ġjos ef
tem berg
t ri
Ð ±
à ¸
Ġp ir
Ġ. .
200 9
199 2
Ġviz aÄĿ
Ġcer emoni
Ä «
Ġkl e
Ġmin as
Ġkonf uz
Ġsociet y
Ġnik ola
Ġphili pp
f en
t es
Ã ¸
Ġre l
as m
ĠâĢ ł
Ġchem ins
ĠÃ¼ ber
Ġb aj
ek ta
ĠÅĿ los
Ġtra jt
Ġ4 2
Ġop ozici
ĠÅĿt up
ĠanstataÅŃ ig
Ġmetro staci
Ġsat elit
Ġv Ã¡r
ici kl
Ġet i
Ġ[ ],
u si
Ġf ul
Ġad olf
ĠÅĿ af
Ġes paÃ±
Ġsub ter
Ġhidro gen
Ġarb ust
kom pon
Ġnorv egi
Ġk ord
Ġka f
ep p
ÄĿer ajs
â ĪĴ
Ġdu obl
Ġ189 5
Ġm ut
Ġm uel
Ġb ast
Ġ19 16
Ġkun iÄĿ
Ġox ford
f ried
Ġk anc
Ġ( ),
Ġg ig
d l
Ä ħ
Ġt w
ov ann
Ġ3 9
Ã©l y
Ġn az
Ġv es
Ġv Ã¡
Ġur s
Ġ4 00
Ġdis put
Ġpartopren ant
Ġpers ekut
ch i
Ãº j
fran ci
Ġla v
Ġne ÄĿ
Ġpre ter
Ġinter vju
Ġkar ol
199 6
ekz empl
av ic
Ġpre dik
Ġeng aÄĿ
Ġgeh rels
w i
Ġb ert
Ġkom ent
Ġz oltÃ¡
Ġfer dinand
199 4
ĠÐ ¿
Ġca tal
t ic
al a
Ġrom antik
198 9
âĢľ ,
Ġfern and
ol c
am erik
Ġdi ametr
Ġdis ig
Ġki om
âĢ Ķ
oz s
16 6
z or
Ġp edr
it ani
ell er
Ġrez ign
m od
Ġ Ã¡l
Ġa uf
Ġka b
um en
sk i
Ġhar moni
Ġern st
Ġi on
Ġb ab
Ġsub t
n ederland
t Ã©
v oj
ej l
Ġfiz i
Ġperf ekt
Ġgab ri
g s
vir temberg
Ġrud olf
Ġp uÅĿ
Ġka ta
Ġh un
b ord
Ġe ug
li ter
ec o
199 1
Ġpsik ologi
Ġb end
ab or
Ġeli z
ekta kl
u at
Äī er
Ġc ler
Ġoks igen
Ð ³
Ġk ing
an Äī
re y
Ġan hid
Ġra t
âĢ ²
âĢ ĭ
Ġser bi
Â» .
Ġ.. .,
m as
Ġla c
in ari
Ġc Ã´
Ġdek ret
Ġsm ith
j am
on ezi
Ġak s
Ġfin al
Ġkor n
Ġpen si
Ġpil grim
Ġgro ÃŁ
al b
Ġek oregion
Ġdu foj
Ġinc endi
Ġl em
ent ur
Ġ4 8
Ġgener aci
e Å¡
Ġalt ar
anta ÄĿ
a e
h ur
s ncf
Õ ¡
Ġm oh
on e
Ġbi ograph
Ġ6 00
Ġart ef
Ġenci klopedi
Ġak ord
Ġpal m
n t
o ÄĿ
v ern
w er
Ġant on
Ġalex ander
k aliforni
m ik
m ari
s il
Ġu gc
Ġw ag
Ġgi ovann
en ev
ÅĿt on
Ġ189 4
Äīi pl
e er
Ġo ran
Ġin und
Î µ
Ġg vad
Äī ment
Ġpro pag
fi eld
Ġtab el
hist ori
Ġmaks imum
Ð ·
Ġs ap
Ġkar p
Ġeg y
Ġt ul
og e
199 3
ĠÐ ²
Ġrec ord
Ġm ic
an ism
Ġkv alit
Ġdis Äīipl
Ġhar ry
Ġsaksi o
Ġmek anik
l ar
Ġn orth
Ġg on
Ġz am
Ġbl ok
eder aci
Ġakv itani
Ġhab sburg
Ġproviz or
raj z
Î »
Ġsub pre
Ġ5 5
Ġmor avi
aÅĿ ingt
o ta
Ġre k
Ġbi er
Ġkons ult
af rik
Ġlu ci
vin e
Ġkul p
Ġtru d
Ġsign al
Ġpropag and
l ok
Ġb icikl
Ġh aÅŃt
ek ci
end orf
b ek
Ġsal t
Ġbe at
b ad
Ġst ep
Ġ188 7
Ġanhid rid
Ġst art
ak esp
Ġge ometri
Ġlu ks
g a
Ġn em
Ġsp ektakl
Ġ[ ]
Ġpa ÅĿt
Ġkonv ink
d es
Ġa ust
Ġli bro
rom an
Ñģ ÑĤ
Ġciv iliz
Ġpoz itiv
Ġalf ons
Ġkro ati
h odiaÅŃ
l ud
Ġla z
ra y
Ġc ab
ĠÄĿ u
Ġun g
Ġkap ital
Ġinv est
akesp ear
Ã ¦
Ġu p
ir k
Ġof ert
Ġ189 7
Ġmik r
Ġpedagog i
Ã¡ j
Ã¶ ld
Ġta ka
Ġfa ir
i kt
w ood
Ġv entr
ci on
Ð° Ð½
Ġ188 9
st em
Ġt ez
Ġant i
sk y
Ġmik lÃ³s
Ġbiz anc
v or
Ġre kom
ch en
ili k
Ġak ci
Ã¡r t
Ġbu ÅĿ
Ġfeli Äī
Ġandal uzi
b b
o tag
v ent
Ġv itr
Ġh y
il y
br un
Ġind i
Ġta Äīment
Ġnic ol
Ġpubli sh
ĠaÅŃtom obil
1 00
i ag
Ġj i
Ġel l
Ġkons um
Ġdeb ut
;" |
l eb
Ġv inc
Ġpo kal
um an
Ġelekt ronik
lo ir
ĠÅĿar ÄĿ
et i
Ã³ l
ah ar
Ñ Ĩ
Ġ1 000
Ġsi eÄĿ
ĠÄĿen r
muz ik
Ġ Ã¡r
and ri
Ġav antaÄĿ
Ġgor ÄĿ
Ġcamb ridg
l Ã©
ar es
Ġmal aj
b ru
m art
p eter
Ġt Ã¶r
Ġg Ã¡bor
ter min
Ġsim foni
Ġmi a
Ġmalpli iÄĿ
Ġbelor us
Ġmikr oregion
m und
Ġ Ø
Ġâ Ĩ
un kt
aÄĿ er
Ġ7 5
ĠÐ ¼
Ġac ad
Ġkontin u
Ġslov en
y ch
Ġa h
en ic
in a
Ġkolekt iv
ht m
Ã´ n
Ġmot iv
v ard
Ġc y
Ġsz eged
Ġamb asad
Ġgreg ori
" :
Ġal s
eg ul
Ġ4 7
ill y
Ġmod if
Ġkapit an
j ev
Ġh ier
Ġw ild
Ã³ d
Ġind ian
Ġ188 0
Ðµ Ð½
Ġmol ekul
pom eri
Ġ å
Ġi rak
Ġlo well
Ġ4 3
Ġ4 4
Ġhor loÄĿ
j k
u ra
Â ½
st rof
Ġkvad rat
Ġbret oni
at s
Ã¡ b
Ġsp ur
Ġwolf gang
Ġpak istan
Ġmold avi
Ġk rak
âĢ ³
Ã³ t
Ġse ÄĿ
Ġ189 2
Ġnik ol
Ġstef an
enev eld
Ġl od
Ġn r
Ġsp r
Ġind onezi
Ġmin imum
Ġma h
Ġ ×
ru c
Ġpro por
Ġst e
um bi
Äį ÃŃ
Ġ187 0
gro eneveld
Ġhout en
Ġjugoslav i
Ġs s
Ġh imn
Ġc z
Ġsi cili
Ġes c
âĢ İ
20 10
Ġvi rus
Ġab sol
fl ug
Ġneg oc
ĠÃº j
G H
Ġs ektor
at er
rig ht
bo ok
Ġmel odi
Ġpropor ci
Ġh ori
Ġg od
Ġmi hÃ¡ly
Ġpas aÄĿer
Ġsz Ã©k
Ġsil ezi
Ġchar ent
GH S
p in
p aÅŃli
Ġcir kl
Ġpros per
b u
Ġj av
Ġd orm
Ġal e
Ġri z
ver d
ell ow
kon st
fam ili
ozs vÃ¡r
Ġk Ã¡l
Ġs ir
aÅŃ z
Ġdep ost
Ġteg ment
l ini
o in
p as
Ġk g
Ġn ub
Ġs ej
Ġmek l
g ari
p et
Ġi a
Ã© ri
ĠlaÅŃ d
Ġ189 1
Ġmer it
Ġcla ud
Ġh im
ra ch
Ġek ip
ag ent
Ġbar bar
Ã´ m
Ġandr Ã¡s
c entr
f az
Ġv or
op ter
Ġresp ekt
Ġstrat egi
Ġsor Äī
i a
Ġj od
Ġf ek
198 0
Ġsev er
Ġoran ÄĿ
p os
Ġi van
li s
Ġak cident
Ġer mit
ver k
Ġradi o
Ġn in
Ġm Ã¡
Ġpli iÄĿ
Ġdo kt
Ð° ÑĢ
198 1
Ġp ent
Ġs aks
Ġchem ical
Ġschw arz
Ġvaj mar
v o
y c
Ġd Ã©
Ġs n
re cht
Ġh us
ka s
im ar
sk Ã½
ob ird
198 6
k re
Ġt j
at l
ĠÄĿ erm
g h
g ent
or um
Ġh erman
Ġh ill
198 7
Ø§ Ù
Ġeliz abet
ec ti
Ġsem inari
Ġlog ik
Ġartef ar
v ic
Ġ18 28
iz ik
n ur
el es
Ġunu sol
Ġvil helm
sp ekt
Ġalt itud
Ġsep ar
Ġkron ik
Ġlomb ardi
v a
Ġ ?
Ġka mer
ac ea
of ont
isk olc
ĠÐ ¸
197 4
Ġvari ant
Ġide al
Ġgabri el
É Ļ
Ġra f
Ġman uel
s or
ast ik
Ġed ikt
prov inc
. -
n ag
Ġ ),
Ġde termin
Ġt in
Ġf aktor
Ġw all
Ġkont ent
20 11
Ġbo ok
ĠaÅŃt un
Ġi o
Ġc erv
it or
Ġ7 2
kv il
Ġsuk er
Ġtak son
Ġtribun al
Ġi rod
Ġh em
Äī in
Ġkon klud
Ġmar gar
Ġch a
istr y
Ġbl an
Ġ8 6
Ġfal s
Ġfen estr
Ġveg et
Ġeta ÄĿ
h y
r al
Ġn ach
ar kt
Ġre ktor
Ġam or
Ġem oci
Ġab el
odend rum
L a
r ar
È Ľ
st ini
ar m
Ġad mir
Ġjoh ns
Ġpal e
ĠÄĿen ev
Ġ188 5
Ġimp res
Ġcler odendrum
Ã ²
Ġla k
Ġla ur
la Äīer
Ġle b
aÄ¥ ar
198 8
Ġkonst at
Ġhi per
Ġmekl enburg
m m
z ac
Ġv ak
Ġb od
19 78
Ġsp egul
Ġbaz ilik
197 9
Ġnorv eg
bibli otek
Ġd og
Ġh ag
Ã¡ ni
Ġos ak
ver b
Ġgeorg es
Ġkonv enci
Ġs ik
Ġb rom
Ġ18 50
Ġsh akespear
rig ent
Ġze it
Ġfizi ologi
Ġde fin
Ġant ologi
Ġpra v
Ġjen Åĳ
Ġnap ol
Ġfid el
Ġfok us
) )
Ġp ik
Ġfil olog
Ġbal t
Ġkrist al
Ġkata strof
b p
Ġl ed
Ġg n
ili t
Ġ3 166
Ã¡r d
Ġmure ÈĻ
ul ac
Ġel st
Ġpro z
ad e
Ġem er
Ġlu k
Ġ189 3
Ġsov aÄĿ
Ġ187 1
Ġbro w
Ġot oman
Ġbul gar
o Äµ
Ġg ut
Ġint rig
Ġdis iÄĿ
Ġsz ent
Ġmag i
Ġ188 6
Ä ±
Ġe min
en ig
Ġf c
Ġv apor
ant es
Ġ18 60
Ġ5 6
Ġsch ul
Ġman ch
Ã©sz et
Ġabsol ut
ÄĿ is
Ġg aj
au er
Ġandr Ã©
Ġyo ung
Ġtakson omi
s el
v ort
Ġj ung
as i
Ġig n
Ġap en
Ġte ch
197 7
Ġkonserv ativ
Ġad or
Ġri d
Ġunu ec
Ġven us
ill es
Ġs aÄĿ
re b
Ġle id
Ġtran kvil
enz oat
ĠpÃ© cs
j ud
j oh
Ġl ut
Ġh ow
Ġsol en
ĠÐ º
198 5
Ġ188 8
b ig
Ġl ert
Ġt Ã¢r
sk Ã©
Ġ4 1
Ġsz ÃŃn
Ġ188 2
Ġdiplom at
Ġco unt
Ġhip ot
Ġhin du
c en
Ġf ung
Ġ18 30
Ġse arch
les vig
Ġfest otag
w ay
Ġla ter
is b
Ġlern olibr
Ġmig uel
a ut
v est
Ġf ischer
Ġad ri
ĠÅĿ lesvig
Ġbo li
Ġcit y
ĠÄīap itr
anh alt
am in
Ġant rop
Ġ| }
Ġdez ajn
ict ion
Ġgvad al
a qu
u ter
ri ft
Ġv aÅĿingt
Ġb Ã¡n
Ġg es
Ġst ev
ĠaÅŃ vern
Ġw ald
Ġat enc
du c
Ġdis d
198 2
Ġtok i
Ä Ĺ
Å ¥
Ġla b
Ġst r
ok od
Ġr ul
Ġpli ig
Ġbl ind
Ġvi and
Ġjac ob
Ġhi ro
Ġdefin itiv
u res
Ġl Ã©
Ġkon cili
Ã³ k
german i
Ġlep sik
peter burg
e ux
Ġ *
Ġs ill
Ġb es
os i
Ġr Ã©
Ġpoli t
Ġval l
Ġbo oks
198 3
197 0
196 9
Ġcl ass
Ġphil os
Ġalianc an
Ġency clopedi
Ġskot land
ĠâĨ Ĵ
o ul
y am
Ġb rat
Ġin vers
ur y
Ġsam kiel
Ġromi an
Ð ¿
Ġe mp
Ġd res
re ich
Ġre klam
Ġkom et
Ġ18 78
ici al
Ġlan gu
Ġ5 1
ÃŃ s
Ġsal z
Ġ187 5
Ġvic tor
ÄĽ j
Ġdan ub
Ġpub lic
ruman i
Ġdokt rin
j ect
o ut
li st
Ġh eg
ra bl
Ġsal on
197 3
Ġflor enc
Ġdol or
o is
Ġb og
ed oni
Ġm az
an al
Ġf as
Ġam oni
oc ez
hol stini
e olog
Ġ Ã¡
Ġen s
ÄĿ an
Ġc ur
Ġc onc
ch es
Ġon kl
Ġon lin
ero form
rop ik
Ġreli ef
Ġsil ent
3 00
l ern
u il
le on
Ġ187 9
Ġtor in
m aÄµ
m egy
Ġli s
la h
rat i
Ġ188 1
197 5
ĠmÃ© xic
b c
ar ang
Ġb irm
Ġti bet
Ġbri g
p ier
Ġs it
Ġm r
Ġen gin
Ġun ter
Ġinf ekt
min istr
Ġkrom nom
Ġbra k
197 6
Ġ187 2
Ġac t
Ġemin ent
Ġapen aÅŃ
b s
h an
k in
st yle
ar b
ar n
ing r
Ġfl am
Ã¼ hl
Ġhit ler
bud ap
maÄµ or
e an
g o
h av
u es
Ġk um
Ġas ist
li z
Ġc ro
op old
Ġat mos
Ġevent ual
ĠkÃ¶ nig
Ġraj d
mid t
Ġwag ner
ĠÅĿlesvig o
Ġ ÅŃ
Ġt rom
in f
Ġh ild
it e
os cienc
ub ert
tat i
Ġdom in
Ġmos ke
Ġturi st
pan y
i tali
p x
Ġa ir
ar s
or o
ra b
ch el
Ġch Ã¢
Ġbal et
Ġval ut
Ġ187 3
Ġreal ism
Ġislam an
Ġdial og
Ġhend rik
Ġd iction
Ġar rond
Ġfl andr
Ġebl ec
20 12
Ġart hur
ĠÐ ±
Ġ187 6
hol m
rod ano
a us
c on
t ol
v enc
y th
Ġv a
li er
Ġsi avic
min or
Ġburgonj o
Ġk int
Ġen ig
19 44
aj r
man Äī
Ġspeci men
Ġekzempl er
Ġlat vi
kor ei
ĠaÅŃvern jo
g ani
s Ã¡g
Ġo te
Ġj azz
Ġla p
Ġn od
Ġf ir
Ġg un
Ġri m
ici p
ub i
Ġro st
Ġsk i
Ġmi Ä¥
198 4
fran Äīkonte
Ġmus eum
c ÃŃ
i al
Ġm ok
ri ver
ci st
ro z
Ġti bor
Ġst ad
Ġdi rigent
ec z
Ġorgan ism
Ġsal c
Ġ186 1
Ġl ot
ar p
Ġw ood
us h
Ġfre ÅĿ
Ġkav ern
ĠkÃ¡l mÃ¡
Ġhipot ez
Ġg Ã©z
and ex
Ġth Ã©
Ġol d
Ġy onn
Ġav entur
Ġsal am
Ġ186 7
Ġfab el
Ġdol Äī
Ġchem istry
omuz e
ar a
Ġ1 10
Ġpo ÅĿ
Ġst ip
pl u
Ġat t
Ġsil ab
Ġsant iag
Ġrec enz
Ġbudh ism
Ġy ellow
Ġem faz
à ¦
Ġo bl
Ġw ik
Ġtur d
sz t
i el
Ġj c
Ġm l
Ġh ir
Ġre ich
is c
ul es
Äµ or
Ġne v
op art
se a
Ġern est
Ġrh ein
oge ografi
Ġatmos fer
Ġ {
Ġj ord
Ġf rit
Ġsu s
Ġ18 49
Ġsi beri
rol og
cz y
Ġdeb rec
Ġfred erik
j er
Ġk em
Ġd re
Ġt as
Ġvok al
Ġeti opi
Õ¡ Õ
g or
per m
and al
Ġ17 90
Ġtri dek
Ġtri angul
20 13
sz ent
Ġmat en
Ġnatur al
ck er
Ġort ografi
fal v
Ġj im
Ġp ig
Ġ1 15
Ġb ob
Ġc ost
Ġkre st
of t
Ã¤ t
Ġ188 3
Ġ186 3
Ġcl ar
Ġmo id
ĠvÃ¡r megy
f ond
Ġl up
Ġh art
Ġh ept
ra di
em an
ist in
os fat
Ġdi fekt
Ġkomp il
Ġgri mp
Ġtom as
m em
o x
Ä ¾
Ġc e
Ġper t
Ġ187 4
iss ement
fil m
p il
en e
per s
ant in
Ã© es
Ġven en
ug l
Ġdis c
Ġcom mun
esk op
ĠmÃ¼n ch
f ali
Î º
Ġd rog
Ġdu et
Ġz al
Ġsek und
Ġmat Äī
Ġ188 4
Ġkonf es
Ġradik al
Å± v
san kt
m ag
Ġl et
ar l
Ġf rost
Ġper cept
Ġy andex
ot e
Ġof er
ac t
Ġcom pany
ĠneÅŃ tr
Ġkard inal
jaraÄĿ a
z k
Ġo c
Ġd n
Ġn j
Ġp es
Ġc ra
Ġz um
of it
Ġvi a
Ġmag az
Äį k
nun temp
ĠengaÄĿ iÄĿ
Ġsubt ropik
ĠtÃ¢r g
r er
Ġn iÄĿ
ÄĿ en
Ã¡ v
ot ip
Ġmar y
Ġro ch
ob ut
Ġ6 5
ĠÅĿt el
ny v
Ã¡s Ã¡r
bin et
Ġvig l
i e
Ġi un
Ġi ras
li d
Ġli on
Äī el
Ġpre st
Ã¼ d
ef t
ĠÐ ½
Ġsy stem
f el
er el
Ġt um
Ġf ren
ci Ã³
el op
ov c
ed t
Ġver g
Ġ4 9
Ġem il
Ġaf ric
Ġ186 5
196 7
Ġneg r
Ġekv aci
Ġhaz ard
f e
p at
Ġj ez
ver lag
20 14
Ġku ri
Ġplu redr
Ġma uri
Ð¸ Ð¹
Ġcal vad
l ong
Ġe ter
Ġm ass
Ġc rist
Ġc ass
Ġfl aÅŃr
Ġ17 98
197 2
ĠÃ©let rajz
e tat
Ġo rel
Ġe re
Ġl ug
Ġne pr
Ġesperant omuze
Ġmez oregion
Ġaf gani
Ġ186 6
osp eci
Ġfem in
Ġengin eer
t im
Ġ >
Ġn ud
Ġt ikl
Ġv ist
Ã¨ n
Ġneg ativ
Ġ á
Ġt od
Ġre form
Ġc ultur
Ġanta l
Ġr Ã³
eg er
Ġoper ac
Ġide ologi
Ġstre b
budap eÅĿt
t on
Ġe tern
st at
ra z
ĠÄī ik
Ġap ol
ron om
Ġsa al
Ġcon st
Ġburg os
Ġnu anc
d b
k Ã¶
Ġi uc
Ġan ÄĿ
00 00
Ġ18 15
aj ÄĿan
ĠÃ© d
Ġprom es
erb ajÄĿan
Ġrecord s
Ġrekom end
Ġengineer ing
t d
Ġn ort
Ġt ej
ri z
Ġri sk
Ġri kol
Ġru m
cent er
Ġtan z
Ġbur ÄĿ
p rop
p df
Ġt ang
Ġh et
kt is
Ġ18 00
sk ult
Ġbu ch
Ġut c
Ġboli vi
- ,
Ã ¥
Ġe ast
Ġs yn
Ġt s
Ġh is
Ġh ep
Ġw id
Ġw it
res s
Äį in
Ġpu Äī
utt gart
p e
st on
Ġh Ã©
Ġh ard
av al
Ã¡ ch
Ġmun t
Ġmili ard
Ġci gan
Ġpas er
Ġcom m
Ġ186 4
jap ani
ensch aft
Ġrikol t
a ud
Ġk uz
Ġen dr
Ġg est
ĠâĢ ĺ
Ġsk y
Ġ5 4
mont ar
Ġderiv aÄµ
konst anc
ÄĿ eri
Ġc astr
si on
Ġ6 39
ĠaÅŃt okod
Ġmes aÄĿ
Ġ! !
Ġkro at
Ġkonsek venc
Ġerd Ã©ly
k ultur
u it
Ġp eg
Ġm iskolc
Ġle gi
f u
i ÃŁ
p el
t l
er z
re jn
Ġsin agog
enci al
Ðº Ð°
Ġstein er
d em
Ġa qu
Ġf ajn
Ġ1 18
em y
ant h
Ġz ag
Ġdi ocez
ev i
of il
Ġproc ed
Ġmoz art
Ġcatal in
e o
m ak
Ġs fer
Ġb eck
Ġh il
ra Äµ
Ġst and
Ġst eph
ub er
Ġbird lif
c an
h ir
l en
Î ·
Ï ĥ
Ġi f
Ġd ul
Ġn oci
Ġf ingr
ri f
ci l
li tz
ĠÅĿ irm
ig ny
Ġfl eg
ver pen
ĠÃ© v
Ġmik ro
ew icz
Ġklor oform
Ġseb asti
m us
Ġd iz
Ġt v
Ġc r
Ġw eb
âĢ ¦
ver en
Ã¶ m
Ġba ha
aÄ¥ i
196 8
Ġaz erbajÄĿan
Ġekspl uat
Ġtrag edi
Ġvlad imir
Ġbrat islav
n ing
t rans
Ġt ort
Ġest oni
Ġb Ã©
Ġh eks
ĠaÅŃ skult
Ġ20 23
Ġsk iz
Ġtre zor
Ġfre i
Ġens embl
Ġt et
ul o
Ġpl us
Ġob e
Ġ186 8
Ġthe odor
Ġfrekv enc
Ġirod alm
s eri
Ġs and
Ġm eyer
an ej
Ġre cip
ap ur
Ġbo at
Ġba hi
Ġbul gari
Ġdik tat
Ġfrag ment
a on
p ul
w ik
Ġ1 14
ĠlaÅŃ t
Ġgl ut
197 1
Ġchrist oph
vad or
Ġdim ensi
f on
k r
Ġe is
Ġs ort
Ġm ill
en st
Ġt tt
or gan
op ro
Ġ5 8
sz eg
Ġfranci li
Ġ186 9
Ġrit m
l um
n ok
Ġm ev
Ġka binet
ĠÅĿ anc
Ġmar ch
Ġro taci
Ġval enci
196 6
Ġdim anÄī
Ġmalaj zi
Ġ ÅĽ
en er
Ġan eks
il egi
Ġdu op
Ġbaz el
Ġpas eroform
Ġhe id
Ġsav oj
ĠanÄĿ el
Ġant verpen
Ġind ic
Ġku k
Ġmik ael
Ġ187 7
ÈĻ t
o ka
v e
Ġl y
Ġka hel
at ch
Ġpro k
um p
Ã³ s
Ġkol ozsvÃ¡r
Ð¾ ÑĢ
ann es
Ðµ ÑĢ
Ġkonkur enc
< /
Ġland es
ell es
Ġandre w
tÃ© net
Ġcharent e
b re
g g
Ġt akt
ci r
Ġc ant
Ġst uttgart
ani er
Ġint eg
Ġ8 00
Å¡ ov
pt om
Ġpil ot
Ġgvadal aÄ¥ar
f abet
Ġf aÅĿ
âĢ ĺ
jekt iv
Ġbar on
Ġdat en
Ġlit urgi
Ġslov eni
Ø ±
Ġm ast
an ov
ol ud
Ġr ÃŃ
Ġmar in
Ġro ck
eb urg
oc s
Ġmat ric
nÃŃ k
Ġrek ord
k im
Ġp up
Ġh as
Ġre p
Ġro us
Ġle opold
Ġ7 00
Ġba uer
ay s
oc en
Ġkan ta
Ġcer b
k amp
v eli
Ã ®
Ġk est
Ġk oz
em ik
Ġsu veren
ori al
Ġw ester
Ġfer i
Ġprov enc
Ġpol us
Ġ8 3
Ġroman ik
Ġn il
ar r
oj n
ĠaÅŃt onomi
Ġrest oraci
Å¡ ic
Ġpriv ilegi
Ġstre Äī
f ont
Ñ ħ
Ġs Ã£
ar c
in stru
Ġal ÄĿeri
is e
av r
ak er
Ġmon arki
Ġgra s
Ġfranc esc
Ġku pr
Ġcir konstanc
Ġekonomik ist
inst itut
c ul
v ed
Ġst ir
Ġes p
Ġfar aon
Ġsam uel
te in
Ġsil v
Å¯ v
Ġl eksik
en burgi
Ġb ill
Ġor gi
Ġr on
Ġ17 89
Ġ5 3
kl ub
Ġkomp lik
Ġtol er
Ġarrond issement
Ġrecip rok
Ġ æ
Ġs ong
ĠÅĿ u
ult iv
Ġ5 7
196 2
antaÅŃ pomeri
Ġambasad or
i am
s av
or es
Ġfos ili
Ġroy al
Ġt uk
Ġli li
Ġ2 50
ad ur
Ġter m
pl an
sp ektiv
Ġkol onj
Ġim it
Ġpas i
ĠÐ ³
oks id
Ġlangu ag
Ġk la
og l
Ġ18 47
Ġdo ub
Î¿ ÏĤ
Ġstip endi
n d
n ap
o ar
Ġn am
Ġg vine
ing u
Ã© li
Ġfor st
Ġlibr ary
Ġser pent
Ġ185 1
Ġend emi
Ġo u
Ġt y
Ġter ur
Ġekz erc
Ġlat itud
lo u
Ġ185 9
Ġfo od
en b
ta j
ol y
Ġro ger
Ġak cip
Ġge olog
Ġsal ik
Åĳ l
Ġkonst itu
iss enschaft
Ġtr in
Ġcre us
g az
w ar
al o
Ġb und
Ġb abil
as c
ak l
Ġren Ã©
Ġ186 2
Ġ185 7
Ġso uth
Ġvirg ini
stra kt
Ġarist otel
ĠespaÃ± ol
d t
Ï Ģ
Ġe rik
at ic
id or
Ġ18 40
Ġkar b
ell schaft
Ġsim ptom
Ġdos ier
ĠszÃŃn hÃ¡z
in z
ci pl
Ġant h
ot r
Ġr al
Ġkur ent
Ð¾Ð »
cer eal
soci et
l ang
u ro
Ġ1 13
Ġre fl
Ġkun st
Ġor f
Ġet os
Ġkur t
Ġt uc
ta v
id ad
Ġet anol
Ġdist r
Ġkri teri
Ġpal at
Ġsc ott
if orm
Ġmeklenburg o
a ÅĤ
Ġk h
st aff
om e
Ġb Ã¶
Ġh at
ra ult
as p
Äµ anej
ĠÅĿ ov
19 38
Ġ18 31
ap s
Ġro ss
Ġkol eg
Ġsch midt
Ġmart ir
Ġtel ev
Ġcent ro
Ġho us
Ġhered aÄµ
Ġcer amik
stra ÃŁ
b az
id i
ĠÅĿ tal
stru ktur
Ġpol emik
Ð¸ Ð½
Ġkos s
d on
n ad
× Ļ
Ġa Ä¥
Ġk oh
ci an
Ġkv erk
Ġnaci onal
Ġju ris
isch es
enz o
Ġgy Åĳr
Ġbro d
Ġ180 3
Ġkonstant in
Ġgon z
ĠszÃ©k ely
Ġtanz ani
Ġrous sea
s in
Ġo g
Ġ( ;
li ber
Ġh ekt
Ġh ak
at el
Ġw ash
ev ill
sp ez
Ġval d
ay ash
Ġmat th
Ġgar anti
Ġturn ir
Ġhand book
Ġmalpli ig
ĠarÄ¥ itekt
Ġprest iÄĿ
k ins
o urt
Ġo ra
Ġn Ã©
Ġp ÅĻ
li p
Ġal a
im ensi
ag r
op ov
ĠkaÅŃ kaz
Ġfo ir
Ġlor enz
Ġenci clopedi
5 00
d um
Ã °
Ġh ad
ot i
Ġvid v
Ġfil tr
Ġ6 6
sz ky
195 7
Ġfur or
Ġluks em
Ġsalam ank
Ġ ÑĤ
in cid
ol and
Ġmar ks
Ġkl ein
Ġcom pl
196 3
Ġcons cienc
Ġpard ub
Ġmong ol
Î ¼
er p
en bach
Ġen spez
Ġest im
Ġv az
ÅĿ ev
Ã¼ ss
Ġgv at
Ġbast on
Ġd rak
Ġs ad
Ġm ant
Ġm erc
Ġf um
Ġki ev
Ġki pr
Ġti en
it m
ili br
Ġmem bro
Ġ6 4
Ġjoh n
Ãº s
Ġgu ad
mal pl
Ġgar cÃŃ
f a
s w
w h
é §
Ġd oz
Ġv om
ur ch
Ġro th
tik al
Ġgrav ur
Ã¤ l
p ir
Ġi kon
Ġp ist
Ġm uÅĿ
Ġh esi
Ġc os
ed on
19 60
us epp
Ġlingv istik
Ġy am
Ġrom Ã¡ni
Ġrev izi
te br
Ġleg om
Ġimp on
Ġ185 8
bur y
Ġkart veli
Ġbelor usi
pier r
Ġn er
Ġv r
Ġh ok
Ġli c
Ġar kt
Ġst ab
Ġpor tal
Ġab d
Ġkru d
Ġko al
196 1
Ġgo od
Ġom br
Ġanal fabet
Ġfarm aci
Ġmargar et
n aci
Ġs olid
an ab
en y
Ġ1 17
Äī u
op e
ogra d
Ġlin d
ĠâĢĶ ,
195 8
Ġfun ebr
oÄµ var
Ġenspez ofont
Ġla w
Ġas soci
Ġf an
Ġh ond
Ġal c
Ġc od
Ġc end
Ġ6 7
kv al
dik ci
Ġtam Ã¡s
Ġpic ass
' .
b il
s es
É Ķ
Ġu ru
Ġb ig
Ġg h
Ġal zac
Ġc ond
Ġst im
ĠÅĿ ut
Ġdes c
Ġwil s
195 9
Ġfe ÅŃd
Ġkob ayash
Ġdiction ary
ĠheredaÄµ bibliotek
u y
Ġf ram
ro y
Ġmal t
ch ar
ing rad
Ġri k
ep ok
Ġviv i
oli t
Ġvar b
Ġ185 4
Ġaver t
Ġmanifest aci
é§ ħ
j os
p g
p aÄĿ
s l
Ñ Ī
Ġo rat
Ġj ones
ar bar
Ġt ow
ta ks
Ġst en
ak v
ult an
Ġbi olog
kl as
Ġkol oÄµvar
Ġko incid
Ġseri oz
196 5
Ġkonv en
Ġib n
d j
Ġn um
Ġs yl
Ġt ÅĻ
Ġh od
Ġh eli
Ġli eb
Ġst amp
Ġver tebr
ev er
Ġch am
Ã¶ k
Ġav en
berg er
Ġfot ografi
jor ki
Ġkonsek r
Ġkoss uth
g uberni
z et
Ï ħ
à ¥
Ġj ub
Ġn erv
Ġek vador
it an
Ġad ol
Ġri b
Ġmar g
ev en
anc k
Ġed iti
Ġfor um
Ġser g
Ġmor f
Ġkonf ederaci
Ġsat ir
Ġheg emoni
Ġi an
or al
Ġh ern
Ġg el
at ory
it ions
Ġant arkt
ig er
Ġver tikal
Ġw ern
Ġw ind
Ġsub met
Ġint eli
Ġba kt
Ġsch Ã¶n
Ð° Ð»
Ġhaut s
ĠÄĿem el
Ġfol klor
Ġa ÅĿ
on ik
Ġar p
Ġti mes
og y
ad en
Ġjar mil
Ġri par
Ġ18 45
Ġos kar
Ġtri on
Ã¨ v
Ġac etat
Ġchar l
Ġbor s
Ã¡sÃ¡r hely
Ġjuris dikci
Ġk y
al s
ĠÄĿ oj
Ġst adt
Ġter api
Ġw ww
Ġgre at
Ġkali f
Ġorn it
dan ubi
Ġpublish ing
s ant
Ä Ī
Ġp df
an ci
il er
Ġpro cent
ok l
Ġ18 20
Ġnov zeland
Ġtrans ig
Ġsoci ogeografi
Ġara d
Ġimp lik
Ġkorp oraci
pa ul
Ġanat omi
Ġsubpre m
l abor
t o
Ġi beri
ar o
Ġv ek
ur d
Ġil l
Ġsin d
195 6
Ġgi usepp
. âĢĭ
k ut
m b
m aj
Ġp f
Ġde Äµor
Ġm iz
on ist
Ġb ir
Ã¡ zs
19 40
Ġ18 38
Ä¥ ar
ob us
ĠantaÅŃ ul
Ġfont an
Ġvic ent
Ġdiplom ati
Ġwash ingt
ĠromÃ¡ni a
b oh
j ak
s r
s ov
Ù Ĭ
Ġd ans
19 39
Ġmar ok
of icial
Ġed ici
196 4
n at
p unkt
Ġi ks
Ġla f
re st
Ġ( âĢ
os z
Ġes z
op rop
us kl
fi ÅĿ
Ġ8 5
omb at
sh e
Ġflug il
Ġac et
f re
s y
s istem
Ġs ofi
Ġt orn
Ġc en
ig h
Ġkl ak
Ġori en
ril l
âĢĻ âĢĻ
Ġkir ch
ĠneÅŃtr al
g am
m u
t op
Ã ¯
ar e
or gi
Ġc d
Ġst rang
19 18
Ġ18 36
eg g
Ġtrans danubi
Ġkar o
Ġ8 8
Ġrez id
ival ent
Å¡t ÄĽ
Ġhekt ar
, "
st rat
an ic
Ġf uk
Ġh oh
ra ham
ru si
ed u
Ġ18 33
Ġak cel
Ġbal but
of or
Ġep id
Ġkat ar
Ð¸ Ñĩ
kol or
Ġgran ad
b es
f ur
s at
Ġa in
Ġd ra
al aj
Ġc av
Ġur n
ĠÄīi e
Ġpar ana
met ro
Ġdomin ik
f red
Î ¯
ar eÅĿt
Ġh rad
Ġg lu
Ġc ruz
ud ad
Ġch ic
Ġdo c
kv ar
Ġstat i
Ġ185 2
Ġwe imar
Ġkup ol
pres s
Äīe Ä¥
bek i
g re
Ġl ul
is ÅĤaw
ĠÅĿ ild
ig ht
Ġ18 46
Ġlo i
Ġali l
la y
20 19
Ġ9 00
Ġakv of
eral d
m ot
Ġm ajn
Ġb p
li sh
et ic
ed el
ej o
Ġch ap
Ġ6 2
ens iv
ram id
Ġ185 3
195 4
Ġnit ro
k am
n ar
r Ã¡
Ġn on
Ġ1 16
Ġre f
ĠÅĿ arg
oli c
th e
Ġprof et
nag y
Ġsalc burg
% )
u i
in sk
al k
ron g
Ġsk olt
Ġch amp
ĠÐ ´
atik an
Ġcon f
fl or
Ġtru mp
Ġpan am
Ġwilliam s
Ġtaj land
Ġsulf ur
enh ag
p Ã¡d
z en
Ġe ro
Ġl ub
Ġs obr
Ġv os
ol uti
Ġpl ast
19 49
Ġsub d
Ġfor ges
Ġev ans
ne w
Ġqu int
195 1
195 5
Ġanim aci
Ġjust ic
Ġbed aÅŃr
ĠÄįesk Ã©
Ġkonstantin opol
Ġkoal ici
g rek
Ġm aÅŃ
Ġm ec
Ġh off
Äī ert
ran i
19 50
ingv en
Ġkan zon
Ġfra kci
195 2
met ik
Ġken j
vest fali
c at
y es
Î ¬
Ù ħ
er g
Ġs ach
or ik
Ġu g
ta in
Ġli b
Äī irkaÅŃ
Ġst ew
Ġeks pon
Ã¼ hr
15 0
Ġsal om
mar n
Ġnep om
Ã¼l ler
Ġbuk areÅĿt
re v
Ġb ult
Ġg dr
ik ol
ch in
as on
Ġtri l
Ġfi eld
lat er
if ic
Ġhidro liz
Ã¤n d
Ġbenz oat
Ġcount y
g emein
j ac
l ÃŃ
in h
Ġv atikan
Ġh of
el v
Ġc ort
Ġar c
19 28
ti u
Ġcel ebr
eph al
ĠÃ Ĺ
Ġrefl ekt
b ah
Ġpo bl
og h
os istem
Ġven ÄĿ
Ġ6 3
Ġsil vi
Ġsor b
Ġpom p
Ġstudi es
Ġfanta zi
Ġkanc elier
l Ã¡
o em
o aktor
p ez
Ġm ister
or ez
ri ÄĿ
ri qu
Ġg lat
19 48
19 36
Ġz a
est i
Ġte xt
Ġle w
Ã¼ b
Ġvi ktor
sz Ã¡g
Ġ185 6
okol ekt
Ġvjetnam i
Ġdoub s
Ù Ī
Ġo str
Ġw a
Ġsim p
Ġ9 5
te a
Ġkru t
pri z
Ġekv ivalent
Ġlou is
l s
r enc
Ġk Ã¶r
Ġb k
Ġc un
ok emi
19 21
Ġz im
Ġkv art
20 17
sh ir
Ġburg en
Ġekv ilibr
Ġatt il
u e
Å £
Å ĵ
Ġl l
in y
Ġb rik
Ġpost mort
Ġ18 37
man uel
Ġz i
Ġ15 00
Ġse ine
Ġhid raÅŃ
ew sk
195 3
Ġbrand enburgi
Ġere van
Ġwid th
h im
j al
Ġp ingven
Ġka is
Ġh ib
at es
ov al
Ã© b
la ch
Ġit iner
Ġlong itud
Ġpal ear
Ġlat v
Ġhe lik
Ġtun el
uzi asm
Ġseg ovi
Ġnepom uk
o kt
p Ã©
p ont
Ġb ez
Ġan ser
Ġpro st
ĠÅĿ v
19 14
Ġlo b
Ġpar ag
Ã³ n
Ġ7 6
Ġcol or
Ġkvar on
Ġ185 5
Ġcl ub
ĠvaÅĿingt on
Ġstand ard
j i
em en
ÅĿ i
ili s
Ġem ber
ten berg
Ġcast ill
Ġprom en
Ġprom oci
Ġlaz ur
f eh
Ġb eb
Äī ar
Ġ18 44
Ġat let
oz i
Ã¼ t
Ġkri pt
Ġolimp ian
Ġmc c
Ġwar bl
Ġarag Ã³
Ġpert urb
l ed
n itz
Ġo zon
Ġe rup
Ġn ak
en sk
Ġ18 42
Ġle ÅŃ
Ġbl ov
Ġgl or
Ġsetl ad
Ġgro up
alp es
hard t
Ġbrit ish
Ġtuc s
Ġorien tali
â Ļ
Ġk ent
Ġk oli
or c
il la
im etr
19 35
ab ad
Ġbe au
Ð¸ Ðº
ĠaÅŃstri o
sa Ã´n
Ġekstrem adur
e id
r Ã©
u h
Ġd ot
Ġm ost
ig agent
19 33
op her
Ġvil a
Ġ6 8
ach t
rig aci
Ġflag staff
Ġestrar an
st edt
Ġb Ã¶r
Ġan gi
Ġg em
Ġun iform
ad d
Ġ18 43
Ġver tic
Ġkov Ã¡cs
Ġvol ont
ti am
Ġpu ebl
Ġmaks im
ĠÏ Ģ
Ġstad ion
Ġinteli gent
Ġj ah
or am
Ġki ss
Ġsu spekt
Ġge ograf
20 15
Ġinst anc
Ġent uziasm
Ġps ych
Ġpardub ic
Ġsolid ar
o am
Ġ ÑĢ
Ġn uk
Ġs of
re sp
el berg
ka b
ant s
ad Ã³
Ġri val
Ġnord rejn
Ġtrans ili
qu er
Ġspeci es
kv it
Ġson ÄĿ
pol land
ĠkÃ¶ l
Ġpatri ark
Ġphilos oph
a ik
s berg
Ġj ahr
Ġst rikt
Ġmon str
19 46
Ġ- -
Ġdo w
Ġho ch
Ġkli m
Ġdeb at
Ġwi es
m Ã¡r
Ġp Ã¡
Ġm Ã¡t
re f
Ġst ras
ad el
ot op
19 47
19 32
Ġw elt
Ġam ar
tal at
ost aci
Ġkor ekt
Ġkor ei
Ġsin dik
Ġstat es
Ġten si
Ġme bl
ĠvoÄī oaktor
Ġarg il
Ġgo eth
but il
Ã¡nd ez
ĠÃ¡r pÃ¡d
ĠtÃ¶r tÃ©net
Ġraf ael
Ġpobl aciÃ³
e or
i et
o Å¡
s om
s ing
× ķ
Ġ Õ
Ġp and
Ġs Ã¡r
Ġs ultan
en ste
Ġv and
Ġb la
Ġli tt
ĠÄī erni
id ir
Ġpor k
Ġ18 32
Ġz h
Ġru ten
Ġekz akt
Ġag res
ÅĻ ich
Ðµ Ð²
Ġmus ik
pu taci
Ġvirt ual
ĠpseÅŃd onim
ĠmÃ¡ ri
Ġemer it
Ġsindik at
d Ã¶
e aux
Ġs as
ul f
Ġel b
19 20
19 41
Ġ18 25
Ġap otek
Ġsur priz
Ġsub famili
Ġch er
Ġch urch
Ã¼ tz
Ġpol in
ĠaÅŃt obus
son y
Ġdem okr
Ġgu err
Ġcit ron
ĠkÃ¶ z
iti es
Ġmoh am
a is
t ori
Ġi k
ar ck
Ġh op
Ġc op
Ġst rik
Ġne bul
19 19
19 43
Ġ18 12
Ġw in
Ġap r
Ġ17 84
Ã¶ v
Ġbl og
Ġsch elt
Ġab b
Ġimp lic
Ġpret end
Ġassoci ati
r omi
Ġla mp
Ġs ob
Ġ1 12
ra kl
ur m
Ġal um
Ġpl aÄī
19 12
19 29
Ġ18 13
Ġ18 39
Ġte Ä¥
ug ht
Ġ16 00
Ġsud an
20 16
Å¡ ek
Ġcir kul
Ġepid emi
1 20
n Ã¡r
s ink
Ġp iv
Ġf at
al g
Ġter renk
19 31
ap p
Ġab raham
Ġman s
rol ogi
Ð¾ Ð½
Ġcon serv
pre z
oÅĿ ip
Ġtaj van
Ġkad avr
b ran
f lu
s land
Ï Į
Ù Ĩ
Ġd v
Ġd od
om et
Ġg laÄīer
ĠÅĿ ir
Ġ18 16
iz an
Ġali g
Ġ17 87
Ġbal en
Ġkor us
Ġakv ob
Ġpr unt
Ġmas iv
ge br
Ġcoll ecti
Ġtech n
er e
Ġs r
Ġs elekt
en a
en taÄµ
Ġf ag
ri ent
Ġv ang
Äī n
ol e
ist o
ĠÅĿ el
19 42
Ġ18 34
Ġon idir
Ġro ter
Ġch in
Ġmat e
Ġmart ÃŃ
Ġtun izi
Ġcont e
Ġvide olud
cipl in
v Ã¡sÃ¡rhely
Ġa ustr
Ġi ch
Ġl und
Ġb d
Ġar Äī
ok i
os fer
Ġor lic
Ġang el
Ġgrav ed
Ġbr n
ah l
Ġmad ag
Ġeli s
Ġdin amik
ax ac
ĠÃ¶ ster
kong res
Ġkint ets
Ġvivi end
Ġbakt eri
n umer
v y
Ä ı
Ġe Ä¥
Ġi c
Ġv aÅŃd
Ġg ej
el aci
ur k
Ġpro tein
ig u
ic a
19 37
Ġlan c
Ġul rich
Ġ7 4
Ġ13 0
Ġbu ter
Ġ180 9
Ġsalz burg
j ekci
Ġj el
Ġd ob
Ġt amb
Ġf j
Ġst a
Ġpl anck
im il
Ġdo cent
Ġdep on
Ġark eolog
Ġsa ud
cl op
Ġjac ks
kant on
Ġarch iv
ĠhidraÅŃ lik
k ri
y a
Ġ ÅĤ
Ġ à¤
Ġi rigaci
Ġs ank
Ġm oli
Ġb in
Ġki a
ant iv
ok v
Ġ18 26
Ġw ol
Ġes kap
Ġ8 2
Ġtur ne
Ġop tik
Ġpat ent
Ġbro ad
kov ic
oÅĿ ose
ograph i
Ġdr Ã´m
Ġdiv izi
Ġl ord
Ġj org
Ġp yr
an ch
en w
Ġt ren
Ġas s
Ġest on
ak u
Ġmar mor
ab ri
Ġ7 3
Ġab strakt
Ġbel etr
Ġneni ig
Ð» Ð°
j ang
p ra
Ġl ek
Ġn Ã©p
Ġm org
ar ad
Ġg ron
Ġunu form
od in
Ġ18 10
oj ar
aÅŃ str
Ġ7 8
Ġkomp ens
Ġher z
te atr
Ġvolum en
Ġment or
Ġnig ra
Ġsac erd
Ġaven u
Ġwern er
ĠÄīerni Ä¥
d un
Ġp am
Ġf rib
ri p
Ġb j
ra fi
em ber
Ġba h
Ġben eÅ¡
premi it
ze ÅĪ
duc ti
Ġhiro ÅĿ
Ġreform aci
ĠÄīik ag
" |
k ir
Ġk ind
Ġt es
Ġen orm
Ġf erv
ro land
ov r
Ġpost viv
Ġ18 14
ev al
Ġfl eks
Ġep ist
Ġbar n
ha ut
Ġalp es
enzoat o
×Ļ ×
Ġroter dam
" ;
m is
p olitik
Ġn au
Ġt uf
el and
ir land
Ġper spektiv
Ġ18 11
Ġam uz
Ġth Ã¼r
ni er
ĠeÅŃ ro
Ãº r
su pr
Ġstok holm
Ġmauri c
Ġtort ur
Ġvos ges
c or
n ek
n ot
z ef
en o
ar ik
Ġf raÅŃ
Ġv y
Ġal gebr
Ġst rig
Ġper si
19 22
19 26
Ġ18 35
Ġsp ion
Ġag rabl
Ġform at
Ġ6 9
tel evid
Ġspr ing
Ġstim ul
Ġpalear ktis
Ġerup ci
m Ã¡ny
p atr
z o
Ġa y
ar ta
Ġli bi
at ov
ru t
av er
aj ev
Ġkl erik
oz o
Ġkol er
Ġbal Ã¡zs
ell y
Ġy u
Ġdek du
Ġchrist opher
ÄĽj ovic
Å±v Ã©szet
m ol
Ġe ff
Ġde zs
Ġt art
om orf
Ġal o
em al
Ġel s
Ġpl zeÅĪ
ot urn
19 30
Ġsi eg
Ġfl ut
Ã³ th
Ġkl ost
Ġ6 1
Ġtri op
of on
Ġ9 6
Ġvol g
Ġ180 8
Ġsubten ant
rov iz
Ġschul z
Ġtrom p
ĠniÄĿ eri
Ġangi os
a er
a ur
u o
v oÄī
Ġ Ã¡g
Ġj ack
Ġn itr
Ġs ond
Ġm Ã¡rt
Ġka tali
ÄĿ et
om ot
Ġb ism
ĠÄī erp
ch y
ot k
ag u
19 27
Ġ18 21
Ġlingv o
Ġkv erel
Ġkol umbi
Ġsoci ologi
Ġsal ut
Ġara bi
Ġpen etr
eÅŃ rop
Ġj as
Ġm ejl
Ġli rik
Ġli ce
Ġal ask
Ġkun ul
ut z
Ġ18 18
Ġw ein
Ġw inter
ici d
ĠantaÅŃ enig
Ã¼ tt
Ġtre k
Ġbl o
Ġ8 1
Ġkel t
Ġem m
Ġpi p
Ġab i
Ġsom ali
Ġpu ert
Ġsubst antiv
Ġern Åĳ
po em
port ug
Ġpubli cist
s em
Ġd ak
st an
Ġde fi
ar j
ri ck
el et
Ġpo ur
Ġpri sm
enc es
19 11
Ġkons ul
le xik
vi er
muz e
Ġgir ond
osi ero
Ġfrib urg
k art
n u
Ġa i
al om
om y
Ġb arth
li ps
Ġh ob
am br
ek sp
ut ub
Ġw ÅĤ
Ġr end
Ġinf ra
ion al
Ġfi ask
Ġprof il
ĠÅĿt orm
ear s
Ð¸ Ñı
if t
fl ag
Ġ180 6
Ġfr unt
mos kv
Ġhay d
Ġgott fried
ĠcÃ´ te
Ġtelev izi
h in
w a
Ä ĵ
Ġe arth
Ġk ÅĻ
Ġin dukt
ul s
