{"<s>":0,"</s>":1,"<unk>":2,"<pad>":3,"!":4,"\"":5,"#":6,"$":7,"%":8,"&":9,"'":10,"(":11,")":12,"*":13,"+":14,",":15,"-":16,".":17,"/":18,"0":19,"1":20,"2":21,"3":22,"4":23,"5":24,"6":25,"7":26,"8":27,"9":28,":":29,";":30,"<":31,"=":32,">":33,"?":34,"@":35,"A":36,"B":37,"C":38,"D":39,"E":40,"F":41,"G":42,"H":43,"I":44,"J":45,"K":46,"L":47,"M":48,"N":49,"O":50,"P":51,"Q":52,"R":53,"S":54,"T":55,"U":56,"V":57,"W":58,"X":59,"Y":60,"Z":61,"[":62,"\\":63,"]":64,"^":65,"_":66,"`":67,"a":68,"b":69,"c":70,"d":71,"e":72,"f":73,"g":74,"h":75,"i":76,"j":77,"k":78,"l":79,"m":80,"n":81,"o":82,"p":83,"q":84,"r":85,"s":86,"t":87,"u":88,"v":89,"w":90,"x":91,"y":92,"z":93,"{":94,"|":95,"}":96,"~":97,"¡":98,"¢":99,"£":100,"¤":101,"¥":102,"¦":103,"§":104,"¨":105,"©":106,"ª":107,"«":108,"¬":109,"®":110,"¯":111,"°":112,"±":113,"²":114,"³":115,"´":116,"µ":117,"¶":118,"·":119,"¸":120,"¹":121,"º":122,"»":123,"¼":124,"½":125,"¾":126,"¿":127,"À":128,"Á":129,"Â":130,"Ã":131,"Ä":132,"Å":133,"Æ":134,"Ç":135,"È":136,"É":137,"Ê":138,"Ë":139,"Ì":140,"Í":141,"Î":142,"Ï":143,"Ð":144,"Ñ":145,"Ò":146,"Ó":147,"Ô":148,"Õ":149,"Ö":150,"×":151,"Ø":152,"Ù":153,"Ú":154,"Û":155,"Ü":156,"Ý":157,"Þ":158,"ß":159,"à":160,"á":161,"â":162,"ã":163,"ä":164,"å":165,"æ":166,"ç":167,"è":168,"é":169,"ê":170,"ë":171,"ì":172,"í":173,"î":174,"ï":175,"ð":176,"ñ":177,"ò":178,"ó":179,"ô":180,"õ":181,"ö":182,"÷":183,"ø":184,"ù":185,"ú":186,"û":187,"ü":188,"ý":189,"þ":190,"ÿ":191,"Ā":192,"ā":193,"Ă":194,"ă":195,"Ą":196,"ą":197,"Ć":198,"ć":199,"Ĉ":200,"ĉ":201,"Ċ":202,"ċ":203,"Č":204,"č":205,"Ď":206,"ď":207,"Đ":208,"đ":209,"Ē":210,"ē":211,"Ĕ":212,"ĕ":213,"Ė":214,"ė":215,"Ę":216,"ę":217,"Ě":218,"ě":219,"Ĝ":220,"ĝ":221,"Ğ":222,"ğ":223,"Ġ":224,"ġ":225,"Ģ":226,"ģ":227,"Ĥ":228,"ĥ":229,"Ħ":230,"ħ":231,"Ĩ":232,"ĩ":233,"Ī":234,"ī":235,"Ĭ":236,"ĭ":237,"Į":238,"į":239,"İ":240,"ı":241,"Ĳ":242,"ĳ":243,"Ĵ":244,"ĵ":245,"Ķ":246,"ķ":247,"ĸ":248,"Ĺ":249,"ĺ":250,"Ļ":251,"ļ":252,"Ľ":253,"ľ":254,"Ŀ":255,"ŀ":256,"Ł":257,"ł":258,"Ń":259,"Ġâ":260,"ĠâĹ":261,"ĠâĹĪ":262,"Ġo":263,"Ġa":264,"Ġe":265,"Ġi":266,"Ġl":267,"Ġj":268,"Ġk":269,"Ġd":270,"Ġla":271,"Ġn":272,"st":273,"Ġp":274,"Ġde":275,"er":276,"Ġs":277,"Ġm":278,"an":279,"en":280,"on":281,"ar":282,"Ġt":283,"or":284,"Ġis":285,"Ġen":286,"Ġas":287,"Ġu":288,"Ġf":289,"ta":290,"Ġka":291,"ÄĿ":292,"re":293,"in":294,"al":295,"om":296,"ri":297,"Ġkaj":298,"Ġ1":299,"Ġest":300,"Ġv":301,"Ġb":302,"un":303,"Ġ(":304,"ci":305,"li":306,"Ġh":307,"ÅŃ":308,"Ġan":309,"Ġg":310,"el":311,"Ġin":312,"ra":313,"ro":314,"Ġli":315,"Äī":316,"ur":317,"ol":318,"Ġre":319,"Ġal":320,"Ġki":321,"Ġita":322,"kt":323,"at":324,"ent":325,"Ġ19":326,"ĠÄī":327,"am":328,"il":329,"ik":330,"em":331,"Ġc":332,"ov":333,"es":334,"ist":335,"et":336,"is":337,"ul":338,"Ġkon":339,"Ġar":340,"Ġti":341,"id":342,"ĠÄĿ":343,"Ġ2":344,"ru":345,"ÅĿ":346,"Ġek":347,"Ġel":348,"ran":349,"it":350,"ka":351,"Ġpro":352,"Ġkom":353,"ĠiÄĿ":354,"Ġpo":355,"Ġmal":356,"ed":357,"Ġist":358,"Ġad":359,"ch":360,"ter":361,"iv":362,"art":363,"00":364,"Ġun":365,"Ġsu":366,"Ġst":367,"as":368,"Ġig":369,"Ġkun":370,"ir":371,"ek":372,"um":373,"av":374,"Ġpor":375,"Ġant":376,"Äµ":377,"og":378,"Ġpl":379,"ĠÄĿi":380,"ĠÄīe":381,"ut":382,"per":383,"ant":384,"Ġata":385,"ok":386,"im":387,"Ã¡":388,"ing":389,"kaÅŃ":390,"ĠÅĿ":391,"Ġum":392,"Ġpri":393,"Ġnom":394,"ud":395,"aci":396,"Ġne":397,"Ġpre":398,"ad":399,"Ġper":400,"enc":401,"Ġjar":402,"ori":403,"ĠaÅŃ":404,"Ġej":405,"Ġil":406,"Ġter":407,"ig":408,"Ġinter":409,"Ã©":410,"ort":411,"Ġkomun":412,"ekt":413,"ot":414,"ĠaÄµ":415,"ak":416,"and":417,"Ġ|":418,"Ġur":419,"br":420,"Ġri":421,"Ġus":422,"Ġmon":423,").":424,"Ġunu":425,"ej":426,"Ġkiel":427,"ic":428,"os":429,"Ġor":430,"ĠankaÅŃ":431,"ag":432,"ung":433,"ez":434,"Ġpost":435,"Ġanta":436,"Ġkiu":437,"od":438,"19":439,"Ġ18":440,"),":441,"aj":442,"Ġurb":443,"Ġver":444,"pl":445,"ult":446,"bl":447,"Ġsi":448,"Ġw":449,"Ġon":450,"ili":451,"Ġeks":452,"Ġhav":453,"ici":454,"Ġ\"":455,"Ġlo":456,"ap":457,"gi":458,"man":459,"Ġdu":460,"Ġz":461,"Ġes":462,"iz":463,"ungar":464,"Ġ-":465,"oj":466,"Ġr":467,"op":468,"aÅŃ":469,"Ġap":470,"Ġlig":471,"Ġof":472,"ĠÄīi":473,"Ġ200":474,"rand":475,"Ġpart":476,"ac":477,"Ġec":478,"Ġtra":479,"Ġhungar":480,"Ġdi":481,"Ġam":482,"Ġpli":483,"orm":484,"ord":485,"si":486,"Ġ20":487,"Ġast":488,"ĠloÄĿ":489,"aÄĿ":490,"Ġmar":491,"end":492,"ern":493,"ub":494,"Ġra":495,"Ġat":496,"ingv":497,"Ġ3":498,"us":499,"ĠâĢ":500,"est":501,"eg":502,"Ġfran":503,"Ġgrand":504,"Ġsp":505,"Ġsur":506,"az":507,"ĠÄīef":508,"du":509,"Ġali":510,"Ġpar":511,"ĠlaÅŃ":512,"Ġet":513,"Ġdum":514,"Ġlan":515,"âĢ":516,"Ġdist":517,"ron":518,"stru":519,"fi":520,"ab":521,"Ġnov":522,"tat":523,"Ġlingv":524,"ev":525,"ber":526,"Ġvid":527,"fer":528,"ond":529,"Ġro":530,"Ġplej":531,"uz":532,"Ġfl":533,"Ġke":534,"Ġtiu":535,"Ġ199":536,"erman":537,"ont":538,"Ġak":539,"Ġhist":540,"Ġul":541,"Ġth":542,"Ġos":543,"Ġok":544,"ep":545,"rikt":546,"ogra":547,"Ġru":548,"Ġsub":549,"Ġfar":550,"sk":551,"Ġfin":552,"Ġland":553,"Ġer":554,"Ġven":555,"Ġkov":556,"Ã³":557,"Ġ||":558,"Ä¥":559,"tal":560,"Ġhistori":561,"la":562,"Ġbi":563,"itu":564,"ĠÅĿi":565,"Ġdistrikt":566,"Ġkv":567,"Ġili":568,"erv":569,"Ġkovr":570,"ĠÄĿis":571,"cid":572,"Ġgerman":573,"lik":574,"ank":575,"Ġverk":576,"iver":577,"Ġesper":578,"ard":579,"Ġtro":580,"land":581,"Ġoni":582,"Ġsed":583,"Ġkons":584,"Ġsk":585,"Ġfil":586,"ero":587,"Ġkl":588,"ask":589,"olog":590,"Ġte":591,"gion":592,"Ġ17":593,"ec":594,"Ġvil":595,"Ġgra":596,"ografi":597,"Ġviv":598,"Ġlin":599,"Ġ4":600,"Ġsan":601,"Ġdon":602,"Ġori":603,"Ġlok":604,"Ġmem":605,"Ġge":606,"bor":607,"Ġsitu":608,"Ġkont":609,"ani":610,"Ġtem":611,"entr":612,"ver":613,"rib":614,"Ġesperant":615,"Ġebl":616,"Ġch":617,"sp":618,"Ġmult":619,"Ġmort":620,"Ġje":621,"Ġsek":622,"Ġ5":623,"oci":624,"atur":625,"ast":626,"ÃŃ":627,"tik":628,"Ġfer":629,"oz":630,"Ġit":631,"inc":632,"18":633,"Ġregion":634,"pr":635,"Ġob":636,"eroid":637,"Ġmun":638,"Ġasteroid":639,"Ġmili":640,"omi":641,"Ġekz":642,"Ġsen":643,"ong":644,"Ġag":645,"Ġnaci":646,"Ġuson":647,"Ġprov":648,"kl":649,"mp":650,"Ġmont":651,"Ġind":652,"Ġapart":653,"Ã¶":654,"Ġsam":655,"Ġalt":656,"ug":657,"ari":658,"Ġint":659,"Ġ16":660,"Ġ198":661,"oh":662,"Ġkol":663,"Ġlabor":664,"Ġle":665,"int":666,"Ġtran":667,"ob":668,"Ġuz":669,"Ġkre":670,"Ġform":671,"Ġdis":672,"Ġnord":673,"Ġpov":674,"Ġkonstru":675,"Ġsud":676,"Ġreg":677,"cent":678,"Ġmunici":679,"Ġ201":680,"und":681,"ferenc":682,"ĠvilaÄĿ":683,"ĠreÄĿ":684,"Ġid":685,"eci":686,"ks":687,"Ġmunicip":688,"Ġmet":689,"Ġvoj":690,"Ġsia":691,"istr":692,"Ġprez":693,"kaz":694,"Ġir":695,"ĠantaÅŃ":696,"Ġtrov":697,"Ġinf":698,"Ġfranc":699,"rop":700,"Ġmin":701,"Ġante":702,"Ġ197":703,"Ġtrans":704,"Ġbal":705,"Ġda":706,"atr":707,"Ġ6":708,"ĠâĢĵ":709,"ust":710,"Ġtri":711,"Ġci":712,"anc":713,"min":714,"Ġkant":715,"Ġmuz":716,"Ġuniver":717,"Ġand":718,"Ġmond":719,"urg":720,"Ã¼":721,"20":722,"Ġfam":723,"Ġdom":724,"Ġekd":725,"ens":726,"Ġokaz":727,"ologi":728,"rom":729,"Ġlern":730,"eri":731,"Ġmilit":732,"Ġhom":733,"Ġol":734,"of":735,"Ġjarcent":736,"Ġkar":737,"Ġed":738,"Ġ15":739,"Ġ194":740,"Ġinta":741,"Ġkri":742,"Ġfor":743,"Ġ196":744,"Ġlia":745,"Ġsci":746,"ell":747,"ni":748,"Ġart":749,"âĢĵ":750,"rik":751,"rat":752,"raÅŃ":753,"Ġpoli":754,"qu":755,"cident":756,"Ġnur":757,"Ġnask":758,"Ġlong":759,"eks":760,"Ġzon":761,"anÄĿ":762,"Ġaparten":763,"ktor":764,"Ġmez":765,"Ġastron":766,"ang":767,"Ġprovinc":768,"Ġreferenc":769,"ublik":770,"Ġorient":771,"Ġkomenc":772,"Ġ.":773,"jekt":774,"eb":775,"Ġep":776,"Ġsim":777,"Ġ[":778,"ef":779,"Ġ195":780,"Ġval":781,"Ġeg":782,"ren":783,"Ġtre":784,"up":785,"Ġbl":786,"Ġare":787,"ion":788,"ill":789,"di":790,"Ġpol":791,"Ġkap":792,"ept":793,"Ġspeci":794,"emi":795,"ert":796,"ÅĿt":797,"Ġokcident":798,"ement":799,"Ġ7":800,"Ġy":801,"Ġhel":802,"Ġ9":803,"Ġ193":804,"iÄĿ":805,"Ġism":806,"Ġrom":807,"Ġtio":808,"Ġ8":809,"Ġtur":810,"Ġtut":811,"Ġsoci":812,"Ġkm":813,"Ġarm":814,"Ġang":815,"embr":816,"Ġkel":817,"Ġbo":818,"eder":819,"ism":820,"Ġem":821,"oni":822,"Ġgrav":823,"ĠkontraÅŃ":824,"rup":825,"Ġkomp":826,"irkaÅŃ":827,"ĠeÅŃ":828,"Ġvol":829,"Ġba":830,"Ġlud":831,"Ġnun":832,"Ġpi":833,"Ġsol":834,"Ġdo":835,"Ġfilm":836,"--":837,"duk":838,"Ġskrib":839,"Ġfond":840,"Ġvi":841,"Ġpop":842,"Ġstaci":843,"ĠÄīirkaÅŃ":844,"Ġbon":845,"Ġcentr":846,"Ġstud":847,"res":848,"ost":849,"ksim":850,"Ġev":851,"Ġkiam":852,"Ġkor":853,"Ġju":854,"Ġjun":855,"af":856,"le":857,"Ġim":858,"Ġkat":859,"Ġproksim":860,"isp":861,"Ġbar":862,"dukt":863,"mi":864,"ay":865,"Ġsin":866,"Ġkelk":867,"gan":868,"Ġvir":869,"Ġmuzik":870,"Ġpolitik":871,"Ġport":872,"ultur":873,"Ġsch":874,"Ġkie":875,"Ġliter":876,"Ġfont":877,"Ġestr":878,"Ġsig":879,"Ġinstru":880,"Ġjam":881,"Ġscienc":882,"Ġaper":883,"ĠaÅŃt":884,"son":885,"10":886,"ini":887,"str":888,"Ġmi":889,"eni":890,"Ġsankt":891,"Ġtemp":892,"Ġord":893,"Ġret":894,"ip":895,"15":896,"oc":897,"ajn":898,"etr":899,"akt":900,"Ġ192":901,"sz":902,"Ġfranci":903,"17":904,"Ġsv":905,"200":906,"sitat":907,"Ġoft":908,"Ġse":909,"Ġdep":910,"ti":911,"Ġtie":912,"ĠÄĿia":913,"ces":914,"Ġbiografi":915,"Ġab":916,"Ġrez":917,"Ġku":918,"amen":919,"Ġ:":920,"Ġresp":921,"Ġmat":922,"Ġuniversitat":923,"Ġbr":924,"Ġhisp":925,"Ġbud":926,"itori":927,"Ġgen":928,"Ġric":929,"Ġelekt":930,"ird":931,"Ġriver":932,"oli":933,"Ġprodukt":934,"ki":935,"enci":936,"Ġlim":937,"Ġobjekt":938,"Ġjoh":939,"edi":940,"Ġ12":941,"Ġbaz":942,"Ġ13":943,"ali":944,"Ġpas":945,"Ã¡r":946,"Ġfamili":947,"empl":948,"Ġ14":949,"Ã¡n":950,"th":951,"Ġorgan":952,"16":953,"Ġsekv":954,"Ġfort":955,"ild":956,"emp":957,"Ġfi":958,"Ġakv":959,"burg":960,"abl":961,"ĠeÅŃrop":962,"kv":963,"Ġteritori":964,"fik":965,"bli":966,"uj":967,"Ġarb":968,"Ġricev":969,"Ġadmin":970,"sul":971,"Ġlu":972,"Ġ10":973,"serv":974,"ĠÂ":975,"Ġplu":976,"ret":977,"Ġgrup":978,"Ġastronomi":979,"Ġprof":980,"Ġma":981,"Ġsz":982,"Ġprezent":983,"sch":984,"14":985,"Ġdek":986,"Ġpublik":987,"Ġlibr":988,"lov":989,"Ġ()":990,"eral":991,"omb":992,"ĠpreÄĿ":993,"artement":994,"ss":995,"Ġstar":996,"org":997,"Ġliber":998,"Ġbird":999,"Ġedz":1000,"Ġcol":1001,"Ã¤":1002,"gin":1003,"Ġkrom":1004,"Ġliteratur":1005,"Ġman":1006,"lat":1007,"Ġrest":1008,"Ġav":1009,"ĠÄµ":1010,"ram":1011,"atori":1012,"Ġdepartement":1013,"Ġkan":1014,"Ġnot":1015,"par":1016,"unk":1017,"Ġmod":1018,"Ġkamp":1019,"Ġsal":1020,"ĠÄīar":1021,"Ġofici":1022,"jn":1023,"Ġjap":1024,"Ġekzempl":1025,"Ġpal":1026,"eli":1027,"Ġher":1028,"mar":1029,"Ġobserv":1030,"ach":1031,"Ġnombr":1032,"Ġadministr":1033,"ivers":1034,"Ġgre":1035,"Ġber":1036,"\".":1037,"Ġbel":1038,"Ġbra":1039,"uk":1040,"ĠÄĿin":1041,"13":1042,"Ġisb":1043,"Ġmag":1044,"Ġtek":1045,"12":1046,"Å¡":1047,"Ġplur":1048,"Ġlini":1049,"Ġserv":1050,"Ġvort":1051,"Ġark":1052,"olu":1053,"ow":1054,"ezi":1055,"lin":1056,"Ġfru":1057,"Ġpatr":1058,"Ġkut":1059,"Ġtiam":1060,"Ġbudap":1061,"Ġcel":1062,"Ġmaj":1063,"\",":1064,"aÅŃr":1065,"Ġnatur":1066,"Ġdev":1067,"Ġ190":1068,"Ġpr":1069,"peri":1070,"ey":1071,"Ġangl":1072,"Ġpra":1073,"Ġmembr":1074,"cept":1075,"Ġtamen":1076,"Ġvar":1077,"aÄµ":1078,"Ġkanton":1079,"Ġkutim":1080,"Ġstat":1081,"ah":1082,"bi":1083,"igr":1084,"Ġperson":1085,"eÅĿt":1086,"tt":1087,"Ġdivers":1088,"stri":1089,"Ġties":1090,"ril":1091,"ĠÄīeÄ¥":1092,"Ġsuk":1093,"cip":1094,"Ġorigin":1095,"nif":1096,"Ġrol":1097,"Ġgermani":1098,"Ġepok":1099,"stel":1100,"Ġmart":1101,"Ġ|-":1102,"ers":1103,"Ġoficial":1104,"Ġtag":1105,"Ġkio":1106,"Ġ0":1107,"Åĳ":1108,"Ġekzist":1109,"Ġder":1110,"Ġsignif":1111,"berg":1112,"Ġop":1113,"Ġfot":1114,"Ġinst":1115,"istem":1116,"Ġtiel":1117,"de":1118,"Ġkrist":1119,"Ġgal":1120,"Ġplen":1121,"rid":1122,"unkci":1123,"lam":1124,"Ġrev":1125,"Ġkvar":1126,"Ġimperi":1127,"Ġtel":1128,"Ġsuper":1129,"red":1130,"199":1131,"ĠÅĿt":1132,"Ġkultur":1133,"pt":1134,"Ġjan":1135,"Ġfunkci":1136,"ument":1137,"Ġdes":1138,"ear":1139,"Ġbibli":1140,"000":1141,"ster":1142,"te":1143,"Ġmenci":1144,"Ġfut":1145,"Ġaktor":1146,"Ġakt":1147,"kad":1148,"Ġparti":1149,"kont":1150,"vid":1151,"Ġpopol":1152,"Â²":1153,"Ġeld":1154,"Ġinsul":1155,"Ġteatr":1156,"ĠaÄĿ":1157,"ĠÄĿen":1158,"Ġden":1159,"Äį":1160,"onor":1161,"bar":1162,"ck":1163,"Ġlast":1164,"Ġsupr":1165,"Ġorganiz":1166,"Ġser":1167,".,":1168,"Ġferm":1169,"ĠbudapeÅĿt":1170,"Ġpa":1171,"Ġ,":1172,"bert":1173,"Ġaf":1174,"Ġleg":1175,"Ġni":1176,"ĠÅĿtat":1177,"Ġcar":1178,"Ġmed":1179,"Ġten":1180,"Ġinform":1181,"gc":1182,"Ġmov":1183,"uri":1184,"Ġ189":1185,"zi":1186,"Ġsa":1187,"Ġsistem":1188,"Ġlag":1189,"Ġpentr":1190,"50":1191,"Ġgeografi":1192,"Ġdel":1193,"ĠâĢĶ":1194,"Ġkal":1195,"Ġjuli":1196,"Ġrap":1197,"Ð°":1198,"78":1199,"Ġarme":1200,"Ġlist":1201,"Ġlat":1202,"akci":1203,"Ġfeder":1204,"Ġruman":1205,"ati":1206,"lovak":1207,"Ġov":1208,"lav":1209,"Ġpres":1210,"Ġparol":1211,"Ġkil":1212,"Ġfoj":1213,"Ġunivers":1214,"Ġpend":1215,"erc":1216,"ider":1217,"Ġmil":1218,"taÅŃ":1219,"Ġobservatori":1220,"Ġfal":1221,"Ã¨":1222,"Ġreakci":1223,"ein":1224,"Ġhelp":1225,"talog":1226,"Ġpremi":1227,"Ġplan":1228,"urn":1229,"Ġmor":1230,"Ġsukces":1231,"Ġdem":1232,"Ġkur":1233,"Ġhispan":1234,"Ġrezult":1235,"dr":1236,"Ġitali":1237,"..":1238,"Ġjapan":1239,"Ġekon":1240,"):":1241,"Ġkonk":1242,"kor":1243,"Ġjohan":1244,"Ġsvis":1245,"||":1246,"Ġflu":1247,"uar":1248,"Ġto":1249,"Ġhar":1250,"Ġpun":1251,"Ġesperanto":1252,"ĠdaÅŃr":1253,"zil":1254,"ometr":1255,"ĠÃ©":1256,"Ġben":1257,"amp":1258,"Ã¡l":1259,"Ġite":1260,"Ġprofes":1261,"Ġbatal":1262,"jt":1263,"Ġme":1264,"Ġkies":1265,"aÄ¥":1266,"isk":1267,"Ġpet":1268,"ten":1269,"Ġbord":1270,"plor":1271,"ww":1272,"Ġkonsist":1273,"ĠÐ":1274,"oÄī":1275,"198":1276,"11":1277,"vi":1278,"Ġfederaci":1279,"Ãº":1280,"Ġren":1281,"Ġinfan":1282,"Ġuj":1283,"Ġdec":1284,"lu":1285,"Ġastronom":1286,"Ġokup":1287,"all":1288,"Ġkilometr":1289,"Ġara":1290,"ĠÄīiu":1291,"ment":1292,"Ġapud":1293,"Ġkompon":1294,"Ġno":1295,"Ġprepar":1296,"Ġduk":1297,"olik":1298,"Ġsup":1299,"Ġbild":1300,"Ġacid":1301,"Ġhonor":1302,"Ġ188":1303,"Ġkonsider":1304,"ovi":1305,"isch":1306,"rol":1307,"rist":1308,"sm":1309,"Ġsh":1310,"Ġflank":1311,"ny":1312,"kon":1313,"Ġklas":1314,"ĠeÄī":1315,"22":1316,"ĠÅĿanÄĿ":1317,"erik":1318,"Ġmik":1319,"Ġating":1320,"Ġkresk":1321,"Ġbri":1322,"sh":1323,"Ġesplor":1324,"Ġate":1325,"ry":1326,"opren":1327,"Ġund":1328,"ne":1329,"30":1330,"pon":1331,"eld":1332,"Ġakad":1333,"mes":1334,"Ġintern":1335,"Ġfre":1336,"Ġsov":1337,"onc":1338,"odi":1339,"ph":1340,"Ġ=":1341,"Ġprezid":1342,"Ġpartopren":1343,"Ġmari":1344,"ation":1345,"Ġpariz":1346,"Ġgl":1347,"=\"":1348,"Ġmur":1349,"Ġiom":1350,"Ġrespublik":1351,"ind":1352,"Ġsimil":1353,");":1354,"Ġoli":1355,"temp":1356,"au":1357,"Ġital":1358,"les":1359,"uel":1360,"irm":1361,"Ð¾":1362,"Ġlas":1363,"Ġakir":1364,"Ġakademi":1365,"aks":1366,"Ġamb":1367,"rac":1368,"pren":1369,"ĠÄĿeneral":1370,"ett":1371,"Ġflug":1372,"Ġtit":1373,"Ġgvid":1374,"Ġhungari":1375,"ankam":1376,"Ġbe":1377,"ner":1378,"Ġreli":1379,"aksi":1380,"Ã¶r":1381,"Ġtrad":1382,"Ġident":1383,"40":1384,"Ġmontr":1385,"ich":1386,"ler":1387,"Ã¡s":1388,"Ġkru":1389,"Ġrusi":1390,"Ġsc":1391,"ivid":1392,"eksik":1393,"val":1394,"obr":1395,"Ġgu":1396,"Ġministr":1397,"Ġblank":1398,"Ġekonomi":1399,"Ġjen":1400,"ĠâĢŀ":1401,"Ġ2000":1402,"Ġhor":1403,"pri":1404,"ier":1405,"alt":1406,"Ġjud":1407,"eter":1408,"Ġbrazil":1409,"Ġwil":1410,"old":1411,"21":1412,"ÅĻ":1413,"Ġkonf":1414,"ĠpaÄĿ":1415,"],":1416,"Ġkvankam":1417,"dor":1418,"60":1419,"Ġpropr":1420,"ederland":1421,"197":1422,"Ġdat":1423,"Ġkonst":1424,"Ġtekst":1425,"Ġroman":1426,"ass":1427,"Ġdire":1428,"fin":1429,"Ġcom":1430,"Ġrajt":1431,"Ġduon":1432,"Ġko":1433,"Ġdecembr":1434,"Ð¸":1435,"Ġ2005":1436,"Ġseri":1437,"Ġjanuar":1438,"Ġvon":1439,"Ġviz":1440,"Ġ187":1441,"Ġrus":1442,"Ġprot":1443,"Ġmuze":1444,"Ġfiz":1445,"Ġaktiv":1446,"Ġset":1447,"atik":1448,"he":1449,"Ġkemi":1450,"Ġsovet":1451,"Ġsept":1452,"nik":1453,"rad":1454,"Ġsom":1455,"Ġpopul":1456,"Ġph":1457,"olf":1458,"Ġjur":1459,"Ġneni":1460,"sed":1461,"ĠaÅŃg":1462,"âĢľ":1463,"23":1464,"Ġrilat":1465,"ribu":1466,"Ġokt":1467,"if":1468,"Ġinv":1469,"Ġmad":1470,"jar":1471,"âĢĿ":1472,"Ġ)":1473,"Ġkolekt":1474,"Ġoper":1475,"Ġcon":1476,"Ġcent":1477,"Ġtradici":1478,"Ġnorm":1479,"Ġuk":1480,"ork":1481,"Ġvari":1482,"fran":1483,"25":1484,"Ġreligi":1485,"rig":1486,"ĠmanÄĿ":1487,"uc":1488,"Ġkonc":1489,"Ġperi":1490,"hel":1491,"intez":1492,"Ġfak":1493,"Ġvic":1494,"Ġqu":1495,"Ġpat":1496,"Ġsid":1497,"Ġmes":1498,"ĠaÅŃgust":1499,"gen":1500,"itut":1501,"rich":1502,"Ġvast":1503,"Ġ&":1504,"Ġprecip":1505,"Ġpap":1506,"Ġpunkt":1507,"Ġseptembr":1508,"anj":1509,"plom":1510,"Ġkod":1511,"Ġgaz":1512,"Ġha":1513,"ĠaÅŃstr":1514,"Ġankor":1515,"Ġplant":1516,"Ġreal":1517,"ĠankoraÅŃ":1518,"katalog":1519,"Ġburg":1520,"ric":1521,"Ġtrakt":1522,"Ġmark":1523,"Ġson":1524,"Ġhispani":1525,"ÅĤ":1526,"Ġ186":1527,"Ġiam":1528,"Ġevolu":1529,"Ġkonserv":1530,"Ġslovak":1531,"urnal":1532,"Ġ11":1533,"Ġartik":1534,"urs":1535,"Ġdir":1536,"ann":1537,"Ġekl":1538,"Ġ2002":1539,"Ġpoet":1540,"Ġmos":1541,"Ġdiplom":1542,"Ġnuntemp":1543,"fl":1544,"Ġsintez":1545,"se":1546,"Ġapril":1547,"otek":1548,"ht":1549,"Ġmit":1550,"Ġversi":1551,"Ġfest":1552,"ald":1553,"Ġsetl":1554,"Ġjos":1555,"Ġtraduk":1556,"Ġpren":1557,"Ðµ":1558,"Ġco":1559,"ans":1560,"Ġafrik":1561,"Ġjuni":1562,"Ġflor":1563,"Ġ2006":1564,"Ġoktobr":1565,"Ġsem":1566,"48":1567,"Ġeklezi":1568,"Ġperiod":1569,"rit":1570,"Ġ2010":1571,"Ã±":1572,"Ġtip":1573,"Ġkonduk":1574,"ĠkaÅŃ":1575,"Ġnederland":1576,"Ġrapid":1577,"ĠvoÄī":1578,"Ġred":1579,"pre":1580,"dustri":1581,"Ġindik":1582,"Ġprofesor":1583,"Ġgenr":1584,"ack":1585,"ĠÂ«":1586,"Ġdens":1587,"Ġekster":1588,"Ġprog":1589,"Ġuni":1590,"pro":1591,"Ġ30":1592,"Ġhid":1593,"Ġkomerc":1594,"men":1595,"Ġpark":1596,"Ġbru":1597,"nask":1598,"Ġvan":1599,"Ġposed":1600,"Ġtitol":1601,"196":1602,"Ġnaj":1603,"Ġbu":1604,"erk":1605,"enz":1606,"cs":1607,"Ġkatolik":1608,"Ġho":1609,"ĠleÄĿ":1610,"bin":1611,"Ġrumani":1612,"Ġlar":1613,"lo":1614,"Ġx":1615,"edr":1616,"Ġkastel":1617,"45":1618,"orn":1619,"Ġfiloz":1620,"ÑĢ":1621,"39":1622,"ĠambaÅŃ":1623,"Ġsend":1624,"nov":1625,"Ġhej":1626,"ĠÄ¥":1627,"Ġvenk":1628,"Ġfizik":1629,"28":1630,"ĠruÄĿ":1631,"Ġfrat":1632,"esk":1633,"Ġac":1634,"ĠÅĿia":1635,"Ġpermes":1636,"Ġartikol":1637,"Ġran":1638,"sta":1639,"Ġ2007":1640,"Ġnigr":1641,"Ġhen":1642,"ink":1643,"Ġ2001":1644,"yle":1645,"Ġmis":1646,"Ġhum":1647,"dik":1648,"astr":1649,"Ġiz":1650,"ĠÅĿajn":1651,"Ġkolor":1652,"Ġakcept":1653,"Ġmani":1654,"Ġgr":1655,"mal":1656,"Ġnovembr":1657,"Ġimp":1658,"her":1659,"Ñģ":1660,"tag":1661,"ĠpreskaÅŃ":1662,"Ġent":1663,"Ġasoci":1664,"Ġmodern":1665,"Ġ25":1666,"Ġmetr":1667,"urb":1668,"Ġ2008":1669,"Ġfra":1670,"ĠâĢľ":1671,"Ġsolv":1672,"gy":1673,"Ġukra":1674,"24":1675,"Å¾":1676,"Ġkompl":1677,"Ġ1999":1678,"sik":1679,"Ġradi":1680,"diÄī":1681,"oluci":1682,"azi":1683,"Ã¼r":1684,"bel":1685,"Ġ2004":1686,"Ġinstitut":1687,"ha":1688,"Ġamerik":1689,"ew":1690,"yar":1691,"Ġolimp":1692,"Ġsvisland":1693,"Ã§":1694,"Ġgrek":1695,"Ð½":1696,"//":1697,"Ã©s":1698,"Ġregul":1699,"Ġmus":1700,"Ġkurac":1701,"nes":1702,"Ġamik":1703,"Ġantik":1704,"Ġindustri":1705,"Ġperd":1706,"Ġgy":1707,"Ġeksp":1708,"26":1709,"Ġkvin":1710,"zs":1711,"Ġnajbar":1712,"Ġkadr":1713,"ational":1714,"Ġciv":1715,"27":1716,"urt":1717,"Ġhe":1718,"80":1719,"90":1720,"Ġvet":1721,"Ġmigr":1722,"Ġfakt":1723,"Ġkvad":1724,"Ġmilion":1725,"Ġut":1726,"ÄĽ":1727,"stataÅŃ":1728,"kom":1729,"ian":1730,"Ġilin":1731,"ual":1732,"isor":1733,"evid":1734,"ivel":1735,"for":1736,"acil":1737,"Ġ185":1738,"ezon":1739,"Ġ1993":1740,"ĠÅĿip":1741,"Ġhejm":1742,"uziv":1743,"itekt":1744,"ttp":1745,"Ġinflu":1746,"aw":1747,"Ġkorp":1748,"iskop":1749,"Ġsil":1750,"36":1751,"Ġfab":1752,"iss":1753,"Ġgri":1754,"Ġantikv":1755,"oks":1756,"kluziv":1757,"Ġdekstr":1758,"Ġfacil":1759,"Ġonta":1760,"195":1761,"35":1762,"Ġoriginal":1763,"lament":1764,"ĠanstataÅŃ":1765,"Ġing":1766,"Ġide":1767,"Ġ/":1768,"Ġpoz":1769,"://":1770,"bol":1771,"Ġrakont":1772,"ebru":1773,"Ġsetlej":1774,"mat":1775,"Ġlond":1776,"Ġkapt":1777,"Ġdok":1778,"29":1779,"Ġgeorg":1780,"odiaÅŃ":1781,"Ġchar":1782,"Ġkari":1783,"ebruar":1784,"Ġmas":1785,"ott":1786,"Ġkong":1787,"Ġcl":1788,"70":1789,"Ġeduk":1790,"Ġparlament":1791,"38":1792,"Ġtomb":1793,"Ġpot":1794,"Ġ2009":1795,"Ġrevoluci":1796,"Ġalb":1797,"Ġgazet":1798,"Ġarg":1799,"ĠÄµurnal":1800,"Ġfebruar":1801,"ÅĿtat":1802,"Ġlit":1803,"andr":1804,"Ġromi":1805,"âĢĻ":1806,"Ġ1992":1807,"ativ":1808,"Ġ1998":1809,"Ġspecial":1810,"Ġstrat":1811,"Ã¢":1812,"Ġkir":1813,"ĠreÄĿisor":1814,"ĠmonaÄ¥":1815,"hr":1816,"Ġgi":1817,"Ġmagyar":1818,"Ġepiskop":1819,"Ġhttp":1820,"Ġpolland":1821,"Ġazi":1822,"Ġkaz":1823,"Ã½":1824,"Ġnivel":1825,"mer":1826,"ĠriÄī":1827,"Ġ60":1828,"ĠaÅŃtor":1829,"obel":1830,"hi":1831,"Ġdecid":1832,"Ġalf":1833,"estr":1834,"ĠkaÅŃz":1835,"Ġseks":1836,"44":1837,"ity":1838,"stelaci":1839,"egi":1840,"----":1841,"ofi":1842,"Ġprinc":1843,"33":1844,"ektiv":1845,"erni":1846,"Ġklar":1847,"Ġprojekt":1848,"kol":1849,"ben":1850,"Ġngc":1851,"Ġmo":1852,"Ġsaint":1853,"ff":1854,"Ġkos":1855,"ex":1856,"Ġota":1857,"Ġkruc":1858,"Ġvarm":1859,"49":1860,"Ã©l":1861,"Ġsomer":1862,"Ġgraf":1863,"lic":1864,"47":1865,"ory":1866,"uch":1867,"Ġ1990":1868,"Ġvizit":1869,"cl":1870,"err":1871,"ĠaÅŃstri":1872,"Ġdokument":1873,"Ġjo":1874,"Ġaz":1875,"Ġpen":1876,"Ġnew":1877,"bo":1878,"Ġdol":1879,"Ã©r":1880,"dek":1881,"ozici":1882,"Ġmetro":1883,"itat":1884,"Ġtr":1885,"Ġbas":1886,"Ġ|----":1887,"ess":1888,"Ġmalpl":1889,"Ġ|-----":1890,"Ġmedi":1891,"ins":1892,"ÃŁ":1893,"Ġtelevid":1894,"37":1895,"Ġetend":1896,"Ġsant":1897,"Ġdekl":1898,"Ġatak":1899,"Ġsocial":1900,"ark":1901,"Ġagrik":1902,"46":1903,"Ġbro":1904,"Ġvin":1905,"Ġregistr":1906,"Ġnobel":1907,"Ġolimpik":1908,"Â»":1909,"Ġrig":1910,"Ġsat":1911,"Ġsav":1912,"Ġvolv":1913,"aÅĿ":1914,"ons":1915,"uÅĿ":1916,"Ġklor":1917,"Ġnag":1918,"Ġarab":1919,"Ġafer":1920,"Ġpil":1921,"Ġsep":1922,"ÑĤ":1923,"Ġod":1924,"Ġvend":1925,"Ġinkluziv":1926,"Ġ(\"":1927,"Ġhered":1928,"ys":1929,"lÃ³":1930,"Ġdifin":1931,"ĠvojaÄĿ":1932,"hungar":1933,"Ġorb":1934,"Ġdivid":1935,"amb":1936,"elekt":1937,"Ġfri":1938,"Ġdet":1939,"unt":1940,"ce":1941,"ktur":1942,"Ġkampanj":1943,"Ġ26":1944,"Ġarkitekt":1945,"uni":1946,"Ġtom":1947,"Ġbest":1948,"Ġ180":1949,"Ġgalaksi":1950,"Ġkvadr":1951,"Ġoks":1952,"staci":1953,"Ġofic":1954,"Ġmateri":1955,"Ġkred":1956,"Ġles":1957,"ith":1958,"akter":1959,"Ġagrikultur":1960,"Ġsport":1961,"Ġevent":1962,"Ġprotekt":1963,"Ġbern":1964,"Ġpopular":1965,"Ġmap":1966,"Ġpens":1967,"ign":1968,"Ġkomponist":1969,"Ġlum":1970,"Ðº":1971,"Ġsun":1972,"vÃ¡":1973,".)":1974,"Ġkul":1975,"Ġ2011":1976,"aktor":1977,"Ġtir":1978,"Ġtial":1979,"abet":1980,"form":1981,"ect":1982,"Ġmedic":1983,"Ġkarier":1984,"Ġdez":1985,"Ġsubten":1986,"Ġbibliotek":1987,"Ġril":1988,"Ġmol":1989,"Ġ(,":1990,"Ġstru":1991,"ure":1992,"Ġ978":1993,"Ġ2003":1994,"Ġkarakter":1995,"sur":1996,"Ġpru":1997,"ament":1998,"net":1999,"ĠÄīeÄ¥i":2000,"ondism":2001,"95":2002,"yl":2003,"Ã´":2004,"ĠÄīin":2005,"ondisment":2006,"Ġ21":2007,"Ġcir":2008,"Ġstil":2009,"avi":2010,"85":2011,"Ġtru":2012,"Ġdeklar":2013,"Ġarondisment":2014,"Ġ24":2015,"ĠlarÄĿ":2016,"Ġchrist":2017,"Ġturi":2018,"Ġta":2019,"ĠhodiaÅŃ":2020,"ld":2021,"Ġgar":2022,"me":2023,"ĠsubÅĿtat":2024,"Ġsociet":2025,"Ġfen":2026,"yn":2027,"Ġpan":2028,"Ġmonument":2029,"gar":2030,"tp":2031,"Ġbrun":2032,"Ġmel":2033,"inat":2034,"Ġink":2035,"Ġvalor":2036,"32":2037,"bach":2038,"Ġkritik":2039,"sa":2040,"tr":2041,"Ġrok":2042,"Ġmot":2043,"aft":2044,"Ġberlin":2045,"31":2046,"Ġpac":2047,"eck":2048,"Ġcert":2049,"Ġverd":2050,"dam":2051,"Ġ'":2052,"Ġalk":2053,"ĠpoÅĿt":2054,"34":2055,"Ġtor":2056,"Ġfirm":2057,"Ġgajn":2058,"uf":2059,"Ġkli":2060,"Ġmeksik":2061,"Ġtermin":2062,"Ġgo":2063,"Ġsum":2064,"Ġvien":2065,"uberni":2066,"dat":2067,"Ġkron":2068,"96":2069,"'s":2070,"rononc":2071,"Ġteori":2072,"Ġprogram":2073,"istik":2074,"Ġmich":2075,"Ġvetur":2076,"Ġlos":2077,"rak":2078,"Ġkompren":2079,"Ġ!":2080,"Ġkapabl":2081,"Ġtab":2082,"Ġfe":2083,"ger":2084,"col":2085,"Ġ1997":2086,"Ġdef":2087,"Ġrobert":2088,"Ġstel":2089,"ematik":2090,"imn":2091,"ĠÅĿton":2092,"Ġkombin":2093,"Ġdisk":2094,"Ġkn":2095,"Ġex":2096,"Ġpag":2097,"Ġ1995":2098,"gu":2099,"Ġkin":2100,"Ġses":2101,"Ġ1960":2102,"Ġend":2103,"Ġinteres":2104,"ical":2105,"Ġann":2106,"Ġsimpl":2107,"Ġ27":2108,"Ġmak":2109,"Ġ28":2110,"Ġ1980":2111,"met":2112,"tern":2113,"Ġpont":2114,"Ġkongres":2115,"km":2116,"ituci":2117,"Ġkali":2118,"Ã¡z":2119,"prim":2120,"Ġrang":2121,"Ġpropon":2122,"190":2123,"Ð¾Ð":2124,"Ġ1910":2125,"Ġpoem":2126,"Ġmedicin":2127,"Ġdiferenc":2128,"Ġaer":2129,"Ġso":2130,"itr":2131,"uÄĿ":2132,"Ġiuj":2133,"eph":2134,"Ġpint":2135,"Ġasp":2136,"ib":2137,"Ġfrank":2138,"Ġscen":2139,"Ġ1991":2140,"bon":2141,"arth":2142,"Ġkarl":2143,"Ġmoskv":2144,"98":2145,"Ġq":2146,"Ġilia":2147,"www":2148,"Ġtim":2149,"ĠfiÅĿ":2150,"pi":2151,"Ġbat":2152,"Ġstyle":2153,"Ġca":2154,"Ġmemor":2155,"Ġdirekt":2156,"els":2157,"eh":2158,"Ġrekt":2159,"Ġtig":2160,"pleks":2161,"Ġost":2162,"osk":2163,"ĠÄīiam":2164,"Ġmadrid":2165,"blem":2166,"Ġpress":2167,"Ġom":2168,"Ġmatematik":2169,"Ã¡sz":2170,"Ġsign":2171,"Ġgro":2172,"Ġlip":2173,"Ġarmen":2174,"Ġrejn":2175,"Ġ23":2176,"com":2177,"Ġfo":2178,"Ġnav":2179,"Ġmc":2180,"Ġmars":2181,"arden":2182,"Ġ2012":2183,"cz":2184,"Ġhaven":2185,"nam":2186,"Ġvik":2187,"Ġ(*":2188,"Ġres":2189,"Ġpur":2190,"kun":2191,"Ġvok":2192,"ael":2193,"Ġ22":2194,"Ã¼n":2195,"ÈĻ":2196,"Ġjes":2197,"pert":2198,"Ġ1945":2199,"Ġ1996":2200,"let":2201,"Ġanim":2202,"Ġcer":2203,"kul":2204,"Ġbor":2205,"Ġsekret":2206,"Ġpaul":2207,"Ġislam":2208,"Ġwe":2209,"jor":2210,"Ġelement":2211,"ĠjÃ³":2212,"Ġton":2213,"Ġrespond":2214,"Ġportug":2215,"Ġesprim":2216,"Ġ1970":2217,"franc":2218,"86":2219,"xt":2220,"Ġktp":2221,"Ġdav":2222,"Ġfik":2223,"iad":2224,"ĠÄīu":2225,"\")":2226,"fac":2227,"Ġkonker":2228,"Ġeli":2229,"Ġhol":2230,"Ġregn":2231,"Ġdefend":2232,"Ġband":2233,"kov":2234,"Ġnest":2235,"Ġkro":2236,"Ġcs":2237,"Ġkr":2238,"Ġstruktur":2239,"Ġbre":2240,"Ã¡g":2241,"vin":2242,"Ġot":2243,"Ġturk":2244,"Ġgad":2245,"Ġjapani":2246,"Ġampleks":2247,"Ġ1994":2248,"apt":2249,"Ġwilli":2250,"Ã¡ny":2251,"Ġgast":2252,"Ġsimbol":2253,"cht":2254,"Ġcor":2255,"gro":2256,"43":2257,"99":2258,"Ġslovaki":2259,"Ġfinn":2260,"Ġanal":2261,"Ġ1989":2262,"Ġdin":2263,"Ġklasik":2264,"ĠserÄī":2265,"Ġein":2266,"Ġiu":2267,"Ġdisting":2268,"Ġlev":2269,"Ġger":2270,"Ġbibliografi":2271,"42":2272,"Ġguberni":2273,"Ġklub":2274,"pol":2275,"sc":2276,"Ġdam":2277,"ulpt":2278,"Ġlondon":2279,"ly":2280,"75":2281,"Ġefik":2282,"asti":2283,"Ġukraini":2284,"Ġtol":2285,"Ġfilozofi":2286,"Ġkanad":2287,"Ġvolum":2288,"Ġna":2289,"Ġtest":2290,"umer":2291,"Ġaspekt":2292,"41":2293,"Ġpastr":2294,"ore":2295,"okrat":2296,"Ġros":2297,"Ġfos":2298,"ohol":2299,"Ġfortik":2300,"var":2301,"Ġfund":2302,"Ġcal":2303,"Ġrif":2304,"Ġteknik":2305,"88":2306,"german":2307,"Ġwar":2308,"nic":2309,"Ġpied":2310,"Ġ100":2311,"Ġ50":2312,"Ġdetru":2313,"esper":2314,"ham":2315,"Ġturism":2316,"Ġnu":2317,"Ġhab":2318,"Ġentre":2319,"intr":2320,"mil":2321,"pan":2322,"ary":2323,"foj":2324,"Äĥ":2325,"Ġkoloni":2326,"ea":2327,"Ġ31":2328,"Ġlog":2329,"ktik":2330,"Ġcit":2331,"Ġkontribu":2332,"Ġproblem":2333,"Ġeben":2334,"Ġtaks":2335,"esp":2336,"Ġposten":2337,"Ġzorg":2338,"Ġmonat":2339,"Ġfoli":2340,"xik":2341,"Ġkort":2342,"Ġpostul":2343,"Ġmaterial":2344,"Ġhal":2345,"we":2346,"Ġwilliam":2347,"Ġbul":2348,"Ġribel":2349,"ĠaÅŃstrali":2350,"Ġsul":2351,"Ġ1950":2352,"87":2353,"iment":2354,"Ġrevu":2355,"Ġalkohol":2356,"bro":2357,"dis":2358,"nom":2359,"itz":2360,"Ġstudent":2361,"ux":2362,"kaj":2363,"Ġflav":2364,"Ġinte":2365,"Ġplat":2366,"kat":2367,"oÅĿ":2368,"pli":2369,"Ġnik":2370,"Ġlign":2371,"84":2372,"97":2373,"Ġbad":2374,"Ġsel":2375,"ĠjuÄĿ":2376,"ĠÄīini":2377,"Ġ40":2378,"Ġkomplet":2379,"Ġ1919":2380,"Ġproc":2381,"Ġpers":2382,"Ġcm":2383,"pal":2384,"Ã©t":2385,"Ġatom":2386,"ÄĿeni":2387,"Ġokul":2388,"Ġins":2389,"Ġ%":2390,"Ġsoldat":2391,"Ġfabrik":2392,"Ġentrepren":2393,"Ġpel":2394,"Ġskulpt":2395,"Ġaviad":2396,"ct":2397,"ival":2398,"Ġleon":2399,"Ġort":2400,"Ġpraktik":2401,"65":2402,"Ġmer":2403,"ĠunuiÄĿ":2404,"onom":2405,"Ġfig":2406,"ĠÄīam":2407,"Ġjac":2408,"angl":2409,"Ġtuj":2410,"Ġblu":2411,"Ġpriv":2412,"Ġtrak":2413,"entin":2414,"Ġham":2415,"mark":2416,"Ġuniversity":2417,"uth":2418,"na":2419,"Ġnat":2420,"oph":2421,"Ġegal":2422,"Ġpe":2423,"enk":2424,"Ð»":2425,"ator":2426,"Ġvintr":2427,"Ġkatedr":2428,"93":2429,"Ġkontra":2430,"vad":2431,"inar":2432,"helm":2433,"Ġkomis":2434,"Ġtrafik":2435,"Ġsovetuni":2436,"Ġekspozici":2437,"Ã¡t":2438,"Ġja":2439,"Ġ1944":2440,"Ġwal":2441,"ll":2442,"enn":2443,"olt":2444,"Ġkomunik":2445,"Ġsev":2446,"Ġkas":2447,"Ġwh":2448,"Ġetn":2449,"ÄĿenier":2450,"Ġmurd":2451,"ĠaranÄĿ":2452,"92":2453,"Ġestabl":2454,"Ġkvant":2455,"uv":2456,"antaÅŃ":2457,"Ġbald":2458,"Ġgram":2459,"Ġpez":2460,"Ġ45":2461,"efon":2462,"kan":2463,"Ġgrund":2464,"Ġspac":2465,"Ġbalot":2466,"Ġchem":2467,"orf":2468,"Ġlaboratori":2469,"66":2470,"89":2471,"lig":2472,"ma":2473,"ĠaliÄĿ":2474,"Ġ2015":2475,"Ġdan":2476,"eric":2477,"Ġ000":2478,"anik":2479,"unu":2480,"Ġkub":2481,"Ġdik":2482,"Ġ2013":2483,"vÃ¡r":2484,"Ġ1940":2485,"speci":2486,"ky":2487,"Ġpret":2488,"forni":2489,"Ġfirma":2490,"ĠkÃ¶":2491,"Ġutil":2492,"Ġkonsent":2493,"ĠÂ»":2494,"Ġrigard":2495,"Ġgeneral":2496,"furt":2497,"Ġ1988":2498,"ingt":2499,"opi":2500,"ste":2501,"etri":2502,"Ġsurfac":2503,"ba":2504,"Ġkontrol":2505,"enburg":2506,"Ġ2014":2507,"tad":2508,"ilv":2509,"orr":2510,"Ġtelefon":2511,"Äīi":2512,"Ġbran":2513,"Ġturn":2514,"76":2515,"Ġneces":2516,"Ġtal":2517,"ovoj":2518,"Ġfr":2519,"Ġrich":2520,"cit":2521,"rob":2522,"aÅŃg":2523,"Ġcenter":2524,"no":2525,"Ġakr":2526,"bur":2527,"55":2528,"por":2529,"utsch":2530,"Ġegi":2531,"Ġsufi":2532,"Ġlinear":2533,"Ġcarl":2534,"Ġhi":2535,"Ġput":2536,"Ġgriz":2537,".\"":2538,"Ġban":2539,"Ġkomitat":2540,"skrib":2541,"Åį":2542,"zsef":2543,"Ġbriti":2544,"Ġari":2545,"ergi":2546,"ras":2547,"Ġprem":2548,"otel":2549,"Ãł":2550,"ĠinÄĿenier":2551,"Ġpozici":2552,"ps":2553,"onj":2554,"Ġrenkont":2555,"ĠÄĿarden":2556,"Ġperf":2557,"Ã¡d":2558,"izi":2559,"Ġpu":2560,"Ġbek":2561,"ĠkaÅĿ":2562,"Ġ29":2563,"Ġprononc":2564,"Ġcens":2565,"Ġ1981":2566,"Ã©k":2567,"Ġole":2568,"Ġsar":2569,"Ġkosm":2570,"Ġ1987":2571,"Ġpaf":2572,"ĠloÄĿant":2573,"Ġbav":2574,"Ġmodel":2575,"Â°":2576,"Ġdeb":2577,"rael":2578,"Ġhip":2579,"oslovak":2580,"kar":2581,"sovi":2582,"Ġmetod":2583,"Ġpetr":2584,"Ġdirektor":2585,"ĠsufiÄī":2586,"Ġpsik":2587,"iti":2588,"Ġtemper":2589,"oÄ¥":2590,"Ġkult":2591,"Ġnut":2592,"77":2593,"Ġdoktor":2594,"Ġgas":2595,"Ġtrajn":2596,"erm":2597,"opedi":2598,"Ġsupoz":2599,"oregion":2600,"ors":2601,"hol":2602,"Ġdram":2603,"}}":2604,"ĠaÄī":2605,"Ġnad":2606,"Ġpotenc":2607,"anta":2608,"Ġthe":2609,"83":2610,"Ġkapel":2611,"itiv":2612,"94":2613,"hl":2614,"har":2615,"esch":2616,"Ġ1920":2617,"adt":2618,"Ġaleks":2619,"Ġjust":2620,"Ġkost":2621,"Ġnumer":2622,"Ġneg":2623,"van":2624,"Ġgimn":2625,"ĠkondiÄī":2626,"Ġkonkurs":2627,"eng":2628,"Ġkvartal":2629,"pa":2630,"agog":2631,"Ġvarsovi":2632,"ford":2633,"Ġnor":2634,"Ġ1977":2635,"ĠÃ©s":2636,"Ġradik":2637,"ĠÄį":2638,"Ġplac":2639,"Ġfried":2640,"ĠdediÄī":2641,"ĠbaldaÅŃ":2642,"tit":2643,"Ġajn":2644,"tali":2645,"Ġkonv":2646,"Ġkontin":2647,"leg":2648,"iter":2649,"ock":2650,"orld":2651,"Ġnear":2652,"{{":2653,"Ġhin":2654,"ĠÄīeÄ¥oslovak":2655,"Ġ1986":2656,"ĠloÄĿantoj":2657,"oform":2658,"Ġpian":2659,"Ġpalac":2660,"Ġgot":2661,"ley":2662,"Ġkomput":2663,"opod":2664,"Ġbezon":2665,"Ġmask":2666,"Ġrad":2667,"ront":2668,"Ġangli":2669,"56":2670,"rod":2671,"Ġvers":2672,"Ġaver":2673,"Ġdavid":2674,"Ġsm":2675,"Ġsaksi":2676,"rem":2677,"ĠjÃ³zsef":2678,"ĠpÃ©":2679,"Ġtan":2680,"Ġvel":2681,"Ġfinanc":2682,"Ġtraktat":2683,";\"":2684,"Ġfa":2685,"sol":2686,"Ġfrukt":2687,"earch":2688,"ĠindiÄĿ":2689,"Ġ1983":2690,"tel":2691,"ĠindiÄĿen":2692,"Ġmiks":2693,"Ġspi":2694,"Ġbien":2695,"Ġenergi":2696,"Ġwi":2697,"tz":2698,"ques":2699,"den":2700,"Ġ1968":2701,"Ġpub":2702,"Ġnokt":2703,"Ġkompani":2704,"Ġ1985":2705,"heim":2706,"esc":2707,"Ġkirk":2708,"Ġandr":2709,"orig":2710,"Ġnap":2711,"Ġtemperatur":2712,"Ġthom":2713,"Ġ1930":2714,"ebl":2715,"Ġsent":2716,"ĠfranÃ§":2717,"ei":2718,"Ġrip":2719,"Ġresearch":2720,"Ġmu":2721,"Ġkatalog":2722,"Ġkonsil":2723,"Ġjak":2724,"Ġdemokrat":2725,"ĠjÃ¡n":2726,"82":2727,"Ġped":2728,"Ġstri":2729,"Ġ1979":2730,"ns":2731,"Ġ2016":2732,"Ġii":2733,"Ġtun":2734,"Ġsved":2735,"Ġ;":2736,"ograph":2737,"Ġromp":2738,"Ġpolic":2739,"Ġkoncern":2740,"Ġhaut":2741,"Ġbol":2742,"Ġkompar":2743,"Ġsufer":2744,"2004":2745,"ou":2746,"Ġkart":2747,"ose":2748,"usk":2749,"Ġhidro":2750,"ÅĦ":2751,"91":2752,"esz":2753,"Ġdank":2754,"ĠÎ":2755,"insul":2756,"Ġmezur":2757,"Ġprin":2758,"Ġklimat":2759,"67":2760,"hof":2761,"meksik":2762,"ovic":2763,"Ġvill":2764,"Ġelektr":2765,"Ġtrup":2766,"Ġinternational":2767,"Ġgard":2768,"Ġ1982":2769,"ciz":2770,"Ġbrul":2771,"Ġoksid":2772,"Ġau":2773,"Ã¡k":2774,"Ġ1975":2775,"68":2776,"Ġkoncept":2777,"Ġamas":2778,"raci":2779,"Ġorden":2780,"Ġtaj":2781,"Ġvit":2782,"Ġdial":2783,"Ġcan":2784,"ge":2785,"Ġpin":2786,"Ġorbit":2787,"Ġferenc":2788,"Ġrec":2789,"Ġordinar":2790,"ipedi":2791,"Ġnational":2792,"Ġmek":2793,"Ġfigur":2794,"ĠÅ¡":2795,"Ġtrib":2796,"antik":2797,"Ġdistanc":2798,"Ġmank":2799,"Ġvest":2800,"Ġ1984":2801,"ilvani":2802,"Ġrelat":2803,"Ġkonstelaci":2804,"mont":2805,"Ġklopod":2806,"pp":2807,"rus":2808,"Ġbus":2809,"Ġ1976":2810,"Ġfrekv":2811,"ash":2812,"egn":2813,"Ġraport":2814,"med":2815,"Ġgrad":2816,"Ġplaned":2817,"57":2818,"elt":2819,"rov":2820,"bri":2821,"ruman":2822,"Ġont":2823,"kiel":2824,"ĠÄīambr":2825,"Ġ160":2826,"lando":2827,"Ġ1973":2828,"Ġmisi":2829,"Ġkurs":2830,"Ġkonekt":2831,"64":2832,"dorf":2833,"Ġspert":2834,"58":2835,"Ġalbert":2836,"text":2837,"ser":2838,"span":2839,"Ġfid":2840,"74":2841,"Ġdanc":2842,"Ġfront":2843,"ograf":2844,"ym":2845,"Ã¡szlÃ³":2846,"ft":2847,"kal":2848,"ish":2849,"Ã©ny":2850,"laÅŃ":2851,"Ġrespektiv":2852,"Ġbank":2853,"lich":2854,"Ġflag":2855,"Ġsoc":2856,"rel":2857,"Ġfaj":2858,"Ġmir":2859,"Ġherb":2860,"Ġvul":2861,"att":2862,"Ġprofesi":2863,"mon":2864,"Ġmac":2865,"alig":2866,"Ġtempl":2867,"ĠÑ":2868,"Ġbur":2869,"Ã©n":2870,"aÅŃl":2871,"ĠÄĿust":2872,"Ġstre":2873,"Ġ1978":2874,"Ġkalkul":2875,"Ġeu":2876,"lingv":2877,"oy":2878,"Ġnek":2879,"onn":2880,"Ġbot":2881,"Ġ1974":2882,"Ġprag":2883,"Ġlun":2884,"Ġspec":2885,"fal":2886,"ros":2887,"ick":2888,"Ġbavari":2889,"cy":2890,"Ġindivid":2891,"72":2892,"enberg":2893,"Ġsubst":2894,"Ġcikl":2895,"Ġinstrument":2896,"ĠsÃ¡n":2897,"Ġtend":2898,"Ġekspl":2899,"uli":2900,"uld":2901,"Ġrimark":2902,"ics":2903,"Ġ1939":2904,"Ġrit":2905,"Ġrond":2906,"Ġkarakteriz":2907,"Ã£":2908,"Ġpec":2909,"51":2910,"Ġaplik":2911,"uzi":2912,"sier":2913,"Ġkonsili":2914,"arki":2915,"Ġmerk":2916,"ĠÂ°":2917,"grand":2918,"Ġkand":2919,"ĠistvÃ¡":2920,"Ġ1938":2921,"Ġnagy":2922,"Ġasert":2923,"ropol":2924,"Ġsak":2925,"ekz":2926,"Ġagn":2927,"Ġneniam":2928,"Ġaktual":2929,"Ġfilozof":2930,"Ġsezon":2931,"Ã¨r":2932,"Ġ1956":2933,"ander":2934,"Ġdeutsch":2935,"Ġzu":2936,"Ġapog":2937,"73":2938,"Ġhalt":2939,"Ġtia":2940,"Ġprincip":2941,"Ġfav":2942,"rh":2943,"Ġ1959":2944,"earth":2945,"Ġeng":2946,"Ġprofund":2947,"Ġcivit":2948,"embl":2949,"Ġworld":2950,"Ġ1971":2951,"Ġandre":2952,"cer":2953,"ath":2954,"Ġopini":2955,"Ġvikipedi":2956,"Ġindividu":2957,"Ġisrael":2958,"inter":2959,"ekut":2960,"ardi":2961,"vers":2962,"Ġrab":2963,"Ġcharles":2964,"ĠbranÄī":2965,"ĠaÄīet":2966,"Ġdr":2967,"rof":2968,"Ġjork":2969,"ane":2970,"anÄĿer":2971,"lag":2972,"63":2973,"tor":2974,"Ġ1972":2975,"Ġ1969":2976,"Ġjesu":2977,"Ġredaktor":2978,"53":2979,"likt":2980,"ĠÄīas":2981,"konstelaci":2982,"Ġern":2983,"our":2984,"Ġgimnazi":2985,"der":2986,"Ġsekretari":2987,"Ġkra":2988,"...":2989,"Ġalbum":2990,"61":2991,"Ð²":2992,"Ġ1948":2993,"Ġviol":2994,"idat":2995,"Ġment":2996,"play":2997,"mor":2998,"Ġkanal":2999,"Ġby":3000,"istrikt":3001,"ĠÅĿin":3002,"52":3003,"81":3004,"Ġcont":3005,"Ġcast":3006,"Ġsor":3007,"Ġvent":3008,"Ġpopulaci":3009,"Ġfon":3010,"asad":3011,"Ġvirg":3012,"Äģ":3013,"reg":3014,"Ġ1966":3015,"71":3016,"54":3017,"sen":3018,"itud":3019,"Ġpreciz":3020,"Ġze":3021,"po":3022,"ano":3023,"Ġineg":3024,"Ġmam":3025,"Ġsocorr":3026,"abil":3027,"hid":3028,"titl":3029,"Ġpoezi":3030,"feld":3031,"vir":3032,"Ġarkitektur":3033,"back":3034,"Ġjer":3035,"ones":3036,"ester":3037,"klam":3038,"Ġfriedrich":3039,"Ġgust":3040,"Ġfavor":3041,"alp":3042,"ngc":3043,"fiks":3044,"Ġrelativ":3045,"Ġoce":3046,"taci":3047,"wald":3048,"Ġkomand":3049,"ml":3050,"uer":3051,"ĠfÃ¼r":3052,"riv":3053,"69":3054,"Ġminac":3055,"colspan":3056,"Ġknab":3057,"zon":3058,"Ġdani":3059,"utemp":3060,"imum":3061,"Ġinvent":3062,"Ġnic":3063,"Ġ170":3064,"Ġuniversal":3065,"Ġproviz":3066,"Ġargentin":3067,"ĠomaÄĿ":3068,"any":3069,"Ġard":3070,"Ġdinasti":3071,"zel":3072,"Ġdas":3073,"Ġvund":3074,"Ġvost":3075,"Ġjean":3076,"Ġkatedral":3077,"Ġork":3078,"jen":3079,"ling":3080,"Ġdar":3081,"Ġkuir":3082,"api":3083,"takt":3084,"Ġ1967":3085,"Ġaug":3086,"jan":3087,"ĠdanÄĿer":3088,"Ġ1964":3089,"ĠnaskiÄĿ":3090,"Ġall":3091,"Ġdemokrati":3092,"Ġprom":3093,"ĠlÃ¡szlÃ³":3094,"itar":3095,"ris":3096,"Ġpruv":3097,"palat":3098,"Ġforig":3099,"Ġsemajn":3100,"display":3101,"su":3102,"well":3103,"zy":3104,"ology":3105,"Ġarest":3106,"Ġmanier":3107,"aÄī":3108,"jap":3109,"Ġ1958":3110,"Ġredakt":3111,"62":3112,"lad":3113,"Ġpere":3114,"Ġ1957":3115,"79":3116,"Ġiran":3117,"''":3118,"nun":3119,"Ġras":3120,"Ġ1965":3121,"à¤":3122,"ĠÄīes":3123,"alm":3124,"liv":3125,"Ġ().":3126,"ĠaÅŃd":3127,"ken":3128,"Ġceter":3129,"Ġcorn":3130,"ampion":3131,"Ġrand":3132,"Ġkrim":3133,"rim":3134,"Ġgam":3135,"Ġmalg":3136,"displaytitl":3137,"Ġdesegn":3138,"rag":3139,"Ġpom":3140,"Ġ2020":3141,"ho":3142,"Ġgolf":3143,"Ġtiom":3144,"wil":3145,"Å±":3146,"cienc":3147,"Ġ2017":3148,"Ġleter":3149,"Ġekv":3150,"Ġarmeni":3151,"katolik":3152,"59":3153,"Ġlou":3154,"Ġsekur":3155,"be":3156,"vill":3157,"Ġef":3158,"Ġ1962":3159,"Ġtam":3160,"Ġmedal":3161,"sud":3162,"esi":3163,"Ġorganik":3164,"Ġ2021":3165,"Ġbarok":3166,"ground":3167,"onim":3168,"Ġalfabet":3169,"Ġcla":3170,"Ġ2018":3171,"Ġtiutemp":3172,"Ġcam":3173,"san":3174,"Ġrichard":3175,"ace":3176,"bal":3177,"Î±":3178,"rog":3179,"ĠÄµaz":3180,"Ġdemand":3181,"Ġbut":3182,"Ġprefer":3183,"Ġyork":3184,"Ġordon":3185,"Ġnatri":3186,"Ġspir":3187,"hor":3188,"Ġinsp":3189,"ĠÅĿat":3190,"Ġagnosk":3191,"co":3192,"Ġanonc":3193,"Ġrezerv":3194,"Ġbudapest":3195,"mad":3196,"Ġkern":3197,"Ġpaci":3198,"Ġsang":3199,"Ġ1929":3200,"Ġinvad":3201,"eologi":3202,"Ġnazi":3203,"Ġ1941":3204,"Ġlikv":3205,"Ġhein":3206,"Ġ1947":3207,"Ġfundament":3208,"Ġmaskl":3209,"ij":3210,"ĠÄīel":3211,"ĠÃº":3212,"Ġukrain":3213,"Ġcas":3214,"Ġameric":3215,"Ġwilhelm":3216,"palatinat":3217,"obl":3218,"Ġschw":3219,"Ġnutr":3220,"okol":3221,"Ġpluv":3222,"Ġny":3223,"Ġbron":3224,"Ġjames":3225,"Ġfestival":3226,"premi":3227,"nÃŃ":3228,"Ġ2019":3229,"opl":3230,"kap":3231,"umb":3232,"Ġmessier":3233,"ges":3234,"nologi":3235,"reÄĿ":3236,"Ġboh":3237,"ood":3238,"stra":3239,"Ġangul":3240,"Ġcamp":3241,"ustr":3242,"egy":3243,"Ġrezist":3244,"ĠsÃ¡ndor":3245,"Ġatl":3246,"uson":3247,"Ġ1963":3248,"Ġyo":3249,"ward":3250,"ĠmÃ©":3251,"Ġdub":3252,"Ġmetal":3253,"ĠjosÃ©":3254,"ĠaveraÄĿ":3255,"Ġjoseph":3256,"Ġetik":3257,"Ġrejnlando":3258,"opol":3259,"Ġ1936":3260,"Ġkontakt":3261,"Ġkonflikt":3262,"Ġadv":3263,"ĠmalgraÅŃ":3264,"ÅĽ":3265,"Ġroz":3266,"ÃŃn":3267,"Ġmul":3268,"Ġ1918":3269,"Ġantoni":3270,"Ġram":3271,"Ġring":3272,"Ġkolomb":3273,"ĠmaÅĿ":3274,"ĠbudapeÅĿtan":3275,"Ġdispon":3276,"Ġportugal":3277,"background":3278,"Ġirland":3279,"Ġfikci":3280,"distrikt":3281,"itt":3282,"Ġ1949":3283,"Ġ1953":3284,"renk":3285,"ript":3286,"ola":3287,"aux":3288,"hard":3289,"Ġker":3290,"Ġsekci":3291,"Ġtak":3292,"afoj":3293,"Ġbret":3294,"Ġpord":3295,"Ñĥ":3296,"Ġebli":3297,"anol":3298,"endi":3299,"by":3300,"agn":3301,"Ġ1946":3302,"mos":3303,"Ġga":3304,"Ġstan":3305,"Ġtransilvani":3306,"Ġdezir":3307,"Ġbrut":3308,"Ġsubskrib":3309,"Ġhidr":3310,"Ġ+":3311,"odor":3312,"vel":3313,"rok":3314,"Ġeblig":3315,"uss":3316,"vert":3317,"Ġ1933":3318,"ech":3319,"Ġfinnland":3320,"Ġformal":3321,"arag":3322,"ely":3323,"Ġhand":3324,"Ġond":3325,"eÅĿ":3326,"Ġbak":3327,"Ġspecif":3328,"Ġarag":3329,"rez":3330,"Ã©p":3331,"Ġhout":3332,"Ġkond":3333,"Ġjohannes":3334,"Ġokcit":3335,"ÅŃd":3336,"Ġdung":3337,"Ġspirit":3338,"Ġmm":3339,"Ġrod":3340,"Ġ1955":3341,"cal":3342,"Ġ70":3343,"Ġzw":3344,"Ġpic":3345,"Ġ80":3346,"icht":3347,"Ġkoncentr":3348,"Ġhig":3349,"Ġdim":3350,"Ġlang":3351,"Ġnorv":3352,"ool":3353,"Ġrh":3354,"ĠkuÅĿ":3355,"car":3356,"Ġmax":3357,"Ġprocez":3358,".:":3359,"menaÅŃ":3360,"Ġalp":3361,"Ġalex":3362,"ĠfuÄĿ":3363,"ĠparoÄ¥":3364,"Ġtrop":3365,"Ġorkestr":3366,"din":3367,"Ġtok":3368,"eth":3369,"Ġkonstituci":3370,"Ġhans":3371,"Ġ1961":3372,"Ġstatistik":3373,"Ġtram":3374,"Ġatent":3375,"Ġtrejn":3376,"Ġnul":3377,"Ġtron":3378,"Ġkam":3379,"azon":3380,"Ġ1934":3381,"Ġ1928":3382,"Ġcivil":3383,"Ġkast":3384,"Ã¶n":3385,"Ġveg":3386,"Ġinstituci":3387,"ata":3388,"Ã¡ly":3389,"Ġproces":3390,"aÅŃt":3391,"Ġ38":3392,"Ġvad":3393,"cili":3394,"Ġwolf":3395,"Ġbrit":3396,"Ã¤n":3397,"Ġmy":3398,"Ġpgc":3399,"atemp":3400,"ĠneÅŃ":3401,"Ġlegend":3402,"ze":3403,"Ã³w":3404,"Ġgaleri":3405,"Ġmetropol":3406,"Ġtili":3407,"Ġevang":3408,"Ġinstal":3409,"Ġbomb":3410,"Ã©g":3411,"Ġphil":3412,"Ġseg":3413,"Ġromkatolik":3414,"ju":3415,"Ġlor":3416,"Ġgru":3417,"Î¿":3418,"Ġornam":3419,"Ġib":3420,"orient":3421,"Ġhu":3422,"ĠÅĿose":3423,"Ġ1943":3424,"Ġ1954":3425,"Ð´":3426,"ĠalmenaÅŃ":3427,"Ġ1921":3428,"Ġaleksandr":3429,"zig":3430,"Ġkontinent":3431,"osp":3432,"ujar":3433,"Ã¶rgy":3434,"Ġpedagog":3435,"off":3436,"Ġ1952":3437,"stadt":3438,"Ġmichael":3439,"Ġheb":3440,"Ġ90":3441,"yt":3442,"inger":3443,"Ġruin":3444,"Ġsubspeci":3445,"Ġ150":3446,"Ġpatri":3447,"mo":3448,"oraci":3449,"rec":3450,"ĠÄīili":3451,"Ġ...":3452,"erd":3453,"ÅŁ":3454,"Ñı":3455,"Ġmoz":3456,"Ġ1925":3457,"Ġmotor":3458,"Ġfrekvent":3459,"Ġlukt":3460,"Ġenci":3461,"ions":3462,"wig":3463,"Ġbril":3464,"Ġcap":3465,"asoci":3466,"Ġstudi":3467,"Ġ1942":3468,"Ġmcg":3469,"Ġisland":3470,"rot":3471,"Ġ1932":3472,"Ġfrom":3473,"ilio":3474,"Ġstatu":3475,"Ġnia":3476,"Ġkial":3477,"Ġbelg":3478,"egori":3479,"Ġkandidat":3480,"Ġaugust":3481,"Ġakom":3482,"Ġrud":3483,"Ġminist":3484,"Äĩ":3485,"Ġunuafoj":3486,"los":3487,"oritat":3488,"Ġsituaci":3489,"Ġwalter":3490,"sub":3491,"Ġjug":3492,"arat":3493,"Ġkav":3494,"uti":3495,"Ġ59":3496,"Ġtabul":3497,"cin":3498,"Ġanaliz":3499,"Ġnet":3500,"Ġvas":3501,"Ġkoncert":3502,"periment":3503,"Ġescept":3504,"Ġspekt":3505,"Ġ1937":3506,"Ġhistory":3507,"Ġkompleks":3508,"egr":3509,"ations":3510,"Ġocean":3511,"Ġ1927":3512,"Ġakuz":3513,"Ġken":3514,"Ġlexik":3515,"Ġpatron":3516,"cel":3517,"ke":3518,"Ġinici":3519,"owsk":3520,"Ġslov":3521,"Ġtask":3522,"Ġevit":3523,"Ġgor":3524,"Ġpod":3525,"Ġpp":3526,"Ġteologi":3527,"jet":3528,"ĠÅ¾":3529,"alingv":3530,"amik":3531,"Ġatest":3532,"fil":3533,"Ġps":3534,"ĠÄīampion":3535,"Ġvikt":3536,"Ġsulf":3537,"mit":3538,"arch":3539,"Ġneniu":3540,"Ġ1926":3541,"ita":3542,"Ġhero":3543,"ĠÄīeÄ¥oslovaki":3544,"Ġakompan":3545,"bul":3546,"ordinat":3547,"linear":3548,"Ġhund":3549,"ĠaÅŃtoritat":3550,"orth":3551,"beri":3552,"Ġnaft":3553,"Ġpul":3554,"rav":3555,"ket":3556,"yr":3557,"Ġatribu":3558,"Ġekonom":3559,"sburg":3560,"pti":3561,"Ġlaj":3562,"Ġ1922":3563,"ident":3564,"Ġalianc":3565,"ĠÄīiel":3566,"Ġevangeli":3567,"Ġnig":3568,"Ġtotal":3569,"Ġkonstant":3570,"Ġunuop":3571,"Ġderiv":3572,"Ġastr":3573,"Ġtav":3574,"Ġaltern":3575,"oslav":3576,"Ġfaz":3577,"Ġprotest":3578,"Ġhuman":3579,"arg":3580,"Ġgran":3581,"emoni":3582,"Ġhelen":3583,"Ġabat":3584,"Ġ1912":3585,"Ã¡m":3586,"ĠÄīiujar":3587,"Ġ1935":3588,"Ġeksplod":3589,"eschicht":3590,"ax":3591,"obred":3592,"Ġ1951":3593,"jo":3594,"rum":3595,"Ġ1931":3596,"yd":3597,"Ġue":3598,"usz":3599,"Ġmajor":3600,"ÃŃt":3601,"ĠeÅŃr":3602,"Ġschool":3603,"Ġprogres":3604,"ĠaÅŃtonom":3605,"Ġintenc":3606,"soci":3607,"Ġmens":3608,"okcident":3609,"Ġkarbon":3610,"Ġ1914":3611,"hu":3612,"uÄµ":3613,"Ġpej":3614,"Ġmom":3615,"itim":3616,"Ġadapt":3617,"Ġgreg":3618,"Ġhenry":3619,"Ġkaliforni":3620,"hÃ¡z":3621,"Ġorn":3622,"Ġ1924":3623,"ĠÂ½":3624,"Ã©z":3625,"Ġbronz":3626,"Ġtropik":3627,"Ġsab":3628,"Ġkunig":3629,"oid":3630,"ĠâĢ¢":3631,"Ġoliv":3632,"viv":3633,"ÄĿent":3634,"ingi":3635,"Ġteknologi":3636,"cher":3637,"Ġroj":3638,"ii":3639,"mov":3640,"Ġiv":3641,"opt":3642,"Ġdekliv":3643,"Ġdialekt":3644,"ales":3645,"Ġmen":3646,"ana":3647,"Ġjardek":3648,"Ġnormal":3649,"Ġmagnet":3650,"Ġteks":3651,"Ġstatus":3652,"Ġkultiv":3653,"Ġministeri":3654,"Ġekonomik":3655,"port":3656,"ĠmalantaÅŃ":3657,"post":3658,"ony":3659,"omen":3660,"Ġced":3661,"Ġkok":3662,"Ġkoordinat":3663,"Ġsonor":3664,"Ġfred":3665,"Ġpierr":3666,"lor":3667,"ĠÃ¶":3668,"Ġmatur":3669,"Ġnep":3670,"Ġszab":3671,"Ġtar":3672,"Ġchristi":3673,"hist":3674,"oat":3675,"Ġbet":3676,"nc":3677,"oth":3678,"fest":3679,"tra":3680,"Ġinc":3681,"Ġekologi":3682,"Ġ1923":3683,"gest":3684,"hisp":3685,"och":3686,"Ġkonkur":3687,"Ġgotik":3688,"])":3689,"Ã¤r":3690,"Ġpubli":3691,"Ġdud":3692,"Ã©sz":3693,"Ġdistribu":3694,"Ġkapit":3695,"Ġsec":3696,"Ġokcitan":3697,"Ġmalpli":3698,"Ġpreleg":3699,"ÅĤaw":3700,"Ġlam":3701,"Ġdetal":3702,"Ġfeli":3703,"Ġbiologi":3704,"Ġgreki":3705,"Ġ#":3706,"ensi":3707,"adi":3708,"Ġabund":3709,"Ġkomision":3710,"ãĥ":3711,"onal":3712,"Ġglaci":3713,"Ġpest":3714,"ultat":3715,"2006":3716,"ÏĦ":3717,"Ġekst":3718,"Ġeksperiment":3719,"Ġmarc":3720,"Ġgrafik":3721,"ugh":3722,"Ġhenrik":3723,"Ġfu":3724,"obredad":3725,"Ġedu":3726,"azz":3727,"ĠaÅŃtom":3728,"oper":3729,"Ġmaks":3730,"Ġgab":3731,"ogi":3732,"Ġturki":3733,"Ġ1907":3734,"Ġdemografi":3735,"ital":3736,"Ġfac":3737,"raj":3738,"mond":3739,"Ġdig":3740,"Ġdors":3741,"ull":3742,"ĠlanÄī":3743,"vil":3744,"okat":3745,"but":3746,"kci":3747,"vol":3748,"esanc":3749,"anti":3750,"Ġportret":3751,"Å¡t":3752,"ÅĦsk":3753,"Ġfern":3754,"Ġcre":3755,"Ã¼l":3756,"Ġluter":3757,"fekt":3758,"taÄµ":3759,"haus":3760,"Ġ1900":3761,"Ġ300":3762,"ÅĪ":3763,"ings":3764,"endar":3765,"las":3766,"Ġmand":3767,"Ġrein":3768,"Ġprefiks":3769,"Ġphili":3770,"damn":3771,"ĠÄīeval":3772,"Ġ35":3773,"Ġinsekt":3774,"del":3775,"Ġmig":3776,"Ġbos":3777,"aciÃ³":3778,"Ġsklav":3779,"Ġadminist":3780,"Ġfiks":3781,"bet":3782,"ifik":3783,"sg":3784,"Ġcin":3785,"Ġunun":3786,"Ġfrancisk":3787,"amenhof":3788,"zaÄĿ":3789,"Ġaus":3790,"Ġvag":3791,"2000":3792,"ĠtaÅŃg":3793,"Ġorgen":3794,"Ġalud":3795,"kant":3796,"nord":3797,"Ġvulkan":3798,"ĠpaÅŃl":3799,"Äīef":3800,"Ġkondamn":3801,"Ġparal":3802,"Ġ1911":3803,"\").":3804,"Ġgitar":3805,"iÄī":3806,"part":3807,"Ġbiz":3808,"Ġfrap":3809,"Ġkontrast":3810,"Ġsag":3811,"Ġmeg":3812,"Ð¼":3813,"ebr":3814,"ektor":3815,"Ġskol":3816,"isi":3817,"region":3818,"Ġfranz":3819,"Ġserb":3820,"espond":3821,"mun":3822,"Ġfarm":3823,"Ġfakultat":3824,"Ġegipt":3825,"gl":3826,"Â«":3827,"Ġhotel":3828,"ĠpejzaÄĿ":3829,"md":3830,"Ġsinjor":3831,"Ġbelor":3832,"ischer":3833,"Ġkot":3834,"ĠnaÅŃ":3835,"Ġteg":3836,"udi":3837,"ty":3838,"Ġjakob":3839,"ban":3840,"Ġlen":3841,"Ġneu":3842,"Ġdonac":3843,"Ġsubstanc":3844,"Ġlad":3845,"Ġoficir":3846,"Ġ1908":3847,"Ġbotanik":3848,"teri":3849,"Ġparenc":3850,"Ġmeta":3851,"Ã³r":3852,"Ġbach":3853,"Ġstef":3854,"Ġzamenhof":3855,"Ġmitologi":3856,"Ġkup":3857,"Ġkis":3858,"2005":3859,"Ġmajstr":3860,"Ġrimed":3861,"Ð¾Ð²":3862,"].":3863,"ca":3864,"ine":3865,"ovsk":3866,"df":3867,"tem":3868,"ÏĤ":3869,"Ġkaval":3870,"Ġ1913":3871,"ovÃ¡":3872,"ĠpaÅĿ":3873,"Ġober":3874,"ĠÄīap":3875,"clopedi":3876,"hal":3877,"Ġhos":3878,"Ġwat":3879,"Ġfrancisc":3880,"Ġbelgi":3881,"Ġhabitat":3882,"iri":3883,"olid":3884,"eÅŃ":3885,"pk":3886,"Ġrub":3887,"Ġklin":3888,"Ġkolon":3889,"ĠfranÃ§a":3890,"xic":3891,"ĠkomponaÄµ":3892,"eal":3893,"ix":3894,"ĠarÄĿent":3895,"imologi":3896,"ĠÄīirkaÅŃaÄµ":3897,"ven":3898,"Ø§":3899,"gn":3900,"stin":3901,"Ġhall":3902,"Ġ1917":3903,"Ġ500":3904,"Ġarkeologi":3905,"Ð¹":3906,"ular":3907,"Ġjr":3908,"oll":3909,"Ã©m":3910,"Ġzur":3911,"Ġmay":3912,"Ġgant":3913,"ĠkluÄµ":3914,"bra":3915,"Ġ(=":3916,"ĠÄµet":3917,"Ġkondut":3918,"Ġnit":3919,"etil":3920,"Ġsvedi":3921,"Ġrenesanc":3922,"ĠgyÃ¶rgy":3923,"Ġheinrich":3924,"arz":3925,"ops":3926,"rin":3927,"Î¹":3928,"Ġsy":3929,"Ġvo":3930,"Ġteren":3931,"Ġberl":3932,"Ġekstrem":3933,"Ġsugest":3934,"Ġbenz":3935,"Ġkonfirm":3936,"ain":3937,"Ġlov":3938,"Ġnan":3939,"Ġhebre":3940,"etik":3941,"ÅĻÃŃ":3942,"Ġpak":3943,"Ġprob":3944,"Ġetimologi":3945,"Ġvalid":3946,"Ġlitovi":3947,"dan":3948,"muz":3949,"Ġwest":3950,"Ġkriz":3951,"Î½":3952,"Ġdun":3953,"Ġhan":3954,"Ġkomedi":3955,"Ã¡rol":3956,"Ġ1906":3957,"Ġtoled":3958,"Ġbell":3959,"ogen":3960,"Ġekzamen":3961,"Ġsoveti":3962,"Ġinspir":3963,"put":3964,"Ġandal":3965,"fr":3966,"mort":3967,"Ãª":3968,"Ġglob":3969,"Ġportugali":3970,"do":3971,"Ġteolog":3972,"obi":3973,"Ġdos":3974,"Ġkonvert":3975,"Ġprint":3976,"pag":3977,"Ġunik":3978,"Ġbirds":3979,"Ġmoral":3980,"Ġbrutobredad":3981,"\"),":3982,"Å«":3983,"Ã¡cs":3984,"azaÅŃ":3985,"ĠtranÄī":3986,"eu":3987,"Ġlep":3988,"ĠÅĿak":3989,"ĠÃ¼":3990,"Ġkopi":3991,"Ġslav":3992,"Ã©d":3993,"Ġrio":3994,"Ġeurop":3995,"aff":3996,"Ġgyul":3997,"Ġtu":3998,"Ġtub":3999,"Ġarn":4000,"fam":4001,"Ġhind":4002,"Ã¶s":4003,"ipzig":4004,"Ġegipti":4005,"emble":4006,"Ġald":4007,"âĢĿ,":4008,"Ã¡roly":4009,"tur":4010,"Ġfur":4011,"Ġagl":4012,"Ġiniciat":4013,"hom":4014,"2007":4015,"mez":4016,"Ġapost":4017,"Ġblazon":4018,"2003":4019,"ĠÄµus":4020,"eÄĿ":4021,"Ġsing":4022,"Ġbudh":4023,"ridg":4024,"Ġadministraci":4025,"Ġununur":4026,"pen":4027,"Ġluc":4028,"eyer":4029,"Ġmeti":4030,"Ġduoninsul":4031,"ĠrifuÄĿ":4032,"Ġplum":4033,"Ġprim":4034,"Ġonte":4035,"Ġrur":4036,"gr":4037,"erb":4038,"Ġzs":4039,"Ġtroj":4040,"ĠreÄĿim":4041,"aliforni":4042,"lÃ³s":4043,"ets":4044,"Ġzo":4045,"Ġvide":4046,"Ġ1905":4047,"vig":4048,"Ġeric":4049,"Ġklav":4050,"Ġsenat":4051,"aragoz":4052,"Ġkard":4053,"Ġpad":4054,"Ñĭ":4055,"Ġfel":4056,"Ġturingi":4057,"Ġanglalingv":4058,"ncf":4059,"vey":4060,"Ġpse":4061,"Ġmend":4062,"japan":4063,"eum":4064,"ankaÅŃ":4065,"alem":4066,"Ġkategori":4067,"Ġestrar":4068,"Ġasemble":4069,"Ġbrand":4070,"Ġbapt":4071,"ejn":4072,"izod":4073,"flank":4074,"ental":4075,"Ïģ":4076,"Ġott":4077,"Ġsop":4078,"Ġstra":4079,"ĠÄ¥or":4080,"ĠnaskiÄĿurb":4081,"ĠÄīio":4082,"pu":4083,"rek":4084,"raÄĿ":4085,"ĠÄĿem":4086,"Ġnovel":4087,"Ġkonsci":4088,"Ġhaute":4089,"Ġviolon":4090,"Ġarist":4091,"anz":4092,"fat":4093,"Ġnar":4094,"2001":4095,"movad":4096,"eul":4097,"Ġarch":4098,"Ġrob":4099,"Ġprofit":4100,"Ġlastatemp":4101,"prov":4102,"iliz":4103,"Åĳr":4104,"Ġdiskut":4105,"je":4106,"Ġdal":4107,"Ġlakt":4108,"Ġkad":4109,"ogn":4110,"Ġkrime":4111,"schaft":4112,"Ġdezert":4113,"05":4114,"Ġhit":4115,"urgi":4116,"Ġkastilio":4117,"Ġsenc":4118,"Ġkler":4119,"hely":4120,"Ġkorespond":4121,"Ġtavol":4122,"Ġvis":4123,"Ġstabil":4124,"Ġburgonj":4125,"ĠÃ":4126,"Ġeta":4127,"Ġproklam":4128,"edici":4129,"mir":4130,"Ġstein":4131,"Ġevident":4132,"Ġarkiv":4133,"Ġkrur":4134,"aÅŃn":4135,"Ġminut":4136,"maritim":4137,"Ġkalvin":4138,"âĢĿ.":4139,"Ġefektiv":4140,"Ġcat":4141,"ida":4142,"utt":4143,"Ġprobabl":4144,"ih":4145,"pres":4146,"Ġsabl":4147,"Ġbed":4148,"Ġdiv":4149,"ried":4150,"Ġgil":4151,"ĠÅĿuld":4152,"ĠkvazaÅŃ":4153,"Ġkolegi":4154,"Ġ84":4155,"ĠmarÅĿ":4156,"Ġrifuz":4157,"ĠtuÅĿ":4158,"Ġliv":4159,"uskript":4160,"ĠÄīiutag":4161,"vaj":4162,"Ġ32":4163,"Ġsenjor":4164,"iterane":4165,"icz":4166,"Ġfrankfurt":4167,"Ġviktim":4168,"eir":4169,"ĪĴ":4170,"lit":4171,"ovik":4172,"Ã¡bor":4173,"Ġcifer":4174,"Ġkanon":4175,"Ġpaper":4176,"Ġdolar":4177,"Ġbernard":4178,"pital":4179,"Ġomar":4180,"asz":4181,"Ġaprob":4182,"Ġedward":4183,"ĠmaÅĿin":4184,"ĠbÃ©l":4185,"dal":4186,"ino":4187,"Ġerfurt":4188,"Ġmunken":4189,"2002":4190,"iat":4191,"inal":4192,"Ġanarki":4193,"Ġstal":4194,"Ġ1848":4195,"obil":4196,"Ġadvokat":4197,"Ġcu":4198,"Ġraj":4199,"hungari":4200,"Ġ1903":4201,"gart":4202,"ney":4203,"Ġunesk":4204,"Ġagent":4205,"Ġblack":4206,"Ġkolombi":4207,"okr":4208,"Ġepizod":4209,"Ġmoment":4210,"air":4211,"ĠÑģ":4212,"kle":4213,"Ġfremd":4214,"tak":4215,"Ġmilan":4216,"Ġseb":4217,"Ġbit":4218,"ametr":4219,"Ġspez":4220,"upt":4221,"Ġ1909":4222,"ja":4223,"rans":4224,"Ġwith":4225,"klor":4226,"da":4227,"ÄĻ":4228,"ometri":4229,"Ġguid":4230,"Ġperfort":4231,"ajs":4232,"Ġese":4233,"ÃŃr":4234,"Ġdiet":4235,"Ġimr":4236,"Ġfajr":4237,"bas":4238,"Ġsw":4239,"Ġadopt":4240,"Ġmanuskript":4241,"ms":4242,"nÃ¡":4243,"Ġfun":4244,"oss":4245,"Ġesenc":4246,"Ġcons":4247,"Ġhumid":4248,"Å¼":4249,"Ġdur":4250,"Ġalun":4251,"andi":4252,"Ġpartner":4253,"odoks":4254,"oir":4255,"Ġera":4256,"Ġadres":4257,"olitik":4258,"Ã¨s":4259,"esperant":4260,"Ġsevil":4261,"ĠÄµur":4262,"saint":4263,"fort":4264,"sek":4265,"ikl":4266,"Ġzaragoz":4267,"Ġmediterane":4268,"Ġinvit":4269,"jetnam":4270,"dom":4271,"Ġroy":4272,"Ġkonsek":4273,"sterdam":4274,"Ġjup":4275,"Ġsl":4276,"ĠarÄ¥":4277,"Ġtraf":4278,"Ġludwig":4279,"Ġox":4280,"ĠkÃ¡roly":4281,"ĠÃł":4282,"Ġmold":4283,"oi":4284,"ÄĿer":4285,"lif":4286,"ronik":4287,"ÑģÐº":4288,"gel":4289,"ku":4290,"Ġfili":4291,"Ġizol":4292,"mid":4293,"Ġfem":4294,"ĠmarÄī":4295,"Ġaragon":4296,"Ġjon":4297,"anat":4298,"Ġbov":4299,"row":4300,"igen":4301,"áĥ":4302,"ĠpÃ¡l":4303,"aÅŃd":4304,"Ġleipzig":4305,"angul":4306,"Ġveneci":4307,"Ã¼ck":4308,"Ġludovik":4309,"Ġdent":4310,"skÃ¡":4311,"Ġmineral":4312,"1999":4313,"buch":4314,"Ġve":4315,"Ġanat":4316,"Ġamator":4317,"Ġtrem":4318,"last":4319,"elier":4320,"Ġkalendar":4321,"ekul":4322,"elit":4323,"Ġmerkat":4324,"anh":4325,"Ġency":4326,"alist":4327,"ict":4328,"Ġtalent":4329,"Ġdor":4330,"Ġpion":4331,"Ġbil":4332,"Ġbred":4333,"Ġatend":4334,"Ġmagn":4335,"Ġmichel":4336,"Ġ1915":4337,"ĠmarÃŃ":4338,"eged":4339,"bibli":4340,"Ġmakul":4341,"Ġliver":4342,"Ġstok":4343,"Ġekzekut":4344,"Ġoperaci":4345,"01":4346,"Ã¶l":4347,"Ġkore":4348,"Ġpacifik":4349,"ts":4350,"Ġcentral":4351,"Ġargument":4352,"Ġlatin":4353,"Ġhon":4354,"Ġcamb":4355,"Ġrav":4356,"Ġintelekt":4357,"Ġ1904":4358,"sim":4359,"zan":4360,"Ã«":4361,"alit":4362,"Ġekzil":4363,"Ġvirt":4364,"islav":4365,"far":4366,"ĠmÃ¼n":4367,"onomi":4368,"Ġted":4369,"Ġry":4370,"Ġsens":4371,"Ġekspedici":4372,"acetat":4373,"kurs":4374,"sv":4375,"Ġaut":4376,"its":4377,"usalem":4378,"Ġchi":4379,"Å¯":4380,"rud":4381,"Ġtendenc":4382,"Ġvaj":4383,"etz":4384,"ezuel":4385,"Ġanimal":4386,"Ġzwg":4387,"Ġprintemp":4388,"gang":4389,"Ġpilk":4390,"Ã©tÃ©":4391,"Ġhigh":4392,"foni":4393,"klud":4394,"Ġfasad":4395,"Ġgv":4396,"Ġparad":4397,"rond":4398,"Äīe":4399,"Ġskal":4400,"Ġkavalir":4401,"hem":4402,"Ġortodoks":4403,"Ġhamburg":4404,"Ġkim":4405,"Ġvjetnam":4406,"Ġkonferenc":4407,"Ġpred":4408,"Ġ2022":4409,"eur":4410,"1945":4411,"tv":4412,"Ġtrink":4413,"06":4414,"pur":4415,"Ã¡nd":4416,"Ġjacques":4417,"Ġbohemi":4418,"Ġjugoslav":4419,"gal":4420,"irch":4421,"Ġintens":4422,"Ġimpost":4423,"Ġtestament":4424,"kod":4425,"Ġbuk":4426,"Ġgold":4427,"Ġ1899":4428,"oviÄī":4429,"Ġfand":4430,"tek":4431,"pret":4432,"Ġzurik":4433,"ÑĮ":4434,"ensch":4435,"Ġapostol":4436,"Ġamsterdam":4437,"Ġdell":4438,"hispan":4439,"ahr":4440,"Ġhindi":4441,"Ġhospital":4442,"prononc":4443,"Ġ33":4444,"loÄĿ":4445,"Ġripoz":4446,"Ġjerusalem":4447,".).":4448,"so":4449,"Ñĩ":4450,"Ġgent":4451,".):":4452,"nig":4453,"odend":4454,"Ġgener":4455,"pent":4456,"Ġ<":4457,"isz":4458,"2020":4459,"Ġpav":4460,"Ġsurvey":4461,"Ġformul":4462,"ker":4463,"Ġperu":4464,"redr":4465,"ĠfranÃ§o":4466,"moni":4467,"Ġverb":4468,"Ġ1902":4469,"Ġkomisi":4470,"Ġparalel":4471,"Ġkob":4472,"Ġilustr":4473,"Ġtrag":4474,"ÑĢÐ°":4475,"Ġkontrakt":4476,"oter":4477,"1997":4478,".),":4479,"jun":4480,"sam":4481,"Ġbaden":4482,"ĠÏ":4483,"Ġlomb":4484,"Ġpek":4485,"ĠgÃ¶":4486,"over":4487,"2008":4488,"ines":4489,"raf":4490,"omer":4491,"Ġgren":4492,"ĠÄįesk":4493,"komun":4494,"Ġbis":4495,"ister":4496,"osh":4497,"ĠaÅŃtovoj":4498,"olibr":4499,"nÃ©":4500,"Ġgeh":4501,"Ġbasen":4502,"Ġdaniel":4503,"rap":4504,"abel":4505,"Ġcoll":4506,"html":4507,"Ġsiri":4508,"iller":4509,"Ġmanifest":4510,"Ġfraz":4511,"Ġalfred":4512,"Ġjoz":4513,"olin":4514,"ĠÅĿar":4515,"Ġhenr":4516,".;":4517,"mel":4518,"Ġmild":4519,"Ġtank":4520,"Ġberg":4521,"kel":4522,"Ġaj":4523,"Ġgeschicht":4524,"rost":4525,"burgi":4526,"Ġatlantik":4527,"Ñĸ":4528,"Ġalg":4529,"rang":4530,"Ġfenomen":4531,"Ġfend":4532,"ĠÄīen":4533,"Ġintel":4534,"Ġbrust":4535,"ng":4536,"Ġwill":4537,"jara":4538,"Ġgramatik":4539,"Ġeduard":4540,"jon":4541,"kong":4542,"omuz":4543,"libr":4544,"Ġsierr":4545,"Ġ52":4546,"Ġklasifik":4547,"Ġpionir":4548,"Ġess":4549,"Ġ36":4550,"aÅŃgur":4551,"sal":4552,"ãĤ":4553,"Ġsac":4554,"Ġ120":4555,"Ġvlad":4556,"lim":4557,"ĠkuraÄĿ":4558,"inst":4559,"Ã¨res":4560,"oltÃ¡":4561,"ail":4562,"Ġtop":4563,"Ġadam":4564,"Ġsimetri":4565,"Ġnas":4566,"Ġbarb":4567,"Ġmoder":4568,"1998":4569,"Ġalternativ":4570,"ves":4571,"roc":4572,"Ġetil":4573,"ÃŃk":4574,"âĢľ.":4575,"Ġpast":4576,"Ġrem":4577,"ekd":4578,"Ġerd":4579,"Ġfalk":4580,"Ġingrid":4581,"Ġ).":4582,"Ġmure":4583,"omo":4584,"Ġhug":4585,"Ġintegr":4586,"ĠsociÃ©tÃ©":4587,"grim":4588,"Ġodor":4589,"Ġbart":4590,"Ġanas":4591,"rast":4592,"Ġerar":4593,"03":4594,"mÃ¡":4595,"Ġfol":4596,"Ġliberal":4597,"1995":4598,"hm":4599,"hn":4600,"Ġpros":4601,"acet":4602,"Ġaten":4603,"ther":4604,"ĠpseÅŃd":4605,"ai":4606,"Ġfok":4607,"Ġvat":4608,"Ġvesper":4609,"ami":4610,"Ġtrian":4611,"Ġflankovoj":4612,"Ġripet":4613,"ĠfaÅŃn":4614,"iner":4615,"ĠinaÅŃgur":4616,"Ġraci":4617,"Ġjournal":4618,"08":4619,"bud":4620,"Ġmang":4621,"Ġhend":4622,"Ġgeologi":4623,"ylexik":4624,"Ġfrag":4625,"Ġnagylexik":4626,"dinand":4627,"arab":4628,"Ġhaj":4629,"Ġgir":4630,"ruz":4631,"ters":4632,"apor":4633,"Ġrot":4634,"Ġkarn":4635,"Ġcornel":4636,"fic":4637,"ãģ":4638,"Ġmid":4639,"Ġvig":4640,"Ġvenezuel":4641,"Ġ1901":4642,"Ġmarsrenk":4643,"ĠpÃ©ter":4644,"07":4645,"Ġveter":4646,"Ġ46":4647,"konte":4648,"Â»,":4649,"tam":4650,"Ġreson":4651,"Ã¢r":4652,"ĠszabÃ³":4653,"Ġdudek":4654,"cc":4655,"ko":4656,"Ġfanta":4657,"Ġalm":4658,"enti":4659,"Ġiomet":4660,"Ġnukle":4661,"04":4662,"my":4663,"Ġbay":4664,"Ġmusic":4665,"paÃ±":4666,"rels":4667,"enh":4668,"plej":4669,"zeland":4670,"Ġbag":4671,"Ġ34":4672,"Ġresonanc":4673,"',":4674,"09":4675,"grup":4676,"Ġdestin":4677,"istan":4678,"imir":4679,"Ġposteul":4680,"Ġaparat":4681,"klopedi":4682,"Ġanders":4683,"1990":4684,"Ġ1896":4685,"Ġjozef":4686,"Ġenket":4687,"Ġhaz":4688,"kiu":4689,"pom":4690,"Ġmastr":4691,"zer":4692,"hÃ¡ly":4693,"Ġkop":4694,"Ġunuig":4695,"Ġpard":4696,"Ġskot":4697,"ĠÃ©let":4698,"Ġtat":4699,"Ġhay":4700,"Ġgott":4701,"ile":4702,"emein":4703,"02":4704,"hen":4705,"vju":4706,"Ġinterpret":4707,"Ġmong":4708,"Ġnormandi":4709,"Ġprusi":4710,"ĠnaÄĿ":4711,"aÅŃli":4712,"Ġinstig":4713,"jaraÄĿ":4714,"Ġtribun":4715,"oman":4716,"Ġrar":4717,"Ġimag":4718,"ËĪ":4719,"Ġtabl":4720,"okon":4721,"Ġgol":4722,"Ġlif":4723,"Ġfenil":4724,"dy":4725,"Äīkonte":4726,"Ġ37":4727,"Ġ1898":4728,"eta":4729,"sid":4730,"Ġredukt":4731,"Ġ1890":4732,"Ġkurb":4733,"Ġjosef":4734,"temberg":4735,"tri":4736,"Ð±":4737,"à¸":4738,"Ġpir":4739,"Ġ..":4740,"2009":4741,"1992":4742,"ĠvizaÄĿ":4743,"Ġceremoni":4744,"Ä«":4745,"Ġkle":4746,"Ġminas":4747,"Ġkonfuz":4748,"Ġsociety":4749,"Ġnikola":4750,"Ġphilipp":4751,"fen":4752,"tes":4753,"Ã¸":4754,"Ġrel":4755,"asm":4756,"ĠâĢł":4757,"Ġchemins":4758,"ĠÃ¼ber":4759,"Ġbaj":4760,"ekta":4761,"ĠÅĿlos":4762,"Ġtrajt":4763,"Ġ42":4764,"Ġopozici":4765,"ĠÅĿtup":4766,"ĠanstataÅŃig":4767,"Ġmetrostaci":4768,"Ġsatelit":4769,"ĠvÃ¡r":4770,"icikl":4771,"Ġeti":4772,"Ġ[],":4773,"usi":4774,"Ġful":4775,"Ġadolf":4776,"ĠÅĿaf":4777,"ĠespaÃ±":4778,"Ġsubter":4779,"Ġhidrogen":4780,"Ġarbust":4781,"kompon":4782,"Ġnorvegi":4783,"Ġkord":4784,"Ġkaf":4785,"epp":4786,"ÄĿerajs":4787,"âĪĴ":4788,"Ġduobl":4789,"Ġ1895":4790,"Ġmut":4791,"Ġmuel":4792,"Ġbast":4793,"Ġ1916":4794,"ĠkuniÄĿ":4795,"Ġoxford":4796,"fried":4797,"Ġkanc":4798,"Ġ(),":4799,"Ġgig":4800,"dl":4801,"Äħ":4802,"Ġtw":4803,"ovann":4804,"Ġ39":4805,"Ã©ly":4806,"Ġnaz":4807,"Ġves":4808,"ĠvÃ¡":4809,"Ġurs":4810,"Ġ400":4811,"Ġdisput":4812,"Ġpartoprenant":4813,"Ġpersekut":4814,"chi":4815,"Ãºj":4816,"franci":4817,"Ġlav":4818,"ĠneÄĿ":4819,"Ġpreter":4820,"Ġintervju":4821,"Ġkarol":4822,"1996":4823,"ekzempl":4824,"avic":4825,"Ġpredik":4826,"ĠengaÄĿ":4827,"Ġgehrels":4828,"wi":4829,"Ġbert":4830,"Ġkoment":4831,"ĠzoltÃ¡":4832,"Ġferdinand":4833,"1994":4834,"ĠÐ¿":4835,"Ġcatal":4836,"tic":4837,"ala":4838,"Ġromantik":4839,"1989":4840,"âĢľ,":4841,"Ġfernand":4842,"olc":4843,"amerik":4844,"Ġdiametr":4845,"Ġdisig":4846,"Ġkiom":4847,"âĢĶ":4848,"ozs":4849,"166":4850,"zor":4851,"Ġpedr":4852,"itani":4853,"eller":4854,"Ġrezign":4855,"mod":4856,"ĠÃ¡l":4857,"Ġauf":4858,"Ġkab":4859,"umen":4860,"ski":4861,"Ġharmoni":4862,"Ġernst":4863,"Ġion":4864,"Ġbab":4865,"Ġsubt":4866,"nederland":4867,"tÃ©":4868,"voj":4869,"ejl":4870,"Ġfizi":4871,"Ġperfekt":4872,"Ġgabri":4873,"gs":4874,"virtemberg":4875,"Ġrudolf":4876,"ĠpuÅĿ":4877,"Ġkata":4878,"Ġhun":4879,"bord":4880,"Ġeug":4881,"liter":4882,"eco":4883,"1991":4884,"Ġpsikologi":4885,"Ġbend":4886,"abor":4887,"Ġeliz":4888,"ektakl":4889,"uat":4890,"Äīer":4891,"Ġcler":4892,"Ġoksigen":4893,"Ð³":4894,"Ġking":4895,"anÄī":4896,"rey":4897,"Ġanhid":4898,"Ġrat":4899,"âĢ²":4900,"âĢĭ":4901,"Ġserbi":4902,"Â».":4903,"Ġ...,":4904,"mas":4905,"Ġlac":4906,"inari":4907,"ĠcÃ´":4908,"Ġdekret":4909,"Ġsmith":4910,"jam":4911,"onezi":4912,"Ġaks":4913,"Ġfinal":4914,"Ġkorn":4915,"Ġpensi":4916,"Ġpilgrim":4917,"ĠgroÃŁ":4918,"alb":4919,"Ġekoregion":4920,"Ġdufoj":4921,"Ġincendi":4922,"Ġlem":4923,"entur":4924,"Ġ48":4925,"Ġgeneraci":4926,"eÅ¡":4927,"Ġaltar":4928,"antaÄĿ":4929,"ae":4930,"hur":4931,"sncf":4932,"Õ¡":4933,"Ġmoh":4934,"one":4935,"Ġbiograph":4936,"Ġ600":4937,"Ġartef":4938,"Ġenciklopedi":4939,"Ġakord":4940,"Ġpalm":4941,"nt":4942,"oÄĿ":4943,"vern":4944,"wer":4945,"Ġanton":4946,"Ġalexander":4947,"kaliforni":4948,"mik":4949,"mari":4950,"sil":4951,"Ġugc":4952,"Ġwag":4953,"Ġgiovann":4954,"enev":4955,"ÅĿton":4956,"Ġ1894":4957,"Äīipl":4958,"eer":4959,"Ġoran":4960,"Ġinund":4961,"Îµ":4962,"Ġgvad":4963,"Äīment":4964,"Ġpropag":4965,"field":4966,"Ġtabel":4967,"histori":4968,"Ġmaksimum":4969,"Ð·":4970,"Ġsap":4971,"Ġkarp":4972,"Ġegy":4973,"Ġtul":4974,"oge":4975,"1993":4976,"ĠÐ²":4977,"Ġrecord":4978,"Ġmic":4979,"anism":4980,"Ġkvalit":4981,"ĠdisÄīipl":4982,"Ġharry":4983,"Ġsaksio":4984,"Ġmekanik":4985,"lar":4986,"Ġnorth":4987,"Ġgon":4988,"Ġzam":4989,"Ġblok":4990,"ederaci":4991,"Ġakvitani":4992,"Ġhabsburg":4993,"Ġprovizor":4994,"rajz":4995,"Î»":4996,"Ġsubpre":4997,"Ġ55":4998,"Ġmoravi":4999,"aÅĿingt":5000,"ota":5001,"Ġrek":5002,"Ġbier":5003,"Ġkonsult":5004,"afrik":5005,"Ġluci":5006,"vine":5007,"Ġkulp":5008,"Ġtrud":5009,"Ġsignal":5010,"Ġpropagand":5011,"lok":5012,"Ġbicikl":5013,"ĠhaÅŃt":5014,"ekci":5015,"endorf":5016,"bek":5017,"Ġsalt":5018,"Ġbeat":5019,"bad":5020,"Ġstep":5021,"Ġ1887":5022,"Ġanhidrid":5023,"Ġstart":5024,"akesp":5025,"Ġgeometri":5026,"Ġluks":5027,"ga":5028,"Ġnem":5029,"Ġspektakl":5030,"Ġ[]":5031,"ĠpaÅĿt":5032,"Ġkonvink":5033,"des":5034,"Ġaust":5035,"Ġlibro":5036,"roman":5037,"ÑģÑĤ":5038,"Ġciviliz":5039,"Ġpozitiv":5040,"Ġalfons":5041,"Ġkroati":5042,"hodiaÅŃ":5043,"lud":5044,"Ġlaz":5045,"ray":5046,"Ġcab":5047,"ĠÄĿu":5048,"Ġung":5049,"Ġkapital":5050,"Ġinvest":5051,"akespear":5052,"Ã¦":5053,"Ġup":5054,"irk":5055,"Ġofert":5056,"Ġ1897":5057,"Ġmikr":5058,"Ġpedagogi":5059,"Ã¡j":5060,"Ã¶ld":5061,"Ġtaka":5062,"Ġfair":5063,"ikt":5064,"wood":5065,"Ġventr":5066,"cion":5067,"Ð°Ð½":5068,"Ġ1889":5069,"stem":5070,"Ġtez":5071,"Ġanti":5072,"sky":5073,"ĠmiklÃ³s":5074,"Ġbizanc":5075,"vor":5076,"Ġrekom":5077,"chen":5078,"ilik":5079,"Ġakci":5080,"Ã¡rt":5081,"ĠbuÅĿ":5082,"ĠfeliÄī":5083,"Ġandaluzi":5084,"bb":5085,"otag":5086,"vent":5087,"Ġvitr":5088,"Ġhy":5089,"ily":5090,"brun":5091,"Ġindi":5092,"ĠtaÄīment":5093,"Ġnicol":5094,"Ġpublish":5095,"ĠaÅŃtomobil":5096,"100":5097,"iag":5098,"Ġji":5099,"Ġell":5100,"Ġkonsum":5101,"Ġdebut":5102,";\"|":5103,"leb":5104,"Ġvinc":5105,"Ġpokal":5106,"uman":5107,"Ġelektronik":5108,"loir":5109,"ĠÅĿarÄĿ":5110,"eti":5111,"Ã³l":5112,"ahar":5113,"ÑĨ":5114,"Ġ1000":5115,"ĠsieÄĿ":5116,"ĠÄĿenr":5117,"muzik":5118,"ĠÃ¡r":5119,"andri":5120,"ĠavantaÄĿ":5121,"ĠgorÄĿ":5122,"Ġcambridg":5123,"lÃ©":5124,"ares":5125,"Ġmalaj":5126,"bru":5127,"mart":5128,"peter":5129,"ĠtÃ¶r":5130,"ĠgÃ¡bor":5131,"termin":5132,"Ġsimfoni":5133,"Ġmia":5134,"ĠmalpliiÄĿ":5135,"Ġbelorus":5136,"Ġmikroregion":5137,"mund":5138,"ĠØ":5139,"ĠâĨ":5140,"unkt":5141,"aÄĿer":5142,"Ġ75":5143,"ĠÐ¼":5144,"Ġacad":5145,"Ġkontinu":5146,"Ġsloven":5147,"ych":5148,"Ġah":5149,"enic":5150,"ina":5151,"Ġkolektiv":5152,"htm":5153,"Ã´n":5154,"Ġmotiv":5155,"vard":5156,"Ġcy":5157,"Ġszeged":5158,"Ġambasad":5159,"Ġgregori":5160,"\":":5161,"Ġals":5162,"egul":5163,"Ġ47":5164,"illy":5165,"Ġmodif":5166,"Ġkapitan":5167,"jev":5168,"Ġhier":5169,"Ġwild":5170,"Ã³d":5171,"Ġindian":5172,"Ġ1880":5173,"ÐµÐ½":5174,"Ġmolekul":5175,"pomeri":5176,"Ġå":5177,"Ġirak":5178,"Ġlowell":5179,"Ġ43":5180,"Ġ44":5181,"ĠhorloÄĿ":5182,"jk":5183,"ura":5184,"Â½":5185,"strof":5186,"Ġkvadrat":5187,"Ġbretoni":5188,"ats":5189,"Ã¡b":5190,"Ġspur":5191,"Ġwolfgang":5192,"Ġpakistan":5193,"Ġmoldavi":5194,"Ġkrak":5195,"âĢ³":5196,"Ã³t":5197,"ĠseÄĿ":5198,"Ġ1892":5199,"Ġnikol":5200,"Ġstefan":5201,"eneveld":5202,"Ġlod":5203,"Ġnr":5204,"Ġspr":5205,"Ġindonezi":5206,"Ġminimum":5207,"Ġmah":5208,"Ġ×":5209,"ruc":5210,"Ġpropor":5211,"Ġste":5212,"umbi":5213,"ÄįÃŃ":5214,"Ġ1870":5215,"groeneveld":5216,"Ġhouten":5217,"Ġjugoslavi":5218,"Ġss":5219,"Ġhimn":5220,"Ġcz":5221,"Ġsicili":5222,"Ġesc":5223,"âĢİ":5224,"2010":5225,"Ġvirus":5226,"Ġabsol":5227,"flug":5228,"Ġnegoc":5229,"ĠÃºj":5230,"GH":5231,"Ġsektor":5232,"ater":5233,"right":5234,"book":5235,"Ġmelodi":5236,"Ġproporci":5237,"Ġhori":5238,"Ġgod":5239,"ĠmihÃ¡ly":5240,"ĠpasaÄĿer":5241,"ĠszÃ©k":5242,"Ġsilezi":5243,"Ġcharent":5244,"GHS":5245,"pin":5246,"paÅŃli":5247,"Ġcirkl":5248,"Ġprosper":5249,"bu":5250,"Ġjav":5251,"Ġdorm":5252,"Ġale":5253,"Ġriz":5254,"verd":5255,"ellow":5256,"konst":5257,"famili":5258,"ozsvÃ¡r":5259,"ĠkÃ¡l":5260,"Ġsir":5261,"aÅŃz":5262,"Ġdepost":5263,"Ġtegment":5264,"lini":5265,"oin":5266,"pas":5267,"Ġkg":5268,"Ġnub":5269,"Ġsej":5270,"Ġmekl":5271,"gari":5272,"pet":5273,"Ġia":5274,"Ã©ri":5275,"ĠlaÅŃd":5276,"Ġ1891":5277,"Ġmerit":5278,"Ġclaud":5279,"Ġhim":5280,"rach":5281,"Ġekip":5282,"agent":5283,"Ġbarbar":5284,"Ã´m":5285,"ĠandrÃ¡s":5286,"centr":5287,"faz":5288,"Ġvor":5289,"opter":5290,"Ġrespekt":5291,"Ġstrategi":5292,"ĠsorÄī":5293,"ia":5294,"Ġjod":5295,"Ġfek":5296,"1980":5297,"Ġsever":5298,"ĠoranÄĿ":5299,"pos":5300,"Ġivan":5301,"lis":5302,"Ġakcident":5303,"Ġermit":5304,"verk":5305,"Ġradio":5306,"Ġnin":5307,"ĠmÃ¡":5308,"ĠpliiÄĿ":5309,"Ġdokt":5310,"Ð°ÑĢ":5311,"1981":5312,"Ġpent":5313,"Ġsaks":5314,"Ġchemical":5315,"Ġschwarz":5316,"Ġvajmar":5317,"vo":5318,"yc":5319,"ĠdÃ©":5320,"Ġsn":5321,"recht":5322,"Ġhus":5323,"kas":5324,"imar":5325,"skÃ½":5326,"obird":5327,"1986":5328,"kre":5329,"Ġtj":5330,"atl":5331,"ĠÄĿerm":5332,"gh":5333,"gent":5334,"orum":5335,"Ġherman":5336,"Ġhill":5337,"1987":5338,"Ø§Ù":5339,"Ġelizabet":5340,"ecti":5341,"Ġseminari":5342,"Ġlogik":5343,"Ġartefar":5344,"vic":5345,"Ġ1828":5346,"izik":5347,"nur":5348,"eles":5349,"Ġunusol":5350,"Ġvilhelm":5351,"spekt":5352,"Ġaltitud":5353,"Ġsepar":5354,"Ġkronik":5355,"Ġlombardi":5356,"va":5357,"Ġ?":5358,"Ġkamer":5359,"acea":5360,"ofont":5361,"iskolc":5362,"ĠÐ¸":5363,"1974":5364,"Ġvariant":5365,"Ġideal":5366,"Ġgabriel":5367,"ÉĻ":5368,"Ġraf":5369,"Ġmanuel":5370,"sor":5371,"astik":5372,"Ġedikt":5373,"provinc":5374,".-":5375,"nag":5376,"Ġ),":5377,"Ġdetermin":5378,"Ġtin":5379,"Ġfaktor":5380,"Ġwall":5381,"Ġkontent":5382,"2011":5383,"Ġbook":5384,"ĠaÅŃtun":5385,"Ġio":5386,"Ġcerv":5387,"itor":5388,"Ġ72":5389,"kvil":5390,"Ġsuker":5391,"Ġtakson":5392,"Ġtribunal":5393,"Ġirod":5394,"Ġhem":5395,"Äīin":5396,"Ġkonklud":5397,"Ġmargar":5398,"Ġcha":5399,"istry":5400,"Ġblan":5401,"Ġ86":5402,"Ġfals":5403,"Ġfenestr":5404,"Ġveget":5405,"ĠetaÄĿ":5406,"hy":5407,"ral":5408,"Ġnach":5409,"arkt":5410,"Ġrektor":5411,"Ġamor":5412,"Ġemoci":5413,"Ġabel":5414,"odendrum":5415,"La":5416,"rar":5417,"ÈĽ":5418,"stini":5419,"arm":5420,"Ġadmir":5421,"Ġjohns":5422,"Ġpale":5423,"ĠÄĿenev":5424,"Ġ1885":5425,"Ġimpres":5426,"Ġclerodendrum":5427,"Ã²":5428,"Ġlak":5429,"Ġlaur":5430,"laÄīer":5431,"Ġleb":5432,"aÄ¥ar":5433,"1988":5434,"Ġkonstat":5435,"Ġhiper":5436,"Ġmeklenburg":5437,"mm":5438,"zac":5439,"Ġvak":5440,"Ġbod":5441,"1978":5442,"Ġspegul":5443,"Ġbazilik":5444,"1979":5445,"Ġnorveg":5446,"bibliotek":5447,"Ġdog":5448,"Ġhag":5449,"Ã¡ni":5450,"Ġosak":5451,"verb":5452,"Ġgeorges":5453,"Ġkonvenci":5454,"Ġsik":5455,"Ġbrom":5456,"Ġ1850":5457,"Ġshakespear":5458,"rigent":5459,"Ġzeit":5460,"Ġfiziologi":5461,"Ġdefin":5462,"Ġantologi":5463,"Ġprav":5464,"ĠjenÅĳ":5465,"Ġnapol":5466,"Ġfidel":5467,"Ġfokus":5468,"))":5469,"Ġpik":5470,"Ġfilolog":5471,"Ġbalt":5472,"Ġkristal":5473,"Ġkatastrof":5474,"bp":5475,"Ġled":5476,"Ġgn":5477,"ilit":5478,"Ġ3166":5479,"Ã¡rd":5480,"ĠmureÈĻ":5481,"ulac":5482,"Ġelst":5483,"Ġproz":5484,"ade":5485,"Ġemer":5486,"Ġluk":5487,"Ġ1893":5488,"ĠsovaÄĿ":5489,"Ġ1871":5490,"Ġbrow":5491,"Ġotoman":5492,"Ġbulgar":5493,"oÄµ":5494,"Ġgut":5495,"Ġintrig":5496,"ĠdisiÄĿ":5497,"Ġszent":5498,"Ġmagi":5499,"Ġ1886":5500,"Ä±":5501,"Ġemin":5502,"enig":5503,"Ġfc":5504,"Ġvapor":5505,"antes":5506,"Ġ1860":5507,"Ġ56":5508,"Ġschul":5509,"Ġmanch":5510,"Ã©szet":5511,"Ġabsolut":5512,"ÄĿis":5513,"Ġgaj":5514,"auer":5515,"ĠandrÃ©":5516,"Ġyoung":5517,"Ġtaksonomi":5518,"sel":5519,"vort":5520,"Ġjung":5521,"asi":5522,"Ġign":5523,"Ġapen":5524,"Ġtech":5525,"1977":5526,"Ġkonservativ":5527,"Ġador":5528,"Ġrid":5529,"Ġunuec":5530,"Ġvenus":5531,"illes":5532,"ĠsaÄĿ":5533,"reb":5534,"Ġleid":5535,"Ġtrankvil":5536,"enzoat":5537,"ĠpÃ©cs":5538,"jud":5539,"joh":5540,"Ġlut":5541,"Ġhow":5542,"Ġsolen":5543,"ĠÐº":5544,"1985":5545,"Ġ1888":5546,"big":5547,"Ġlert":5548,"ĠtÃ¢r":5549,"skÃ©":5550,"Ġ41":5551,"ĠszÃŃn":5552,"Ġ1882":5553,"Ġdiplomat":5554,"Ġcount":5555,"Ġhipot":5556,"Ġhindu":5557,"cen":5558,"Ġfung":5559,"Ġ1830":5560,"Ġsearch":5561,"lesvig":5562,"Ġfestotag":5563,"way":5564,"Ġlater":5565,"isb":5566,"Ġlernolibr":5567,"Ġmiguel":5568,"aut":5569,"vest":5570,"Ġfischer":5571,"Ġadri":5572,"ĠÅĿlesvig":5573,"Ġboli":5574,"Ġcity":5575,"ĠÄīapitr":5576,"anhalt":5577,"amin":5578,"Ġantrop":5579,"Ġ|}":5580,"Ġdezajn":5581,"iction":5582,"Ġgvadal":5583,"aqu":5584,"uter":5585,"rift":5586,"ĠvaÅĿingt":5587,"ĠbÃ¡n":5588,"Ġges":5589,"Ġstev":5590,"ĠaÅŃvern":5591,"Ġwald":5592,"Ġatenc":5593,"duc":5594,"Ġdisd":5595,"1982":5596,"Ġtoki":5597,"ÄĹ":5598,"Å¥":5599,"Ġlab":5600,"Ġstr":5601,"okod":5602,"Ġrul":5603,"Ġpliig":5604,"Ġblind":5605,"Ġviand":5606,"Ġjacob":5607,"Ġhiro":5608,"Ġdefinitiv":5609,"ures":5610,"ĠlÃ©":5611,"Ġkoncili":5612,"Ã³k":5613,"germani":5614,"Ġlepsik":5615,"peterburg":5616,"eux":5617,"Ġ*":5618,"Ġsill":5619,"Ġbes":5620,"osi":5621,"ĠrÃ©":5622,"Ġpolit":5623,"Ġvall":5624,"Ġbooks":5625,"1983":5626,"1970":5627,"1969":5628,"Ġclass":5629,"Ġphilos":5630,"Ġaliancan":5631,"Ġencyclopedi":5632,"Ġskotland":5633,"ĠâĨĴ":5634,"oul":5635,"yam":5636,"Ġbrat":5637,"Ġinvers":5638,"ury":5639,"Ġsamkiel":5640,"Ġromian":5641,"Ð¿":5642,"Ġemp":5643,"Ġdres":5644,"reich":5645,"Ġreklam":5646,"Ġkomet":5647,"Ġ1878":5648,"icial":5649,"Ġlangu":5650,"Ġ51":5651,"ÃŃs":5652,"Ġsalz":5653,"Ġ1875":5654,"Ġvictor":5655,"ÄĽj":5656,"Ġdanub":5657,"Ġpublic":5658,"rumani":5659,"Ġdoktrin":5660,"ject":5661,"out":5662,"list":5663,"Ġheg":5664,"rabl":5665,"Ġsalon":5666,"1973":5667,"Ġflorenc":5668,"Ġdolor":5669,"ois":5670,"Ġbog":5671,"edoni":5672,"Ġmaz":5673,"anal":5674,"Ġfas":5675,"Ġamoni":5676,"ocez":5677,"holstini":5678,"eolog":5679,"ĠÃ¡":5680,"Ġens":5681,"ÄĿan":5682,"Ġcur":5683,"Ġconc":5684,"ches":5685,"Ġonkl":5686,"Ġonlin":5687,"eroform":5688,"ropik":5689,"Ġrelief":5690,"Ġsilent":5691,"300":5692,"lern":5693,"uil":5694,"leon":5695,"Ġ1879":5696,"Ġtorin":5697,"maÄµ":5698,"megy":5699,"Ġlis":5700,"lah":5701,"rati":5702,"Ġ1881":5703,"1975":5704,"ĠmÃ©xic":5705,"bc":5706,"arang":5707,"Ġbirm":5708,"Ġtibet":5709,"Ġbrig":5710,"pier":5711,"Ġsit":5712,"Ġmr":5713,"Ġengin":5714,"Ġunter":5715,"Ġinfekt":5716,"ministr":5717,"Ġkromnom":5718,"Ġbrak":5719,"1976":5720,"Ġ1872":5721,"Ġact":5722,"Ġeminent":5723,"ĠapenaÅŃ":5724,"bs":5725,"han":5726,"kin":5727,"style":5728,"arb":5729,"arn":5730,"ingr":5731,"Ġflam":5732,"Ã¼hl":5733,"Ġhitler":5734,"budap":5735,"maÄµor":5736,"ean":5737,"go":5738,"hav":5739,"ues":5740,"Ġkum":5741,"Ġasist":5742,"liz":5743,"Ġcro":5744,"opold":5745,"Ġatmos":5746,"Ġeventual":5747,"ĠkÃ¶nig":5748,"Ġrajd":5749,"midt":5750,"Ġwagner":5751,"ĠÅĿlesvigo":5752,"ĠÅŃ":5753,"Ġtrom":5754,"inf":5755,"Ġhild":5756,"ite":5757,"oscienc":5758,"ubert":5759,"tati":5760,"Ġdomin":5761,"Ġmoske":5762,"Ġturist":5763,"pany":5764,"itali":5765,"px":5766,"Ġair":5767,"ars":5768,"oro":5769,"rab":5770,"chel":5771,"ĠchÃ¢":5772,"Ġbalet":5773,"Ġvalut":5774,"Ġ1873":5775,"Ġrealism":5776,"Ġislaman":5777,"Ġdialog":5778,"Ġhendrik":5779,"Ġdiction":5780,"Ġarrond":5781,"Ġflandr":5782,"Ġeblec":5783,"2012":5784,"Ġarthur":5785,"ĠÐ±":5786,"Ġ1876":5787,"holm":5788,"rodano":5789,"aus":5790,"con":5791,"tol":5792,"venc":5793,"yth":5794,"Ġva":5795,"lier":5796,"Ġsiavic":5797,"minor":5798,"Ġburgonjo":5799,"Ġkint":5800,"Ġenig":5801,"1944":5802,"ajr":5803,"manÄī":5804,"Ġspecimen":5805,"Ġekzempler":5806,"Ġlatvi":5807,"korei":5808,"ĠaÅŃvernjo":5809,"gani":5810,"sÃ¡g":5811,"Ġote":5812,"Ġjazz":5813,"Ġlap":5814,"Ġnod":5815,"Ġfir":5816,"Ġgun":5817,"Ġrim":5818,"icip":5819,"ubi":5820,"Ġrost":5821,"Ġski":5822,"ĠmiÄ¥":5823,"1984":5824,"franÄīkonte":5825,"Ġmuseum":5826,"cÃŃ":5827,"ial":5828,"Ġmok":5829,"river":5830,"cist":5831,"roz":5832,"Ġtibor":5833,"Ġstad":5834,"Ġdirigent":5835,"ecz":5836,"Ġorganism":5837,"Ġsalc":5838,"Ġ1861":5839,"Ġlot":5840,"arp":5841,"Ġwood":5842,"ush":5843,"ĠfreÅĿ":5844,"Ġkavern":5845,"ĠkÃ¡lmÃ¡":5846,"Ġhipotez":5847,"ĠgÃ©z":5848,"andex":5849,"ĠthÃ©":5850,"Ġold":5851,"Ġyonn":5852,"Ġaventur":5853,"Ġsalam":5854,"Ġ1867":5855,"Ġfabel":5856,"ĠdolÄī":5857,"Ġchemistry":5858,"omuze":5859,"ara":5860,"Ġ110":5861,"ĠpoÅĿ":5862,"Ġstip":5863,"plu":5864,"Ġatt":5865,"Ġsilab":5866,"Ġsantiag":5867,"Ġrecenz":5868,"Ġbudhism":5869,"Ġyellow":5870,"Ġemfaz":5871,"à¦":5872,"Ġobl":5873,"Ġwik":5874,"Ġturd":5875,"szt":5876,"iel":5877,"Ġjc":5878,"Ġml":5879,"Ġhir":5880,"Ġreich":5881,"isc":5882,"ules":5883,"Äµor":5884,"Ġnev":5885,"opart":5886,"sea":5887,"Ġernest":5888,"Ġrhein":5889,"ogeografi":5890,"Ġatmosfer":5891,"Ġ{":5892,"Ġjord":5893,"Ġfrit":5894,"Ġsus":5895,"Ġ1849":5896,"Ġsiberi":5897,"rolog":5898,"czy":5899,"Ġdebrec":5900,"Ġfrederik":5901,"jer":5902,"Ġkem":5903,"Ġdre":5904,"Ġtas":5905,"Ġvokal":5906,"Ġetiopi":5907,"Õ¡Õ":5908,"gor":5909,"perm":5910,"andal":5911,"Ġ1790":5912,"Ġtridek":5913,"Ġtriangul":5914,"2013":5915,"szent":5916,"Ġmaten":5917,"Ġnatural":5918,"cker":5919,"Ġortografi":5920,"falv":5921,"Ġjim":5922,"Ġpig":5923,"Ġ115":5924,"Ġbob":5925,"Ġcost":5926,"Ġkrest":5927,"oft":5928,"Ã¤t":5929,"Ġ1883":5930,"Ġ1863":5931,"Ġclar":5932,"Ġmoid":5933,"ĠvÃ¡rmegy":5934,"fond":5935,"Ġlup":5936,"Ġhart":5937,"Ġhept":5938,"radi":5939,"eman":5940,"istin":5941,"osfat":5942,"Ġdifekt":5943,"Ġkompil":5944,"Ġgrimp":5945,"Ġtomas":5946,"mem":5947,"ox":5948,"Ä¾":5949,"Ġce":5950,"Ġpert":5951,"Ġ1874":5952,"issement":5953,"film":5954,"pil":5955,"ene":5956,"pers":5957,"antin":5958,"Ã©es":5959,"Ġvenen":5960,"ugl":5961,"Ġdisc":5962,"Ġcommun":5963,"eskop":5964,"ĠmÃ¼nch":5965,"fali":5966,"Îº":5967,"Ġdrog":5968,"Ġduet":5969,"Ġzal":5970,"Ġsekund":5971,"ĠmatÄī":5972,"Ġ1884":5973,"Ġkonfes":5974,"Ġradikal":5975,"Å±v":5976,"sankt":5977,"mag":5978,"Ġlet":5979,"arl":5980,"Ġfrost":5981,"Ġpercept":5982,"Ġyandex":5983,"ote":5984,"Ġofer":5985,"act":5986,"Ġcompany":5987,"ĠneÅŃtr":5988,"Ġkardinal":5989,"jaraÄĿa":5990,"zk":5991,"Ġoc":5992,"Ġdn":5993,"Ġnj":5994,"Ġpes":5995,"Ġcra":5996,"Ġzum":5997,"ofit":5998,"Ġvia":5999,"Ġmagaz":6000,"Äįk":6001,"nuntemp":6002,"ĠengaÄĿiÄĿ":6003,"Ġsubtropik":6004,"ĠtÃ¢rg":6005,"rer":6006,"ĠniÄĿ":6007,"ÄĿen":6008,"Ã¡v":6009,"otip":6010,"Ġmary":6011,"Ġroch":6012,"obut":6013,"Ġ65":6014,"ĠÅĿtel":6015,"nyv":6016,"Ã¡sÃ¡r":6017,"binet":6018,"Ġvigl":6019,"ie":6020,"Ġiun":6021,"Ġiras":6022,"lid":6023,"Ġlion":6024,"Äīel":6025,"Ġprest":6026,"Ã¼d":6027,"eft":6028,"ĠÐ½":6029,"Ġsystem":6030,"fel":6031,"erel":6032,"Ġtum":6033,"Ġfren":6034,"ciÃ³":6035,"elop":6036,"ovc":6037,"edt":6038,"Ġverg":6039,"Ġ49":6040,"Ġemil":6041,"Ġafric":6042,"Ġ1865":6043,"1967":6044,"Ġnegr":6045,"Ġekvaci":6046,"Ġhazard":6047,"fe":6048,"pat":6049,"Ġjez":6050,"verlag":6051,"2014":6052,"Ġkuri":6053,"Ġpluredr":6054,"Ġmauri":6055,"Ð¸Ð¹":6056,"Ġcalvad":6057,"long":6058,"Ġeter":6059,"Ġmass":6060,"Ġcrist":6061,"Ġcass":6062,"ĠflaÅŃr":6063,"Ġ1798":6064,"1972":6065,"ĠÃ©letrajz":6066,"etat":6067,"Ġorel":6068,"Ġere":6069,"Ġlug":6070,"Ġnepr":6071,"Ġesperantomuze":6072,"Ġmezoregion":6073,"Ġafgani":6074,"Ġ1866":6075,"ospeci":6076,"Ġfemin":6077,"Ġengineer":6078,"tim":6079,"Ġ>":6080,"Ġnud":6081,"Ġtikl":6082,"Ġvist":6083,"Ã¨n":6084,"Ġnegativ":6085,"Ġá":6086,"Ġtod":6087,"Ġreform":6088,"Ġcultur":6089,"Ġantal":6090,"ĠrÃ³":6091,"eger":6092,"Ġoperac":6093,"Ġideologi":6094,"Ġstreb":6095,"budapeÅĿt":6096,"ton":6097,"Ġetern":6098,"stat":6099,"raz":6100,"ĠÄīik":6101,"Ġapol":6102,"ronom":6103,"Ġsaal":6104,"Ġconst":6105,"Ġburgos":6106,"Ġnuanc":6107,"db":6108,"kÃ¶":6109,"Ġiuc":6110,"ĠanÄĿ":6111,"0000":6112,"Ġ1815":6113,"ajÄĿan":6114,"ĠÃ©d":6115,"Ġpromes":6116,"erbajÄĿan":6117,"Ġrecords":6118,"Ġrekomend":6119,"Ġengineering":6120,"td":6121,"Ġnort":6122,"Ġtej":6123,"riz":6124,"Ġrisk":6125,"Ġrikol":6126,"Ġrum":6127,"center":6128,"Ġtanz":6129,"ĠburÄĿ":6130,"prop":6131,"pdf":6132,"Ġtang":6133,"Ġhet":6134,"ktis":6135,"Ġ1800":6136,"skult":6137,"Ġbuch":6138,"Ġutc":6139,"Ġbolivi":6140,"-,":6141,"Ã¥":6142,"Ġeast":6143,"Ġsyn":6144,"Ġts":6145,"Ġhis":6146,"Ġhep":6147,"Ġwid":6148,"Ġwit":6149,"ress":6150,"Äįin":6151,"ĠpuÄī":6152,"uttgart":6153,"pe":6154,"ston":6155,"ĠhÃ©":6156,"Ġhard":6157,"aval":6158,"Ã¡ch":6159,"Ġmunt":6160,"Ġmiliard":6161,"Ġcigan":6162,"Ġpaser":6163,"Ġcomm":6164,"Ġ1864":6165,"japani":6166,"enschaft":6167,"Ġrikolt":6168,"aud":6169,"Ġkuz":6170,"Ġendr":6171,"Ġgest":6172,"ĠâĢĺ":6173,"Ġsky":6174,"Ġ54":6175,"montar":6176,"ĠderivaÄµ":6177,"konstanc":6178,"ÄĿeri":6179,"Ġcastr":6180,"sion":6181,"Ġ639":6182,"ĠaÅŃtokod":6183,"ĠmesaÄĿ":6184,"Ġ!!":6185,"Ġkroat":6186,"Ġkonsekvenc":6187,"ĠerdÃ©ly":6188,"kultur":6189,"uit":6190,"Ġpeg":6191,"Ġmiskolc":6192,"Ġlegi":6193,"fu":6194,"iÃŁ":6195,"pel":6196,"tl":6197,"erz":6198,"rejn":6199,"Ġsinagog":6200,"encial":6201,"ÐºÐ°":6202,"Ġsteiner":6203,"dem":6204,"Ġaqu":6205,"Ġfajn":6206,"Ġ118":6207,"emy":6208,"anth":6209,"Ġzag":6210,"Ġdiocez":6211,"evi":6212,"ofil":6213,"Ġproced":6214,"Ġmozart":6215,"Ġcatalin":6216,"eo":6217,"mak":6218,"Ġsfer":6219,"Ġbeck":6220,"Ġhil":6221,"raÄµ":6222,"Ġstand":6223,"Ġsteph":6224,"uber":6225,"Ġbirdlif":6226,"can":6227,"hir":6228,"len":6229,"Î·":6230,"Ïĥ":6231,"Ġif":6232,"Ġdul":6233,"Ġnoci":6234,"Ġfingr":6235,"rif":6236,"cil":6237,"litz":6238,"ĠÅĿirm":6239,"igny":6240,"Ġfleg":6241,"verpen":6242,"ĠÃ©v":6243,"Ġmikro":6244,"ewicz":6245,"Ġkloroform":6246,"Ġsebasti":6247,"mus":6248,"Ġdiz":6249,"Ġtv":6250,"Ġcr":6251,"Ġweb":6252,"âĢ¦":6253,"veren":6254,"Ã¶m":6255,"Ġbaha":6256,"aÄ¥i":6257,"1968":6258,"ĠazerbajÄĿan":6259,"Ġekspluat":6260,"Ġtragedi":6261,"Ġvladimir":6262,"Ġbratislav":6263,"ning":6264,"trans":6265,"Ġtort":6266,"Ġestoni":6267,"ĠbÃ©":6268,"Ġheks":6269,"ĠaÅŃskult":6270,"Ġ2023":6271,"Ġskiz":6272,"Ġtrezor":6273,"Ġfrei":6274,"Ġensembl":6275,"Ġtet":6276,"ulo":6277,"Ġplus":6278,"Ġobe":6279,"Ġ1868":6280,"Ġtheodor":6281,"Ġfrekvenc":6282,"Ġirodalm":6283,"seri":6284,"Ġsand":6285,"Ġmeyer":6286,"anej":6287,"Ġrecip":6288,"apur":6289,"Ġboat":6290,"Ġbahi":6291,"Ġbulgari":6292,"Ġdiktat":6293,"Ġfragment":6294,"aon":6295,"pul":6296,"wik":6297,"Ġ114":6298,"ĠlaÅŃt":6299,"Ġglut":6300,"1971":6301,"Ġchristoph":6302,"vador":6303,"Ġdimensi":6304,"fon":6305,"kr":6306,"Ġeis":6307,"Ġsort":6308,"Ġmill":6309,"enst":6310,"Ġttt":6311,"organ":6312,"opro":6313,"Ġ58":6314,"szeg":6315,"Ġfrancili":6316,"Ġ1869":6317,"Ġritm":6318,"lum":6319,"nok":6320,"Ġmev":6321,"Ġkabinet":6322,"ĠÅĿanc":6323,"Ġmarch":6324,"Ġrotaci":6325,"Ġvalenci":6326,"1966":6327,"ĠdimanÄī":6328,"Ġmalajzi":6329,"ĠÅĽ":6330,"ener":6331,"Ġaneks":6332,"ilegi":6333,"Ġduop":6334,"Ġbazel":6335,"Ġpaseroform":6336,"Ġheid":6337,"Ġsavoj":6338,"ĠanÄĿel":6339,"Ġantverpen":6340,"Ġindic":6341,"Ġkuk":6342,"Ġmikael":6343,"Ġ1877":6344,"ÈĻt":6345,"oka":6346,"ve":6347,"Ġly":6348,"Ġkahel":6349,"atch":6350,"Ġprok":6351,"ump":6352,"Ã³s":6353,"ĠkolozsvÃ¡r":6354,"Ð¾ÑĢ":6355,"annes":6356,"ÐµÑĢ":6357,"Ġkonkurenc":6358,"</":6359,"Ġlandes":6360,"elles":6361,"Ġandrew":6362,"tÃ©net":6363,"Ġcharente":6364,"bre":6365,"gg":6366,"Ġtakt":6367,"cir":6368,"Ġcant":6369,"Ġstuttgart":6370,"anier":6371,"Ġinteg":6372,"Ġ800":6373,"Å¡ov":6374,"ptom":6375,"Ġpilot":6376,"ĠgvadalaÄ¥ar":6377,"fabet":6378,"ĠfaÅĿ":6379,"âĢĺ":6380,"jektiv":6381,"Ġbaron":6382,"Ġdaten":6383,"Ġliturgi":6384,"Ġsloveni":6385,"Ø±":6386,"Ġmast":6387,"anov":6388,"olud":6389,"ĠrÃŃ":6390,"Ġmarin":6391,"Ġrock":6392,"eburg":6393,"ocs":6394,"Ġmatric":6395,"nÃŃk":6396,"Ġrekord":6397,"kim":6398,"Ġpup":6399,"Ġhas":6400,"Ġrep":6401,"Ġrous":6402,"Ġleopold":6403,"Ġ700":6404,"Ġbauer":6405,"ays":6406,"ocen":6407,"Ġkanta":6408,"Ġcerb":6409,"kamp":6410,"veli":6411,"Ã®":6412,"Ġkest":6413,"Ġkoz":6414,"emik":6415,"Ġsuveren":6416,"orial":6417,"Ġwester":6418,"Ġferi":6419,"Ġprovenc":6420,"Ġpolus":6421,"Ġ83":6422,"Ġromanik":6423,"Ġnil":6424,"arr":6425,"ojn":6426,"ĠaÅŃtonomi":6427,"Ġrestoraci":6428,"Å¡ic":6429,"Ġprivilegi":6430,"ĠstreÄī":6431,"font":6432,"Ñħ":6433,"ĠsÃ£":6434,"arc":6435,"instru":6436,"ĠalÄĿeri":6437,"ise":6438,"avr":6439,"aker":6440,"Ġmonarki":6441,"Ġgras":6442,"Ġfrancesc":6443,"Ġkupr":6444,"Ġcirkonstanc":6445,"Ġekonomikist":6446,"institut":6447,"cul":6448,"ved":6449,"Ġstir":6450,"Ġesp":6451,"Ġfaraon":6452,"Ġsamuel":6453,"tein":6454,"Ġsilv":6455,"Å¯v":6456,"Ġleksik":6457,"enburgi":6458,"Ġbill":6459,"Ġorgi":6460,"Ġron":6461,"Ġ1789":6462,"Ġ53":6463,"klub":6464,"Ġkomplik":6465,"Ġtoler":6466,"Ġarrondissement":6467,"Ġreciprok":6468,"Ġæ":6469,"Ġsong":6470,"ĠÅĿu":6471,"ultiv":6472,"Ġ57":6473,"1962":6474,"antaÅŃpomeri":6475,"Ġambasador":6476,"iam":6477,"sav":6478,"ores":6479,"Ġfosili":6480,"Ġroyal":6481,"Ġtuk":6482,"Ġlili":6483,"Ġ250":6484,"adur":6485,"Ġterm":6486,"plan":6487,"spektiv":6488,"Ġkolonj":6489,"Ġimit":6490,"Ġpasi":6491,"ĠÐ³":6492,"oksid":6493,"Ġlanguag":6494,"Ġkla":6495,"ogl":6496,"Ġ1847":6497,"Ġdoub":6498,"Î¿ÏĤ":6499,"Ġstipendi":6500,"nd":6501,"nap":6502,"oar":6503,"Ġnam":6504,"Ġgvine":6505,"ingu":6506,"Ã©li":6507,"Ġforst":6508,"Ġlibrary":6509,"Ġserpent":6510,"Ġ1851":6511,"Ġendemi":6512,"Ġou":6513,"Ġty":6514,"Ġterur":6515,"Ġekzerc":6516,"Ġlatitud":6517,"lou":6518,"Ġ1859":6519,"Ġfood":6520,"enb":6521,"taj":6522,"oly":6523,"Ġroger":6524,"Ġakcip":6525,"Ġgeolog":6526,"Ġsalik":6527,"Åĳl":6528,"Ġkonstitu":6529,"issenschaft":6530,"Ġtrin":6531,"Ġcreus":6532,"gaz":6533,"war":6534,"alo":6535,"Ġbund":6536,"Ġbabil":6537,"asc":6538,"akl":6539,"ĠrenÃ©":6540,"Ġ1862":6541,"Ġ1857":6542,"Ġsouth":6543,"Ġvirgini":6544,"strakt":6545,"Ġaristotel":6546,"ĠespaÃ±ol":6547,"dt":6548,"ÏĢ":6549,"Ġerik":6550,"atic":6551,"idor":6552,"Ġ1840":6553,"Ġkarb":6554,"ellschaft":6555,"Ġsimptom":6556,"Ġdosier":6557,"ĠszÃŃnhÃ¡z":6558,"inz":6559,"cipl":6560,"Ġanth":6561,"otr":6562,"Ġral":6563,"Ġkurent":6564,"Ð¾Ð»":6565,"cereal":6566,"societ":6567,"lang":6568,"uro":6569,"Ġ113":6570,"Ġrefl":6571,"Ġkunst":6572,"Ġorf":6573,"Ġetos":6574,"Ġkurt":6575,"Ġtuc":6576,"tav":6577,"idad":6578,"Ġetanol":6579,"Ġdistr":6580,"Ġkriteri":6581,"Ġpalat":6582,"Ġscott":6583,"iform":6584,"Ġmeklenburgo":6585,"aÅĤ":6586,"Ġkh":6587,"staff":6588,"ome":6589,"ĠbÃ¶":6590,"Ġhat":6591,"rault":6592,"asp":6593,"Äµanej":6594,"ĠÅĿov":6595,"1938":6596,"Ġ1831":6597,"aps":6598,"Ġross":6599,"Ġkoleg":6600,"Ġschmidt":6601,"Ġmartir":6602,"Ġtelev":6603,"Ġcentro":6604,"Ġhous":6605,"ĠheredaÄµ":6606,"Ġceramik":6607,"straÃŁ":6608,"baz":6609,"idi":6610,"ĠÅĿtal":6611,"struktur":6612,"Ġpolemik":6613,"Ð¸Ð½":6614,"Ġkoss":6615,"don":6616,"nad":6617,"×Ļ":6618,"ĠaÄ¥":6619,"Ġkoh":6620,"cian":6621,"Ġkverk":6622,"Ġnacional":6623,"Ġjuris":6624,"isches":6625,"enzo":6626,"ĠgyÅĳr":6627,"Ġbrod":6628,"Ġ1803":6629,"Ġkonstantin":6630,"Ġgonz":6631,"ĠszÃ©kely":6632,"Ġtanzani":6633,"Ġroussea":6634,"sin":6635,"Ġog":6636,"Ġ(;":6637,"liber":6638,"Ġhekt":6639,"Ġhak":6640,"atel":6641,"Ġwash":6642,"evill":6643,"spez":6644,"Ġvald":6645,"ayash":6646,"Ġmatth":6647,"Ġgaranti":6648,"Ġturnir":6649,"Ġhandbook":6650,"Ġmalpliig":6651,"ĠarÄ¥itekt":6652,"ĠprestiÄĿ":6653,"kins":6654,"ourt":6655,"Ġora":6656,"ĠnÃ©":6657,"ĠpÅĻ":6658,"lip":6659,"Ġala":6660,"imensi":6661,"agr":6662,"opov":6663,"ĠkaÅŃkaz":6664,"Ġfoir":6665,"Ġlorenz":6666,"Ġenciclopedi":6667,"500":6668,"dum":6669,"Ã°":6670,"Ġhad":6671,"oti":6672,"Ġvidv":6673,"Ġfiltr":6674,"Ġ66":6675,"szky":6676,"1957":6677,"Ġfuror":6678,"Ġluksem":6679,"Ġsalamank":6680,"ĠÑĤ":6681,"incid":6682,"oland":6683,"Ġmarks":6684,"Ġklein":6685,"Ġcompl":6686,"1963":6687,"Ġconscienc":6688,"Ġpardub":6689,"Ġmongol":6690,"Î¼":6691,"erp":6692,"enbach":6693,"Ġenspez":6694,"Ġestim":6695,"Ġvaz":6696,"ÅĿev":6697,"Ã¼ss":6698,"Ġgvat":6699,"Ġbaston":6700,"Ġdrak":6701,"Ġsad":6702,"Ġmant":6703,"Ġmerc":6704,"Ġfum":6705,"Ġkiev":6706,"Ġkipr":6707,"Ġtien":6708,"itm":6709,"ilibr":6710,"Ġmembro":6711,"Ġ64":6712,"Ġjohn":6713,"Ãºs":6714,"Ġguad":6715,"malpl":6716,"ĠgarcÃŃ":6717,"fa":6718,"sw":6719,"wh":6720,"é§":6721,"Ġdoz":6722,"Ġvom":6723,"urch":6724,"Ġroth":6725,"tikal":6726,"Ġgravur":6727,"Ã¤l":6728,"pir":6729,"Ġikon":6730,"Ġpist":6731,"ĠmuÅĿ":6732,"Ġhesi":6733,"Ġcos":6734,"edon":6735,"1960":6736,"usepp":6737,"Ġlingvistik":6738,"Ġyam":6739,"ĠromÃ¡ni":6740,"Ġrevizi":6741,"tebr":6742,"Ġlegom":6743,"Ġimpon":6744,"Ġ1858":6745,"bury":6746,"Ġkartveli":6747,"Ġbelorusi":6748,"pierr":6749,"Ġner":6750,"Ġvr":6751,"Ġhok":6752,"Ġlic":6753,"Ġarkt":6754,"Ġstab":6755,"Ġportal":6756,"Ġabd":6757,"Ġkrud":6758,"Ġkoal":6759,"1961":6760,"Ġgood":6761,"Ġombr":6762,"Ġanalfabet":6763,"Ġfarmaci":6764,"Ġmargaret":6765,"naci":6766,"Ġsolid":6767,"anab":6768,"eny":6769,"Ġ117":6770,"Äīu":6771,"ope":6772,"ograd":6773,"Ġlind":6774,"ĠâĢĶ,":6775,"1958":6776,"Ġfunebr":6777,"oÄµvar":6778,"Ġenspezofont":6779,"Ġlaw":6780,"Ġassoci":6781,"Ġfan":6782,"Ġhond":6783,"Ġalc":6784,"Ġcod":6785,"Ġcend":6786,"Ġ67":6787,"kval":6788,"dikci":6789,"ĠtamÃ¡s":6790,"Ġpicass":6791,"'.":6792,"bil":6793,"ses":6794,"ÉĶ":6795,"Ġuru":6796,"Ġbig":6797,"Ġgh":6798,"Ġalzac":6799,"Ġcond":6800,"Ġstim":6801,"ĠÅĿut":6802,"Ġdesc":6803,"Ġwils":6804,"1959":6805,"ĠfeÅŃd":6806,"Ġkobayash":6807,"Ġdictionary":6808,"ĠheredaÄµbibliotek":6809,"uy":6810,"Ġfram":6811,"roy":6812,"Ġmalt":6813,"char":6814,"ingrad":6815,"Ġrik":6816,"epok":6817,"Ġvivi":6818,"olit":6819,"Ġvarb":6820,"Ġ1854":6821,"Ġavert":6822,"Ġmanifestaci":6823,"é§ħ":6824,"jos":6825,"pg":6826,"paÄĿ":6827,"sl":6828,"ÑĪ":6829,"Ġorat":6830,"Ġjones":6831,"arbar":6832,"Ġtow":6833,"taks":6834,"Ġsten":6835,"akv":6836,"ultan":6837,"Ġbiolog":6838,"klas":6839,"ĠkoloÄµvar":6840,"Ġkoincid":6841,"Ġserioz":6842,"1965":6843,"Ġkonven":6844,"Ġibn":6845,"dj":6846,"Ġnum":6847,"Ġsyl":6848,"ĠtÅĻ":6849,"Ġhod":6850,"Ġheli":6851,"Ġlieb":6852,"Ġstamp":6853,"Ġvertebr":6854,"ever":6855,"Ġcham":6856,"Ã¶k":6857,"Ġaven":6858,"berger":6859,"Ġfotografi":6860,"jorki":6861,"Ġkonsekr":6862,"Ġkossuth":6863,"guberni":6864,"zet":6865,"Ïħ":6866,"à¥":6867,"Ġjub":6868,"Ġnerv":6869,"Ġekvador":6870,"itan":6871,"Ġadol":6872,"Ġrib":6873,"Ġmarg":6874,"even":6875,"anck":6876,"Ġediti":6877,"Ġforum":6878,"Ġserg":6879,"Ġmorf":6880,"Ġkonfederaci":6881,"Ġsatir":6882,"Ġhegemoni":6883,"Ġian":6884,"oral":6885,"Ġhern":6886,"Ġgel":6887,"atory":6888,"itions":6889,"Ġantarkt":6890,"iger":6891,"Ġvertikal":6892,"Ġwern":6893,"Ġwind":6894,"Ġsubmet":6895,"Ġinteli":6896,"Ġbakt":6897,"ĠschÃ¶n":6898,"Ð°Ð»":6899,"Ġhauts":6900,"ĠÄĿemel":6901,"Ġfolklor":6902,"ĠaÅĿ":6903,"onik":6904,"Ġarp":6905,"Ġtimes":6906,"ogy":6907,"aden":6908,"Ġjarmil":6909,"Ġripar":6910,"Ġ1845":6911,"Ġoskar":6912,"Ġtrion":6913,"Ã¨v":6914,"Ġacetat":6915,"Ġcharl":6916,"Ġbors":6917,"Ã¡sÃ¡rhely":6918,"Ġjurisdikci":6919,"Ġky":6920,"als":6921,"ĠÄĿoj":6922,"Ġstadt":6923,"Ġterapi":6924,"Ġwww":6925,"Ġgreat":6926,"Ġkalif":6927,"Ġornit":6928,"danubi":6929,"Ġpublishing":6930,"sant":6931,"ÄĪ":6932,"Ġpdf":6933,"anci":6934,"iler":6935,"Ġprocent":6936,"okl":6937,"Ġ1820":6938,"Ġnovzeland":6939,"Ġtransig":6940,"Ġsociogeografi":6941,"Ġarad":6942,"Ġimplik":6943,"Ġkorporaci":6944,"paul":6945,"Ġanatomi":6946,"Ġsubprem":6947,"labor":6948,"to":6949,"Ġiberi":6950,"aro":6951,"Ġvek":6952,"urd":6953,"Ġill":6954,"Ġsind":6955,"1956":6956,"Ġgiusepp":6957,".âĢĭ":6958,"kut":6959,"mb":6960,"maj":6961,"Ġpf":6962,"ĠdeÄµor":6963,"Ġmiz":6964,"onist":6965,"Ġbir":6966,"Ã¡zs":6967,"1940":6968,"Ġ1838":6969,"Ä¥ar":6970,"obus":6971,"ĠantaÅŃul":6972,"Ġfontan":6973,"Ġvicent":6974,"Ġdiplomati":6975,"Ġwashingt":6976,"ĠromÃ¡nia":6977,"boh":6978,"jak":6979,"sr":6980,"sov":6981,"ÙĬ":6982,"Ġdans":6983,"1939":6984,"Ġmarok":6985,"oficial":6986,"Ġedici":6987,"1964":6988,"nat":6989,"punkt":6990,"Ġiks":6991,"Ġlaf":6992,"rest":6993,"Ġ(âĢ":6994,"osz":6995,"Ġesz":6996,"oprop":6997,"uskl":6998,"fiÅĿ":6999,"Ġ85":7000,"ombat":7001,"she":7002,"Ġflugil":7003,"Ġacet":7004,"fre":7005,"sy":7006,"sistem":7007,"Ġsofi":7008,"Ġtorn":7009,"Ġcen":7010,"igh":7011,"Ġklak":7012,"Ġorien":7013,"rill":7014,"âĢĻâĢĻ":7015,"Ġkirch":7016,"ĠneÅŃtral":7017,"gam":7018,"mu":7019,"top":7020,"Ã¯":7021,"are":7022,"orgi":7023,"Ġcd":7024,"Ġstrang":7025,"1918":7026,"Ġ1836":7027,"egg":7028,"Ġtransdanubi":7029,"Ġkaro":7030,"Ġ88":7031,"Ġrezid":7032,"ivalent":7033,"Å¡tÄĽ":7034,"Ġhektar":7035,",\"":7036,"strat":7037,"anic":7038,"Ġfuk":7039,"Ġhoh":7040,"raham":7041,"rusi":7042,"edu":7043,"Ġ1833":7044,"Ġakcel":7045,"Ġbalbut":7046,"ofor":7047,"Ġepid":7048,"Ġkatar":7049,"Ð¸Ñĩ":7050,"kolor":7051,"Ġgranad":7052,"bes":7053,"fur":7054,"sat":7055,"Ġain":7056,"Ġdra":7057,"alaj":7058,"Ġcav":7059,"Ġurn":7060,"ĠÄīie":7061,"Ġparana":7062,"metro":7063,"Ġdominik":7064,"fred":7065,"Î¯":7066,"areÅĿt":7067,"Ġhrad":7068,"Ġglu":7069,"Ġcruz":7070,"udad":7071,"Ġchic":7072,"Ġdoc":7073,"kvar":7074,"Ġstati":7075,"Ġ1852":7076,"Ġweimar":7077,"Ġkupol":7078,"press":7079,"ÄīeÄ¥":7080,"beki":7081,"gre":7082,"Ġlul":7083,"isÅĤaw":7084,"ĠÅĿild":7085,"ight":7086,"Ġ1846":7087,"Ġloi":7088,"Ġalil":7089,"lay":7090,"2019":7091,"Ġ900":7092,"Ġakvof":7093,"erald":7094,"mot":7095,"Ġmajn":7096,"Ġbp":7097,"lish":7098,"etic":7099,"edel":7100,"ejo":7101,"Ġchap":7102,"Ġ62":7103,"ensiv":7104,"ramid":7105,"Ġ1853":7106,"1954":7107,"Ġnitro":7108,"kam":7109,"nar":7110,"rÃ¡":7111,"Ġnon":7112,"Ġ116":7113,"Ġref":7114,"ĠÅĿarg":7115,"olic":7116,"the":7117,"Ġprofet":7118,"nagy":7119,"Ġsalcburg":7120,"%)":7121,"ui":7122,"insk":7123,"alk":7124,"rong":7125,"Ġskolt":7126,"Ġchamp":7127,"ĠÐ´":7128,"atikan":7129,"Ġconf":7130,"flor":7131,"Ġtrump":7132,"Ġpanam":7133,"Ġwilliams":7134,"Ġtajland":7135,"Ġsulfur":7136,"enhag":7137,"pÃ¡d":7138,"zen":7139,"Ġero":7140,"Ġlub":7141,"Ġsobr":7142,"Ġvos":7143,"oluti":7144,"Ġplast":7145,"1949":7146,"Ġsubd":7147,"Ġforges":7148,"Ġevans":7149,"new":7150,"Ġquint":7151,"1951":7152,"1955":7153,"Ġanimaci":7154,"Ġjustic":7155,"ĠbedaÅŃr":7156,"ĠÄįeskÃ©":7157,"Ġkonstantinopol":7158,"Ġkoalici":7159,"grek":7160,"ĠmaÅŃ":7161,"Ġmec":7162,"Ġhoff":7163,"Äīert":7164,"rani":7165,"1950":7166,"ingven":7167,"Ġkanzon":7168,"Ġfrakci":7169,"1952":7170,"metik":7171,"Ġkenj":7172,"vestfali":7173,"cat":7174,"yes":7175,"Î¬":7176,"Ùħ":7177,"erg":7178,"Ġsach":7179,"orik":7180,"Ġug":7181,"tain":7182,"Ġlib":7183,"ÄīirkaÅŃ":7184,"Ġstew":7185,"Ġekspon":7186,"Ã¼hr":7187,"150":7188,"Ġsalom":7189,"marn":7190,"Ġnepom":7191,"Ã¼ller":7192,"ĠbukareÅĿt":7193,"rev":7194,"Ġbult":7195,"Ġgdr":7196,"ikol":7197,"chin":7198,"ason":7199,"Ġtril":7200,"Ġfield":7201,"later":7202,"ific":7203,"Ġhidroliz":7204,"Ã¤nd":7205,"Ġbenzoat":7206,"Ġcounty":7207,"gemein":7208,"jac":7209,"lÃŃ":7210,"inh":7211,"Ġvatikan":7212,"Ġhof":7213,"elv":7214,"Ġcort":7215,"Ġarc":7216,"1928":7217,"tiu":7218,"Ġcelebr":7219,"ephal":7220,"ĠÃĹ":7221,"Ġreflekt":7222,"bah":7223,"Ġpobl":7224,"ogh":7225,"osistem":7226,"ĠvenÄĿ":7227,"Ġ63":7228,"Ġsilvi":7229,"Ġsorb":7230,"Ġpomp":7231,"Ġstudies":7232,"Ġfantazi":7233,"Ġkancelier":7234,"lÃ¡":7235,"oem":7236,"oaktor":7237,"pez":7238,"Ġmister":7239,"orez":7240,"riÄĿ":7241,"riqu":7242,"Ġglat":7243,"1948":7244,"1936":7245,"Ġza":7246,"esti":7247,"Ġtext":7248,"Ġlew":7249,"Ã¼b":7250,"Ġviktor":7251,"szÃ¡g":7252,"Ġ1856":7253,"okolekt":7254,"Ġvjetnami":7255,"Ġdoubs":7256,"ÙĪ":7257,"Ġostr":7258,"Ġwa":7259,"Ġsimp":7260,"Ġ95":7261,"tea":7262,"Ġkrut":7263,"priz":7264,"Ġekvivalent":7265,"Ġlouis":7266,"ls":7267,"renc":7268,"ĠkÃ¶r":7269,"Ġbk":7270,"Ġcun":7271,"okemi":7272,"1921":7273,"Ġzim":7274,"Ġkvart":7275,"2017":7276,"shir":7277,"Ġburgen":7278,"Ġekvilibr":7279,"Ġattil":7280,"ue":7281,"Å£":7282,"Åĵ":7283,"Ġll":7284,"iny":7285,"Ġbrik":7286,"Ġpostmort":7287,"Ġ1837":7288,"manuel":7289,"Ġzi":7290,"Ġ1500":7291,"Ġseine":7292,"ĠhidraÅŃ":7293,"ewsk":7294,"1953":7295,"Ġbrandenburgi":7296,"Ġerevan":7297,"Ġwidth":7298,"him":7299,"jal":7300,"Ġpingven":7301,"Ġkais":7302,"Ġhib":7303,"ates":7304,"oval":7305,"Ã©b":7306,"lach":7307,"Ġitiner":7308,"Ġlongitud":7309,"Ġpalear":7310,"Ġlatv":7311,"Ġhelik":7312,"Ġtunel":7313,"uziasm":7314,"Ġsegovi":7315,"Ġnepomuk":7316,"okt":7317,"pÃ©":7318,"pont":7319,"Ġbez":7320,"Ġanser":7321,"Ġprost":7322,"ĠÅĿv":7323,"1914":7324,"Ġlob":7325,"Ġparag":7326,"Ã³n":7327,"Ġ76":7328,"Ġcolor":7329,"Ġkvaron":7330,"Ġ1855":7331,"Ġclub":7332,"ĠvaÅĿington":7333,"Ġstandard":7334,"ji":7335,"emen":7336,"ÅĿi":7337,"ilis":7338,"Ġember":7339,"tenberg":7340,"Ġcastill":7341,"Ġpromen":7342,"Ġpromoci":7343,"Ġlazur":7344,"feh":7345,"Ġbeb":7346,"Äīar":7347,"Ġ1844":7348,"Ġatlet":7349,"ozi":7350,"Ã¼t":7351,"Ġkript":7352,"Ġolimpian":7353,"Ġmcc":7354,"Ġwarbl":7355,"ĠaragÃ³":7356,"Ġperturb":7357,"led":7358,"nitz":7359,"Ġozon":7360,"Ġerup":7361,"Ġnak":7362,"ensk":7363,"Ġ1842":7364,"ĠleÅŃ":7365,"Ġblov":7366,"Ġglor":7367,"Ġsetlad":7368,"Ġgroup":7369,"alpes":7370,"hardt":7371,"Ġbritish":7372,"Ġtucs":7373,"Ġorientali":7374,"âĻ":7375,"Ġkent":7376,"Ġkoli":7377,"orc":7378,"illa":7379,"imetr":7380,"1935":7381,"abad":7382,"Ġbeau":7383,"Ð¸Ðº":7384,"ĠaÅŃstrio":7385,"saÃ´n":7386,"Ġekstremadur":7387,"eid":7388,"rÃ©":7389,"uh":7390,"Ġdot":7391,"Ġmost":7392,"igagent":7393,"1933":7394,"opher":7395,"Ġvila":7396,"Ġ68":7397,"acht":7398,"rigaci":7399,"Ġflagstaff":7400,"Ġestraran":7401,"stedt":7402,"ĠbÃ¶r":7403,"Ġangi":7404,"Ġgem":7405,"Ġuniform":7406,"add":7407,"Ġ1843":7408,"Ġvertic":7409,"ĠkovÃ¡cs":7410,"Ġvolont":7411,"tiam":7412,"Ġpuebl":7413,"Ġmaksim":7414,"ĠÏĢ":7415,"Ġstadion":7416,"Ġinteligent":7417,"Ġjah":7418,"oram":7419,"Ġkiss":7420,"Ġsuspekt":7421,"Ġgeograf":7422,"2015":7423,"Ġinstanc":7424,"Ġentuziasm":7425,"Ġpsych":7426,"Ġpardubic":7427,"Ġsolidar":7428,"oam":7429,"ĠÑĢ":7430,"Ġnuk":7431,"Ġsof":7432,"resp":7433,"elberg":7434,"kab":7435,"ants":7436,"adÃ³":7437,"Ġrival":7438,"Ġnordrejn":7439,"Ġtransili":7440,"quer":7441,"Ġspecies":7442,"kvit":7443,"ĠsonÄĿ":7444,"polland":7445,"ĠkÃ¶l":7446,"Ġpatriark":7447,"Ġphilosoph":7448,"aik":7449,"sberg":7450,"Ġjahr":7451,"Ġstrikt":7452,"Ġmonstr":7453,"1946":7454,"Ġ--":7455,"Ġdow":7456,"Ġhoch":7457,"Ġklim":7458,"Ġdebat":7459,"Ġwies":7460,"mÃ¡r":7461,"ĠpÃ¡":7462,"ĠmÃ¡t":7463,"ref":7464,"Ġstras":7465,"adel":7466,"otop":7467,"1947":7468,"1932":7469,"Ġwelt":7470,"Ġamar":7471,"talat":7472,"ostaci":7473,"Ġkorekt":7474,"Ġkorei":7475,"Ġsindik":7476,"Ġstates":7477,"Ġtensi":7478,"Ġmebl":7479,"ĠvoÄīoaktor":7480,"Ġargil":7481,"Ġgoeth":7482,"butil":7483,"Ã¡ndez":7484,"ĠÃ¡rpÃ¡d":7485,"ĠtÃ¶rtÃ©net":7486,"Ġrafael":7487,"ĠpoblaciÃ³":7488,"eor":7489,"iet":7490,"oÅ¡":7491,"som":7492,"sing":7493,"×ķ":7494,"ĠÕ":7495,"Ġpand":7496,"ĠsÃ¡r":7497,"Ġsultan":7498,"enste":7499,"Ġvand":7500,"Ġbla":7501,"Ġlitt":7502,"ĠÄīerni":7503,"idir":7504,"Ġpork":7505,"Ġ1832":7506,"Ġzh":7507,"Ġruten":7508,"Ġekzakt":7509,"Ġagres":7510,"ÅĻich":7511,"ÐµÐ²":7512,"Ġmusik":7513,"putaci":7514,"Ġvirtual":7515,"ĠpseÅŃdonim":7516,"ĠmÃ¡ri":7517,"Ġemerit":7518,"Ġsindikat":7519,"dÃ¶":7520,"eaux":7521,"Ġsas":7522,"ulf":7523,"Ġelb":7524,"1920":7525,"1941":7526,"Ġ1825":7527,"Ġapotek":7528,"Ġsurpriz":7529,"Ġsubfamili":7530,"Ġcher":7531,"Ġchurch":7532,"Ã¼tz":7533,"Ġpolin":7534,"ĠaÅŃtobus":7535,"sony":7536,"Ġdemokr":7537,"Ġguerr":7538,"Ġcitron":7539,"ĠkÃ¶z":7540,"ities":7541,"Ġmoham":7542,"ais":7543,"tori":7544,"Ġik":7545,"arck":7546,"Ġhop":7547,"Ġcop":7548,"Ġstrik":7549,"Ġnebul":7550,"1919":7551,"1943":7552,"Ġ1812":7553,"Ġwin":7554,"Ġapr":7555,"Ġ1784":7556,"Ã¶v":7557,"Ġblog":7558,"Ġschelt":7559,"Ġabb":7560,"Ġimplic":7561,"Ġpretend":7562,"Ġassociati":7563,"romi":7564,"Ġlamp":7565,"Ġsob":7566,"Ġ112":7567,"rakl":7568,"urm":7569,"Ġalum":7570,"ĠplaÄī":7571,"1912":7572,"1929":7573,"Ġ1813":7574,"Ġ1839":7575,"ĠteÄ¥":7576,"ught":7577,"Ġ1600":7578,"Ġsudan":7579,"2016":7580,"Å¡ek":7581,"Ġcirkul":7582,"Ġepidemi":7583,"120":7584,"nÃ¡r":7585,"sink":7586,"Ġpiv":7587,"Ġfat":7588,"alg":7589,"Ġterrenk":7590,"1931":7591,"app":7592,"Ġabraham":7593,"Ġmans":7594,"rologi":7595,"Ð¾Ð½":7596,"Ġconserv":7597,"prez":7598,"oÅĿip":7599,"Ġtajvan":7600,"Ġkadavr":7601,"bran":7602,"flu":7603,"sland":7604,"ÏĮ":7605,"ÙĨ":7606,"Ġdv":7607,"Ġdod":7608,"omet":7609,"ĠglaÄīer":7610,"ĠÅĿir":7611,"Ġ1816":7612,"izan":7613,"Ġalig":7614,"Ġ1787":7615,"Ġbalen":7616,"Ġkorus":7617,"Ġakvob":7618,"Ġprunt":7619,"Ġmasiv":7620,"gebr":7621,"Ġcollecti":7622,"Ġtechn":7623,"ere":7624,"Ġsr":7625,"Ġselekt":7626,"ena":7627,"entaÄµ":7628,"Ġfag":7629,"rient":7630,"Ġvang":7631,"Äīn":7632,"ole":7633,"isto":7634,"ĠÅĿel":7635,"1942":7636,"Ġ1834":7637,"Ġonidir":7638,"Ġroter":7639,"Ġchin":7640,"Ġmate":7641,"ĠmartÃŃ":7642,"Ġtunizi":7643,"Ġconte":7644,"Ġvideolud":7645,"ciplin":7646,"vÃ¡sÃ¡rhely":7647,"Ġaustr":7648,"Ġich":7649,"Ġlund":7650,"Ġbd":7651,"ĠarÄī":7652,"oki":7653,"osfer":7654,"Ġorlic":7655,"Ġangel":7656,"Ġgraved":7657,"Ġbrn":7658,"ahl":7659,"Ġmadag":7660,"Ġelis":7661,"Ġdinamik":7662,"axac":7663,"ĠÃ¶ster":7664,"kongres":7665,"Ġkintets":7666,"Ġviviend":7667,"Ġbakteri":7668,"numer":7669,"vy":7670,"Äı":7671,"ĠeÄ¥":7672,"Ġic":7673,"ĠvaÅŃd":7674,"Ġgej":7675,"elaci":7676,"urk":7677,"Ġprotein":7678,"igu":7679,"ica":7680,"1937":7681,"Ġlanc":7682,"Ġulrich":7683,"Ġ74":7684,"Ġ130":7685,"Ġbuter":7686,"Ġ1809":7687,"Ġsalzburg":7688,"jekci":7689,"Ġjel":7690,"Ġdob":7691,"Ġtamb":7692,"Ġfj":7693,"Ġsta":7694,"Ġplanck":7695,"imil":7696,"Ġdocent":7697,"Ġdepon":7698,"Ġarkeolog":7699,"Ġsaud":7700,"clop":7701,"Ġjacks":7702,"kanton":7703,"Ġarchiv":7704,"ĠhidraÅŃlik":7705,"kri":7706,"ya":7707,"ĠÅĤ":7708,"Ġà¤":7709,"Ġirigaci":7710,"Ġsank":7711,"Ġmoli":7712,"Ġbin":7713,"Ġkia":7714,"antiv":7715,"okv":7716,"Ġ1826":7717,"Ġwol":7718,"Ġeskap":7719,"Ġ82":7720,"Ġturne":7721,"Ġoptik":7722,"Ġpatent":7723,"Ġbroad":7724,"kovic":7725,"oÅĿose":7726,"ographi":7727,"ĠdrÃ´m":7728,"Ġdivizi":7729,"Ġlord":7730,"Ġjorg":7731,"Ġpyr":7732,"anch":7733,"enw":7734,"Ġtren":7735,"Ġass":7736,"Ġeston":7737,"aku":7738,"Ġmarmor":7739,"abri":7740,"Ġ73":7741,"Ġabstrakt":7742,"Ġbeletr":7743,"Ġneniig":7744,"Ð»Ð°":7745,"jang":7746,"pra":7747,"Ġlek":7748,"ĠnÃ©p":7749,"Ġmorg":7750,"arad":7751,"Ġgron":7752,"Ġunuform":7753,"odin":7754,"Ġ1810":7755,"ojar":7756,"aÅŃstr":7757,"Ġ78":7758,"Ġkompens":7759,"Ġherz":7760,"teatr":7761,"Ġvolumen":7762,"Ġmentor":7763,"Ġnigra":7764,"Ġsacerd":7765,"Ġavenu":7766,"Ġwerner":7767,"ĠÄīerniÄ¥":7768,"dun":7769,"Ġpam":7770,"Ġfrib":7771,"rip":7772,"Ġbj":7773,"rafi":7774,"ember":7775,"Ġbah":7776,"ĠbeneÅ¡":7777,"premiit":7778,"zeÅĪ":7779,"ducti":7780,"ĠhiroÅĿ":7781,"Ġreformaci":7782,"ĠÄīikag":7783,"\"|":7784,"kir":7785,"Ġkind":7786,"Ġtes":7787,"Ġenorm":7788,"Ġferv":7789,"roland":7790,"ovr":7791,"Ġpostviv":7792,"Ġ1814":7793,"eval":7794,"Ġfleks":7795,"Ġepist":7796,"Ġbarn":7797,"haut":7798,"Ġalpes":7799,"enzoato":7800,"×Ļ×":7801,"Ġroterdam":7802,"\";":7803,"mis":7804,"politik":7805,"Ġnau":7806,"Ġtuf":7807,"eland":7808,"irland":7809,"Ġperspektiv":7810,"Ġ1811":7811,"Ġamuz":7812,"ĠthÃ¼r":7813,"nier":7814,"ĠeÅŃro":7815,"Ãºr":7816,"supr":7817,"Ġstokholm":7818,"Ġmauric":7819,"Ġtortur":7820,"Ġvosges":7821,"cor":7822,"nek":7823,"not":7824,"zef":7825,"eno":7826,"arik":7827,"ĠfraÅŃ":7828,"Ġvy":7829,"Ġalgebr":7830,"Ġstrig":7831,"Ġpersi":7832,"1922":7833,"1926":7834,"Ġ1835":7835,"Ġspion":7836,"Ġagrabl":7837,"Ġformat":7838,"Ġ69":7839,"televid":7840,"Ġspring":7841,"Ġstimul":7842,"Ġpalearktis":7843,"Ġerupci":7844,"mÃ¡ny":7845,"patr":7846,"zo":7847,"Ġay":7848,"arta":7849,"Ġlibi":7850,"atov":7851,"rut":7852,"aver":7853,"ajev":7854,"Ġklerik":7855,"ozo":7856,"Ġkoler":7857,"ĠbalÃ¡zs":7858,"elly":7859,"Ġyu":7860,"Ġdekdu":7861,"Ġchristopher":7862,"ÄĽjovic":7863,"Å±vÃ©szet":7864,"mol":7865,"Ġeff":7866,"Ġdezs":7867,"Ġtart":7868,"omorf":7869,"Ġalo":7870,"emal":7871,"Ġels":7872,"ĠplzeÅĪ":7873,"oturn":7874,"1930":7875,"Ġsieg":7876,"Ġflut":7877,"Ã³th":7878,"Ġklost":7879,"Ġ61":7880,"Ġtriop":7881,"ofon":7882,"Ġ96":7883,"Ġvolg":7884,"Ġ1808":7885,"Ġsubtenant":7886,"roviz":7887,"Ġschulz":7888,"Ġtromp":7889,"ĠniÄĿeri":7890,"Ġangios":7891,"aer":7892,"aur":7893,"uo":7894,"voÄī":7895,"ĠÃ¡g":7896,"Ġjack":7897,"Ġnitr":7898,"Ġsond":7899,"ĠmÃ¡rt":7900,"Ġkatali":7901,"ÄĿet":7902,"omot":7903,"Ġbism":7904,"ĠÄīerp":7905,"chy":7906,"otk":7907,"agu":7908,"1927":7909,"Ġ1821":7910,"Ġlingvo":7911,"Ġkverel":7912,"Ġkolumbi":7913,"Ġsociologi":7914,"Ġsalut":7915,"Ġarabi":7916,"Ġpenetr":7917,"eÅŃrop":7918,"Ġjas":7919,"Ġmejl":7920,"Ġlirik":7921,"Ġlice":7922,"Ġalask":7923,"Ġkunul":7924,"utz":7925,"Ġ1818":7926,"Ġwein":7927,"Ġwinter":7928,"icid":7929,"ĠantaÅŃenig":7930,"Ã¼tt":7931,"Ġtrek":7932,"Ġblo":7933,"Ġ81":7934,"Ġkelt":7935,"Ġemm":7936,"Ġpip":7937,"Ġabi":7938,"Ġsomali":7939,"Ġpuert":7940,"Ġsubstantiv":7941,"ĠernÅĳ":7942,"poem":7943,"portug":7944,"Ġpublicist":7945,"sem":7946,"Ġdak":7947,"stan":7948,"Ġdefi":7949,"arj":7950,"rick":7951,"elet":7952,"Ġpour":7953,"Ġprism":7954,"ences":7955,"1911":7956,"Ġkonsul":7957,"lexik":7958,"vier":7959,"muze":7960,"Ġgirond":7961,"osiero":7962,"Ġfriburg":7963,"kart":7964,"nu":7965,"Ġai":7966,"alom":7967,"omy":7968,"Ġbarth":7969,"lips":7970,"Ġhob":7971,"ambr":7972,"eksp":7973,"utub":7974,"ĠwÅĤ":7975,"Ġrend":7976,"Ġinfra":7977,"ional":7978,"Ġfiask":7979,"Ġprofil":7980,"ĠÅĿtorm":7981,"ears":7982,"Ð¸Ñı":7983,"ift":7984,"flag":7985,"Ġ1806":7986,"Ġfrunt":7987,"moskv":7988,"Ġhayd":7989,"Ġgottfried":7990,"ĠcÃ´te":7991,"Ġtelevizi":7992,"hin":7993,"wa":7994,"Äĵ":7995,"Ġearth":7996,"ĠkÅĻ":7997,"Ġindukt":7998,"uls":7999}